{
  "version": "1.0",
  "truncation": null,
  "padding": null,
  "added_tokens": [
    {
      "id": 0,
      "content": "<s>",
      "single_word": false,
      "lstrip": false,
      "rstrip": false,
      "normalized": true,
      "special": true
    },
    {
      "id": 1,
      "content": "<pad>",
      "single_word": false,
      "lstrip": false,
      "rstrip": false,
      "normalized": true,
      "special": true
    },
    {
      "id": 2,
      "content": "</s>",
      "single_word": false,
      "lstrip": false,
      "rstrip": false,
      "normalized": true,
      "special": true
    },
    {
      "id": 3,
      "content": "<unk>",
      "single_word": false,
      "lstrip": false,
      "rstrip": false,
      "normalized": true,
      "special": true
    },
    {
      "id": 4,
      "content": "<mask>",
      "single_word": false,
      "lstrip": true,
      "rstrip": false,
      "normalized": true,
      "special": true
    }
  ],
  "normalizer": null,
  "pre_tokenizer": {
    "type": "ByteLevel",
    "add_prefix_space": false,
    "trim_offsets": true,
    "use_regex": true
  },
  "post_processor": {
    "type": "RobertaProcessing",
    "sep": [
      "</s>",
      2
    ],
    "cls": [
      "<s>",
      0
    ],
    "trim_offsets": true,
    "add_prefix_space": false
  },
  "decoder": {
    "type": "ByteLevel",
    "add_prefix_space": true,
    "trim_offsets": true,
    "use_regex": true
  },
  "model": {
    "type": "BPE",
    "dropout": null,
    "unk_token": null,
    "continuing_subword_prefix": "",
    "end_of_word_suffix": "",
    "fuse_unk": false,
    "byte_fallback": false,
    "vocab": {
      "<s>": 0,
      "<pad>": 1,
      "</s>": 2,
      "<unk>": 3,
      "<mask>": 4,
      "!": 5,
      "\"": 6,
      "#": 7,
      "$": 8,
      "%": 9,
      "&": 10,
      "'": 11,
      "(": 12,
      ")": 13,
      "*": 14,
      "+": 15,
      ",": 16,
      "-": 17,
      ".": 18,
      "/": 19,
      "0": 20,
      "1": 21,
      "2": 22,
      "3": 23,
      "4": 24,
      "5": 25,
      "6": 26,
      "7": 27,
      "8": 28,
      "9": 29,
      ":": 30,
      ";": 31,
      "<": 32,
      "=": 33,
      ">": 34,
      "?": 35,
      "@": 36,
      "A": 37,
      "B": 38,
      "C": 39,
      "D": 40,
      "E": 41,
      "F": 42,
      "G": 43,
      "H": 44,
      "I": 45,
      "J": 46,
      "K": 47,
      "L": 48,
      "M": 49,
      "N": 50,
      "O": 51,
      "P": 52,
      "Q": 53,
      "R": 54,
      "S": 55,
      "T": 56,
      "U": 57,
      "V": 58,
      "W": 59,
      "X": 60,
      "Y": 61,
      "Z": 62,
      "[": 63,
      "\\": 64,
      "]": 65,
      "^": 66,
      "_": 67,
      "`": 68,
      "a": 69,
      "b": 70,
      "c": 71,
      "d": 72,
      "e": 73,
      "f": 74,
      "g": 75,
      "h": 76,
      "i": 77,
      "j": 78,
      "k": 79,
      "l": 80,
      "m": 81,
      "n": 82,
      "o": 83,
      "p": 84,
      "q": 85,
      "r": 86,
      "s": 87,
      "t": 88,
      "u": 89,
      "v": 90,
      "w": 91,
      "x": 92,
      "y": 93,
      "z": 94,
      "{": 95,
      "|": 96,
      "}": 97,
      "~": 98,
      "¡": 99,
      "¢": 100,
      "£": 101,
      "¤": 102,
      "¥": 103,
      "¦": 104,
      "§": 105,
      "¨": 106,
      "©": 107,
      "ª": 108,
      "«": 109,
      "¬": 110,
      "®": 111,
      "¯": 112,
      "°": 113,
      "±": 114,
      "²": 115,
      "³": 116,
      "´": 117,
      "µ": 118,
      "¶": 119,
      "·": 120,
      "¸": 121,
      "¹": 122,
      "º": 123,
      "»": 124,
      "¼": 125,
      "½": 126,
      "¾": 127,
      "¿": 128,
      "À": 129,
      "Á": 130,
      "Â": 131,
      "Ã": 132,
      "Ä": 133,
      "Å": 134,
      "Æ": 135,
      "Ç": 136,
      "È": 137,
      "É": 138,
      "Ê": 139,
      "Ë": 140,
      "Ì": 141,
      "Í": 142,
      "Î": 143,
      "Ï": 144,
      "Ð": 145,
      "Ñ": 146,
      "Ò": 147,
      "Ó": 148,
      "Ô": 149,
      "Õ": 150,
      "Ö": 151,
      "×": 152,
      "Ø": 153,
      "Ù": 154,
      "Ú": 155,
      "Û": 156,
      "Ü": 157,
      "Ý": 158,
      "Þ": 159,
      "ß": 160,
      "à": 161,
      "á": 162,
      "â": 163,
      "ã": 164,
      "ä": 165,
      "å": 166,
      "æ": 167,
      "ç": 168,
      "è": 169,
      "é": 170,
      "ê": 171,
      "ë": 172,
      "ì": 173,
      "í": 174,
      "î": 175,
      "ï": 176,
      "ð": 177,
      "ñ": 178,
      "ò": 179,
      "ó": 180,
      "ô": 181,
      "õ": 182,
      "ö": 183,
      "÷": 184,
      "ø": 185,
      "ù": 186,
      "ú": 187,
      "û": 188,
      "ü": 189,
      "ý": 190,
      "þ": 191,
      "ÿ": 192,
      "Ā": 193,
      "ā": 194,
      "Ă": 195,
      "ă": 196,
      "Ą": 197,
      "ą": 198,
      "Ć": 199,
      "ć": 200,
      "Ĉ": 201,
      "ĉ": 202,
      "Ċ": 203,
      "ċ": 204,
      "Č": 205,
      "č": 206,
      "Ď": 207,
      "ď": 208,
      "Đ": 209,
      "đ": 210,
      "Ē": 211,
      "ē": 212,
      "Ĕ": 213,
      "ĕ": 214,
      "Ė": 215,
      "ė": 216,
      "Ę": 217,
      "ę": 218,
      "Ě": 219,
      "ě": 220,
      "Ĝ": 221,
      "ĝ": 222,
      "Ğ": 223,
      "ğ": 224,
      "Ġ": 225,
      "ġ": 226,
      "Ģ": 227,
      "ģ": 228,
      "Ĥ": 229,
      "ĥ": 230,
      "Ħ": 231,
      "ħ": 232,
      "Ĩ": 233,
      "ĩ": 234,
      "Ī": 235,
      "ī": 236,
      "Ĭ": 237,
      "ĭ": 238,
      "Į": 239,
      "į": 240,
      "İ": 241,
      "ı": 242,
      "Ĳ": 243,
      "ĳ": 244,
      "Ĵ": 245,
      "ĵ": 246,
      "Ķ": 247,
      "ķ": 248,
      "ĸ": 249,
      "Ĺ": 250,
      "ĺ": 251,
      "Ļ": 252,
      "ļ": 253,
      "Ľ": 254,
      "ľ": 255,
      "Ŀ": 256,
      "ŀ": 257,
      "Ł": 258,
      "ł": 259,
      "Ń": 260,
      "*>": 261,
      "<*>": 262,
      "Ġ<*>": 263,
      "Ġ'": 264,
      "or": 265,
      "in": 266,
      "Ġc": 267,
      "re": 268,
      "er": 269,
      "ct": 270,
      "io": 271,
      "ed": 272,
      "Ġs": 273,
      "Ġa": 274,
      "Ġ<*>,": 275,
      "de": 276,
      "Ġ<*>'": 277,
      "Ġf": 278,
      "Ġm": 279,
      "ar": 280,
      "Ġp": 281,
      "Ġi": 282,
      "ror": 283,
      "cted": 284,
      "Ġcor": 285,
      "ing": 286,
      "ss": 287,
      "at": 288,
      "Ġer": 289,
      "ge": 290,
      "Ġin": 291,
      "cio": 292,
      "ciod": 293,
      "=<*>": 294,
      "no": 295,
      "ion": 296,
      "23": 297,
      "he": 298,
      "Ġis": 299,
      "it": 300,
      "al": 301,
      "Ġo": 302,
      "Ġerror": 303,
      "il": 304,
      "ym": 305,
      "Ġsym": 306,
      "Ġcorre": 307,
      "ra": 308,
      "Ġcorrected": 309,
      "Ġno": 310,
      "as": 311,
      "Ġd": 312,
      "Ġt": 313,
      "65": 314,
      "Ġat": 315,
      "Ġde": 316,
      "ode": 317,
      "nd": 318,
      "lo": 319,
      "ask": 320,
      "CE": 321,
      "Ġmask": 322,
      "ru": 323,
      "ro": 324,
      "ck": 325,
      "ard": 326,
      "Ġcard": 327,
      "45": 328,
      "ction": 329,
      "st": 330,
      "ĠE": 331,
      "ce": 332,
      "ad": 333,
      "ac": 334,
      "te": 335,
      ".<*>": 336,
      "ĠC": 337,
      "Ġpro": 338,
      "id": 339,
      "Ġpar": 340,
      "et": 341,
      "es": 342,
      "ĠR": 343,
      "tected": 344,
      "age": 345,
      "40": 346,
      "ache": 347,
      "ity": 348,
      "Ġparity": 349,
      "Ġcache": 350,
      "50": 351,
      "Ġfor": 352,
      "ol": 353,
      "Ġdetected": 354,
      "Ġfil": 355,
      "rror": 356,
      "erat": 357,
      "ĠError": 358,
      "ruction": 359,
      "struction": 360,
      "instruction": 361,
      "aa": 362,
      "ĠA": 363,
      "Ġ'<*>": 364,
      "Ġor": 365,
      "Ġb": 366,
      "nerat": 367,
      "Ġcore": 368,
      "generat": 369,
      "Ġra": 370,
      "Ġon": 371,
      "Ġre": 372,
      "=<*>,": 373,
      "ading": 374,
      "pt": 375,
      "ĠM": 376,
      "iv": 377,
      "ĠO": 378,
      "gra": 379,
      "gram": 380,
      "Ġprogram": 381,
      "ĠL": 382,
      "Ġnot": 383,
      "ĠOK": 384,
      "ch": 385,
      "Ġand": 386,
      "un": 387,
      "ĠJ": 388,
      "Node": 389,
      "fc": 390,
      "ab": 391,
      "dr": 392,
      "13": 393,
      "an": 394,
      "Ġ(": 395,
      "83": 396,
      "Ġddr": 397,
      "am": 398,
      "ter": 399,
      "Ġto": 400,
      "ig": 401,
      "Ġv": 402,
      "ire": 403,
      "Ġof": 404,
      "iss": 405,
      "ec": 406,
      "ign": 407,
      "ff": 408,
      "Ġnode": 409,
      "Ġ:": 410,
      "lock": 411,
      "63": 412,
      "ly": 413,
      "ress": 414,
      "ĠT": 415,
      ".<*>'": 416,
      "ceiv": 417,
      "Ġfile": 418,
      "Ġsu": 419,
      "LE": 420,
      "Ġass": 421,
      "Ġst": 422,
      "le": 423,
      "AG": 424,
      "TAG": 425,
      "ĠClock": 426,
      "eset": 427,
      "ĠReset": 428,
      "ĠJTAG": 429,
      "Ġ<*>.<*>": 430,
      "09": 431,
      "olt": 432,
      "Ġrail": 433,
      "Ġvolt": 434,
      "ĠThe": 435,
      "ess": 436,
      "essage": 437,
      "generating": 438,
      "0940": 439,
      "Ġmessage": 440,
      "ĠP": 441,
      "us": 442,
      "=<*>'": 443,
      "ĠN": 444,
      "Ġlo": 445,
      "ĠV": 446,
      "ream": 447,
      "dc": 448,
      "57": 449,
      "PD": 450,
      "ĠVPD": 451,
      "Ġstat": 452,
      "..": 453,
      "Ġinter": 454,
      "rupt": 455,
      "Ġinterrupt": 456,
      "64": 457,
      ":<*>": 458,
      "cket": 459,
      "Ġpre": 460,
      "irect": 461,
      "ory": 462,
      "St": 463,
      "ĠNo": 464,
      "Ġ<*>:<*>": 465,
      "ut": 466,
      "Ġdirect": 467,
      "Ġdirectory": 468,
      "ocket": 469,
      "Ġsuch": 470,
      "Ġpref": 471,
      "Ġbit": 472,
      "Ġsocket": 473,
      "ix": 474,
      "ioSt": 475,
      "Ġprefix": 476,
      "ioStream": 477,
      "nt": 478,
      "alid": 479,
      "valid": 480,
      "62": 481,
      "Ġinvalid": 482,
      "issing": 483,
      "Ġfu": 484,
      "Ġmissing": 485,
      "mage": 486,
      "Ġimage": 487,
      "Ġloading": 488,
      "da": 489,
      "Ġreading": 490,
      "ĠCioStream": 491,
      "ĠRe": 492,
      "Ġsign": 493,
      "Ġsignal": 494,
      "dd": 495,
      "69": 496,
      "Ġcode": 497,
      "18": 498,
      "ddress": 499,
      "Ġaddress": 500,
      "963": 501,
      "rno": 502,
      "Ġerrno": 503,
      "1383": 504,
      "ceived": 505,
      "ĠReceived": 506,
      "9631383": 507,
      "11": 508,
      "ic": 509,
      "Ġfiles": 510,
      "Ġstatus": 511,
      "rt": 512,
      "Ġgenerat": 513,
      "Ġgenerated": 514,
      ".'": 515,
      "Ġw": 516,
      "tal": 517,
      "pe": 518,
      "ĠS": 519,
      "bol": 520,
      "Ġsymbol": 521,
      "nk": 522,
      "Ġrank": 523,
      "ond": 524,
      "econd": 525,
      "econds": 526,
      "to": 527,
      "put": 528,
      "Ġinput": 529,
      "ert": 530,
      "ou": 531,
      "ation": 532,
      "erted": 533,
      "Ġe": 534,
      "ail": 535,
      "82": 536,
      "Ġpo": 537,
      "Ġfail": 538,
      "Ġfailed": 539,
      "CH": 540,
      "int": 541,
      "Ġpoint": 542,
      "ent": 543,
      "unt": 544,
      "35": 545,
      "mb": 546,
      "ount": 547,
      "gl": 548,
      "49": 549,
      "Ġbgl": 550,
      "Ġbglio": 551,
      "total": 552,
      "erm": 553,
      "ctiv": 554,
      "ĠI": 555,
      "lan": 556,
      "Ġactiv": 557,
      "Ġdear": 558,
      "GO": 559,
      "OD": 560,
      "GOOD": 561,
      "ĠIS": 562,
      "TI": 563,
      "RR": 564,
      "OR": 565,
      "RROR": 566,
      "RT": 567,
      "ĠAS": 568,
      "plan": 569,
      "idplan": 570,
      "idplane": 571,
      "ĠF": 572,
      "IC": 573,
      "Ġmount": 574,
      "ĠSe": 575,
      "for": 576,
      "AI": 577,
      "unction": 578,
      "form": 579,
      "Lu": 580,
      "stre": 581,
      "LED": 582,
      "ĠFAI": 583,
      "Lustre": 584,
      "ĠFAILED": 585,
      "ver": 586,
      "Ġfunction": 587,
      "Ġfunctional": 588,
      "bf": 589,
      "lly": 590,
      "Ġfully": 591,
      "Ġactive": 592,
      "Ġasserted": 593,
      "07": 594,
      "ow": 595,
      "ĠMidplane": 596,
      "IN": 597,
      "AT": 598,
      "PGOOD": 599,
      "ĠMPGOOD": 600,
      "VE": 601,
      "CTI": 602,
      "ĠACTI": 603,
      "ĠACTIVE": 604,
      "ĠERROR": 605,
      "ĠLAT": 606,
      "ĠLATCH": 607,
      "Ġ<*>:<*>,": 608,
      "lect": 609,
      "2335": 610,
      "ĠALE": 611,
      "ĠALERT": 612,
      "get": 613,
      "623": 614,
      "Ġare": 615,
      "hy": 616,
      "ĠMode": 617,
      "ĠLow": 618,
      "ĠPhy": 619,
      "ĠASIC": 620,
      "ĠSelect": 621,
      "ĠALERTs": 622,
      "Ġget": 623,
      "emb": 624,
      "embly": 625,
      "Can": 626,
      "Ġinform": 627,
      "Ġassembly": 628,
      "6232": 629,
      "Ġinformation": 630,
      "Ġerrors": 631,
      "bfe": 632,
      "cbfe": 633,
      "1840": 634,
      "abb": 635,
      "<*>)": 636,
      "bda": 637,
      "66": 638,
      "ĠU": 639,
      "OG": 640,
      "ĠLOG": 641,
      "ĠLOGIN": 642,
      "['": 643,
      "cess": 644,
      "Ġinterrupts": 645,
      "rit": 646,
      "heck": 647,
      "Ġcheck": 648,
      "ical": 649,
      "ritical": 650,
      "Ġseconds": 651,
      "Ġec": 652,
      "fab": 653,
      "Ġprocess": 654,
      "Ġprocessor": 655,
      "Ġecid": 656,
      "Ġslo": 657,
      "Ġslot": 658,
      "<*>'": 659,
      "4983": 660,
      "ied": 661,
      "Ġ<*>)": 662,
      "Ġex": 663,
      "47": 664,
      "atch": 665,
      "Ġdo": 666,
      "88": 667,
      "ption": 668,
      "ception": 669,
      "16": 670,
      "ound": 671,
      "00": 672,
      "Ġ/": 673,
      "Ġfound": 674,
      "627": 675,
      "Ġmatch": 676,
      "gb": 677,
      "Ġ(<*>)": 678,
      "Ġover": 679,
      "455": 680,
      "dcr": 681,
      "138": 682,
      "57138": 683,
      "Ġiar": 684,
      "cfc": 685,
      "147": 686,
      "cfcff": 687,
      "Ġal": 688,
      "']": 689,
      "Ġexception": 690,
      "ment": 691,
      "ignment": 692,
      "Ġalignment": 693,
      "Ġexceptions": 694,
      "pp": 695,
      "91": 696,
      "ype": 697,
      "Ġtype": 698,
      "....": 699,
      "edf": 700,
      "363": 701,
      "nied": 702,
      "Ġdenied": 703,
      "ission": 704,
      "ĠPerm": 705,
      "ĠPermission": 706,
      "=<*>)": 707,
      "Ġch": 708,
      "Ġthe": 709,
      "=<*>):": 710,
      "unit": 711,
      "ne": 712,
      "her": 713,
      "ressing": 714,
      "Ġfurt": 715,
      "ppressing": 716,
      "Ġfurther": 717,
      "fa": 718,
      "Ġwire": 719,
      "rts": 720,
      "ame": 721,
      "ning": 722,
      "Ġsame": 723,
      "critical": 724,
      "arning": 725,
      "Ġwarning": 726,
      "fter": 727,
      "Ġafter": 728,
      "Ġ<*>:<*>:": 729,
      "8291": 730,
      "Ġreceiv": 731,
      "mm": 732,
      "im": 733,
      "73": 734,
      "ating": 735,
      "Ġreceiver": 736,
      "Ġma": 737,
      "on": 738,
      "700": 739,
      "erne": 740,
      "ernel": 741,
      "ea": 742,
      "bb": 743,
      "ip": 744,
      "Ġ=": 745,
      "do": 746,
      "icro": 747,
      "Ġchip": 748,
      "44": 749,
      "Ġip": 750,
      "406": 751,
      "uppressing": 752,
      "ated": 753,
      "seconds": 754,
      "Ġmicro": 755,
      "Ġmicroseconds": 756,
      "40645": 757,
      "efa": 758,
      "suppressing": 759,
      "ble": 760,
      "kernel": 761,
      "Ġkernel": 762,
      "inated": 763,
      "ason": 764,
      "Ġterm": 765,
      "Ġreason": 766,
      "Ġterminated": 767,
      "Ġtim": 768,
      "ee": 769,
      "22": 770,
      "75": 771,
      "orus": 772,
      "umm": 773,
      "ca": 774,
      "ont": 775,
      "Ġtorus": 776,
      "739": 777,
      "humm": 778,
      "Ġdou": 779,
      "6265": 780,
      "hummer": 781,
      "Ġdouble": 782,
      "Ġstate": 783,
      "ree": 784,
      "Ġtree": 785,
      "rol": 786,
      "ontrol": 787,
      "yn": 788,
      "02": 789,
      "ae": 790,
      "loating": 791,
      "df": 792,
      "Ġmap": 793,
      "96": 794,
      "94": 795,
      "Ġcorrect": 796,
      "able": 797,
      "<*>-": 798,
      "iar": 799,
      "ger": 800,
      "eeb": 801,
      "Ġfloating": 802,
      "ipe": 803,
      "Ġpipe": 804,
      "30": 805,
      "ĠD": 806,
      "Ġcritical": 807,
      "71": 808,
      "Ġl": 809,
      "Ġtotal": 810,
      "946": 811,
      "130": 812,
      "340": 813,
      "Ġout": 814,
      "syn": 815,
      "vent": 816,
      "Ġevent": 817,
      "synch": 818,
      "ata": 819,
      "........": 820,
      "pu": 821,
      "data": 822,
      "erv": 823,
      "59": 824,
      "ice": 825,
      "ervice": 826,
      "Ġcpu": 827,
      "ug": 828,
      "Ġtime": 829,
      "70": 830,
      "61": 831,
      "53": 832,
      "52": 833,
      "ri": 834,
      "Control": 835,
      "Ido": 836,
      "ine": 837,
      "Ġinto": 838,
      "cation": 839,
      "bug": 840,
      "Ġido": 841,
      "ged": 842,
      "anged": 843,
      "Ġchanged": 844,
      "55": 845,
      "Ġblock": 846,
      "Ġas": 847,
      "996": 848,
      "mpt": 849,
      "Ġatte": 850,
      "mpting": 851,
      "Ġattempting": 852,
      "Ġ-": 853,
      "Ġpart": 854,
      "atab": 855,
      "ase": 856,
      "atabase": 857,
      "375": 858,
      "444": 859,
      "Ġins": 860,
      "062": 861,
      "Ne": 862,
      "Ġdatabase": 863,
      "Ġinserted": 864,
      "062444": 865,
      "New": 866,
      "ĠAction": 867,
      "ĠService": 868,
      "Ġmax": 869,
      "25": 870,
      "Ġspe": 871,
      "dad": 872,
      "Ġspent": 873,
      "Ġsuppressing": 874,
      "Ġlocation": 875,
      "bugger": 876,
      "Ġdebugger": 877,
      "Des": 878,
      "cri": 879,
      "etected": 880,
      "lControl": 881,
      "ors": 882,
      "Ġpol": 883,
      "2355": 884,
      "Ġdied": 885,
      "ptors": 886,
      "ĠDetected": 887,
      "Descri": 888,
      "lControlDescri": 889,
      "ĠpollControlDescri": 890,
      "ĠpollControlDescriptors": 891,
      "7153": 892,
      "of": 893,
      "and": 894,
      "irt": 895,
      "Dirt": 896,
      "Ġ#": 897,
      "ofDirt": 898,
      "ofDirty": 899,
      "rom": 900,
      "Ġfrom": 901,
      "5975": 902,
      "ader": 903,
      "Ġcre": 904,
      "Ġcreating": 905,
      "ba": 906,
      "Ġline": 907,
      "ACH": 908,
      "en": 909,
      "Ġr": 910,
      "828": 911,
      "Ġbad": 912,
      "['<*>": 913,
      "502": 914,
      "Ġtimed": 915,
      "header": 916,
      "Ġheader": 917,
      "Ġh": 918,
      "84": 919,
      "ler": 920,
      "qu": 921,
      "umb": 922,
      "umber": 923,
      "xpe": 924,
      "xpected": 925,
      "em": 926,
      "ur": 927,
      "Ġ<*>:<*>'": 928,
      "Ġret": 929,
      "90": 930,
      "ply": 931,
      "quen": 932,
      "ĠExpected": 933,
      "ĠReply": 934,
      "quence": 935,
      "Ġread": 936,
      "3758": 937,
      "...": 938,
      "43": 939,
      "<*>=<*>": 940,
      "183": 941,
      "CioStream": 942,
      "Ġcontrol": 943,
      "Ġstream": 944,
      "32": 945,
      "perat": 946,
      "Ġcorrectable": 947,
      "dex": 948,
      "Ġindex": 949,
      "se": 950,
      "omm": 951,
      "ary": 952,
      "bs": 953,
      "72": 954,
      "<*>,": 955,
      "228": 956,
      "Ġinst": 957,
      "Ġwas": 958,
      "um": 959,
      "322": 960,
      "ls": 961,
      "Ġcal": 962,
      "Ġsing": 963,
      "Ġdur": 964,
      "ance": 965,
      "imum": 966,
      "Ġmaximum": 967,
      "andler": 968,
      "Ġrbs": 969,
      "Ġhandler": 970,
      "Ġinstance": 971,
      "322228": 972,
      "Ġcalls": 973,
      "Ġsingle": 974,
      "Ġduring": 975,
      "0045": 976,
      "ure": 977,
      "onne": 978,
      "ffff": 979,
      "Ġsumm": 980,
      "Ġsummary": 981,
      "6684": 982,
      "onnection": 983,
      "ines": 984,
      "ĠConnection": 985,
      "fd": 986,
      "ages": 987,
      "ddc": 988,
      "Kernel": 989,
      "Ġinte": 990,
      "Ġinteger": 991,
      "ĠDC": 992,
      "Db": 993,
      "Lines": 994,
      "Wor": 995,
      "lWor": 996,
      "Ġaver": 997,
      "ofDirtyDb": 998,
      "ofDirtyLines": 999,
      "ACHE": 1000,
      "326684": 1001,
      "ĠDCACHE": 1002,
      "lWord": 1003,
      "Ġaverages": 1004,
      "ofDirtyDblWord": 1005,
      "32668423": 1006,
      "ĠComm": 1007,
      "fae": 1008,
      "cde": 1009,
      "cfae": 1010,
      "Ġ...": 1011,
      "emperat": 1012,
      "emperature": 1013,
      "496": 1014,
      "4496": 1015,
      "450": 1016,
      "390": 1017,
      "51": 1018,
      "731": 1019,
      "736": 1020,
      "731736": 1021,
      "Ġ(<*>)'": 1022,
      "du": 1023,
      "659": 1024,
      "NF": 1025,
      "ry": 1026,
      "Ġsle": 1027,
      "ĠMount": 1028,
      "Ġretry": 1029,
      "51659": 1030,
      "NFS": 1031,
      "Ġslept": 1032,
      "Ġretrying": 1033,
      "SR": 1034,
      "ĠPSR": 1035,
      "................": 1036,
      "ual": 1037,
      "Number": 1038,
      "equence": 1039,
      "ctual": 1040,
      "ĠActual": 1041,
      "ĠOp": 1042,
      "ĠSyn": 1043,
      "ĠCommand": 1044,
      "equenceNumber": 1045,
      "ĠSync": 1046,
      "05": 1047,
      "Ġ<*>']": 1048,
      "68": 1049,
      "HE": 1050,
      "77": 1051,
      "ink": 1052,
      "Ġ--": 1053,
      "opp": 1054,
      "Ġstopp": 1055,
      "Ġstopping": 1056,
      "ecut": 1057,
      "Ġexecut": 1058,
      "iz": 1059,
      "ddr": 1060,
      "Ġun": 1061,
      "xception": 1062,
      "14": 1063,
      "92": 1064,
      "Ġ<*>)'": 1065,
      "ht": 1066,
      "ant": 1067,
      "CK": 1068,
      "Exception": 1069,
      "av": 1070,
      "jav": 1071,
      "Ġjav": 1072,
      "Ġjava": 1073,
      "Ġlr": 1074,
      "04": 1075,
      "rec": 1076,
      "418": 1077,
      "223": 1078,
      "MACH": 1079,
      "ĠCHE": 1080,
      "INE": 1081,
      "418223": 1082,
      "MACHINE": 1083,
      "ĠCHECK": 1084,
      "4182236": 1085,
      "Ġste": 1086,
      "Ġsteer": 1087,
      "hine": 1088,
      "achine": 1089,
      "fp": 1090,
      "fpr": 1091,
      "ist": 1092,
      "gist": 1093,
      "gister": 1094,
      "is": 1095,
      "Ġlink": 1096,
      "ized": 1097,
      "Ġpan": 1098,
      "Ġpanic": 1099,
      "0716": 1100,
      "220716": 1101,
      "Ġexecution": 1102,
      "fdc": 1103,
      "912": 1104,
      "ĠB": 1105,
      "LB": 1106,
      "ĠTLB": 1107,
      "XF": 1108,
      "Ġcable": 1109,
      "Ġsteering": 1110,
      "...<*>'": 1111,
      "19": 1112,
      "reco": 1113,
      "ĠLim": 1114,
      "ĠLimit": 1115,
      "ffa": 1116,
      "addr": 1117,
      "gn": 1118,
      "Ġsent": 1119,
      "Ġtreeaddr": 1120,
      "Ġunreco": 1121,
      "gnized": 1122,
      "Ġunrecognized": 1123,
      "ĠMessage": 1124,
      "21": 1125,
      "eb": 1126,
      "ndant": 1127,
      "Ġredu": 1128,
      "Ġredundant": 1129,
      "Ġactivating": 1130,
      "spp": 1131,
      "<*>/": 1132,
      "sppm": 1133,
      "3568": 1134,
      "out": 1135,
      "cd": 1136,
      "bbe": 1137,
      "872": 1138,
      "149": 1139,
      "Ġtimeout": 1140,
      "Ġregister": 1141,
      "Ġrever": 1142,
      "Ġ-->": 1143,
      "Ġreverse": 1144,
      "machine": 1145,
      "06": 1146,
      "nal": 1147,
      "cc": 1148,
      "ERT": 1149,
      "SERT": 1150,
      "ĠASSERT": 1151,
      "nable": 1152,
      "ĠPGOOD": 1153,
      "083": 1154,
      "083912": 1155,
      "OT": 1156,
      "ĠNOT": 1157,
      "Ġtoo": 1158,
      "fff": 1159,
      "Ġ>": 1160,
      "Ġbig": 1161,
      "6209": 1162,
      "ex": 1163,
      "ternal": 1164,
      "external": 1165,
      "IXF": 1166,
      "ĠPIXF": 1167,
      "Ġth": 1168,
      "ON": 1169,
      "ATI": 1170,
      "ERROR": 1171,
      "MM": 1172,
      "NIC": 1173,
      "OMM": 1174,
      "UNIC": 1175,
      "ĠCOMM": 1176,
      "ATION": 1177,
      "UNICATION": 1178,
      "ĠCOMMUNICATION": 1179,
      "ĠNumber": 1180,
      "Is": 1181,
      "Ok": 1182,
      "Out": 1183,
      "SequenceNumber": 1184,
      "ĠsequenceNumber": 1185,
      "Ġfal": 1186,
      "Ġtru": 1187,
      "ĠSequence": 1188,
      "ries": 1189,
      "ĠtimedOut": 1190,
      "Ġretries": 1191,
      "ĠExpectedSequenceNumber": 1192,
      "IsOk": 1193,
      "ĠsequenceNumberIsOk": 1194,
      "Ġfalse": 1195,
      "Ġtrue": 1196,
      "87": 1197,
      "fffffff": 1198,
      "Ġca": 1199,
      "Ġffffffff": 1200,
      "26": 1201,
      "0669": 1202,
      "ught": 1203,
      "Ġcaught": 1204,
      "60": 1205,
      "Sw": 1206,
      "itch": 1207,
      "Switch": 1208,
      "Ġenable": 1209,
      "dis": 1210,
      "disable": 1211,
      "03": 1212,
      "abc": 1213,
      "net": 1214,
      "Temperature": 1215,
      "ĠOver": 1216,
      "..<*>'": 1217,
      "Do": 1218,
      "3587": 1219,
      "35878": 1220,
      "665": 1221,
      "Ġby": 1222,
      "ebb": 1223,
      "ebbac": 1224,
      "pro": 1225,
      "ĠTemperature": 1226,
      "Service": 1227,
      "0259": 1228,
      "ith": 1229,
      "Ġwith": 1230,
      "ld": 1231,
      "Stat": 1232,
      "db": 1233,
      "lang": 1234,
      "eException": 1235,
      "121": 1236,
      "941": 1237,
      "121941": 1238,
      "Error": 1239,
      "618": 1240,
      "erform": 1241,
      "Ġperform": 1242,
      "Ġbe": 1243,
      "Controller": 1244,
      "odu": 1245,
      "014": 1246,
      "odule": 1247,
      "ible": 1248,
      "ccess": 1249,
      "Ġaccess": 1250,
      "cafa": 1251,
      "6187": 1252,
      "are": 1253,
      "....<*>'": 1254,
      "314": 1255,
      "par": 1256,
      "Ġmodule": 1257,
      "wer": 1258,
      "Ġpower": 1259,
      "Ġaccessible": 1260,
      "Midplane": 1261,
      "SwitchController": 1262,
      "MidplaneSwitchController": 1263,
      "ĠAss": 1264,
      "ertion": 1265,
      "ight": 1266,
      "Micro": 1267,
      "bd": 1268,
      "loader": 1269,
      "ĠAssertion": 1270,
      "Microloader": 1271,
      "20": 1272,
      "48": 1273,
      "Ġbeing": 1274,
      "floating": 1275,
      "99": 1276,
      "rce": 1277,
      "ĠSou": 1278,
      "ĠSource": 1279,
      "Ġpa": 1280,
      "89": 1281,
      "Ġpacket": 1282,
      "33": 1283,
      "=<*>']": 1284,
      "........................": 1285,
      "ile": 1286,
      "lb": 1287,
      "699": 1288,
      "316": 1289,
      "NK": 1290,
      "kpt": 1291,
      "light": 1292,
      "ĠCNK": 1293,
      "chkpt": 1294,
      "mode": 1295,
      "ĠVN": 1296,
      "8871": 1297,
      "058871": 1298,
      "24": 1299,
      "Ġfi": 1300,
      "cad": 1301,
      "074": 1302,
      "848": 1303,
      "29": 1304,
      "UT": 1305,
      "rain": 1306,
      "80": 1307,
      "sent": 1308,
      "Ġpresent": 1309,
      "748": 1310,
      "Missing": 1311,
      "ĠCable": 1312,
      "ĠBUT": 1313,
      "ort": 1314,
      "peration": 1315,
      "Il": 1316,
      "gal": 1317,
      "legal": 1318,
      "StateException": 1319,
      "Illegal": 1320,
      "IllegalStateException": 1321,
      "Ġg": 1322,
      "cb": 1323,
      "pare": 1324,
      "art": 1325,
      "hile": 1326,
      "Ġ'<*>'": 1327,
      "......<*>'": 1328,
      "ĠZ": 1329,
      "For": 1330,
      "Pre": 1331,
      "Ġdone": 1332,
      "Ġthis": 1333,
      "pareFor": 1334,
      "PrepareFor": 1335,
      "PrepareForService": 1336,
      "use": 1337,
      "7848": 1338,
      "Ġman": 1339,
      "949": 1340,
      "ager": 1341,
      "Ġmanager": 1342,
      "invalid": 1343,
      "ore": 1344,
      ".']": 1345,
      "etch": 1346,
      "<*>),": 1347,
      "873": 1348,
      "Ġne": 1349,
      "Ġservice": 1350,
      "yst": 1351,
      "unic": 1352,
      "33699": 1353,
      "ystem": 1354,
      "Ġspar": 1355,
      "9250": 1356,
      "Ġperforming": 1357,
      "Ġsparing": 1358,
      "368": 1359,
      "1120": 1360,
      "cache": 1361,
      "sh": 1362,
      "213": 1363,
      "ido": 1364,
      "21335": 1365,
      "IDo": 1366,
      "xt": 1367,
      "irectIDo": 1368,
      "emory": 1369,
      "memory": 1370,
      "Ġgo": 1371,
      ".<*>']": 1372,
      "DR": 1373,
      "<*>=<*>'": 1374,
      "IO": 1375,
      "IOException": 1376,
      "ould": 1377,
      "eca": 1378,
      ":'": 1379,
      "ue": 1380,
      "Ġbeca": 1381,
      "Ġbecause": 1382,
      "935": 1383,
      "31": 1384,
      "location": 1385,
      "Ġallocation": 1386,
      "Ġnext": 1387,
      "debug": 1388,
      "Ġmode": 1389,
      "Ġpt": 1390,
      "0703": 1391,
      "8970": 1392,
      "07038970": 1393,
      "15": 1394,
      "........<*>'": 1395,
      "lear": 1396,
      "ĠPR": 1397,
      "Ġclear": 1398,
      "Ġtemperature": 1399,
      "Ġ-<*>,": 1400,
      "ĠPRXF": 1401,
      "adb": 1402,
      "eeee": 1403,
      "Ġplb": 1404,
      "ĠLatch": 1405,
      "703": 1406,
      "ED": 1407,
      "ĠMask": 1408,
      "ĠASSERTED": 1409,
      "998": 1410,
      "Ġfilesystem": 1411,
      "Ġunable": 1412,
      "87321": 1413,
      "xy": 1414,
      "proxy": 1415,
      "idoproxy": 1416,
      "idoproxydb": 1417,
      "08": 1418,
      "892": 1419,
      "Ġcomm": 1420,
      "93563": 1421,
      "ĠX": 1422,
      "ĠY": 1423,
      "ĠCould": 1424,
      "ĠiDo": 1425,
      "646": 1426,
      "28": 1427,
      "add": 1428,
      "91271": 1429,
      "ag": 1430,
      "pl": 1431,
      "ial": 1432,
      "ĠRegister": 1433,
      "gu": 1434,
      "aran": 1435,
      "addd": 1436,
      "teed": 1437,
      "guaran": 1438,
      "guaranteed": 1439,
      "cdd": 1440,
      "377": 1441,
      "itial": 1442,
      "Ġprefetch": 1443,
      "icache": 1444,
      "3777": 1445,
      "af": 1446,
      "torus": 1447,
      "Ġtrain": 1448,
      "Ġwant": 1449,
      "Ġtraining": 1450,
      "Ġwanted": 1451,
      "eld": 1452,
      "enable": 1453,
      "Ġfield": 1454,
      "resh": 1455,
      "old": 1456,
      "Ġthresh": 1457,
      "Ġthreshold": 1458,
      "eee": 1459,
      "Ġhas": 1460,
      "fe": 1461,
      "1646": 1462,
      "ĠMissing": 1463,
      "Ġfields": 1464,
      "Lct": 1465,
      "mLct": 1466,
      "mLctn": 1467,
      "ken": 1468,
      "roken": 1469,
      "ĠBroken": 1470,
      "Socket": 1471,
      "SocketException": 1472,
      "243": 1473,
      "tag": 1474,
      "ĠJtag": 1475,
      "76": 1476,
      "Ġcond": 1477,
      "ition": 1478,
      "ĠFunction": 1479,
      "Ġhit": 1480,
      "Ġcondition": 1481,
      "Ġcon": 1482,
      "acb": 1483,
      "faacb": 1484,
      "Ġregisters": 1485,
      "acc": 1486,
      "wor": 1487,
      "work": 1488,
      "Ġnet": 1489,
      "Ġnetwork": 1490,
      "684": 1491,
      "up": 1492,
      "Ġup": 1493,
      "Ġreceiving": 1494,
      "und": 1495,
      "Ġmachine": 1496,
      "40688": 1497,
      "AM": 1498,
      ".........................<*>'": 1499,
      "roble": 1500,
      "roblem": 1501,
      "Action": 1502,
      "End": 1503,
      "ServiceAction": 1504,
      "Ġperformed": 1505,
      "Ġupon": 1506,
      "EndServiceAction": 1507,
      "79": 1508,
      "928": 1509,
      "645": 1510,
      "li": 1511,
      "6018": 1512,
      "ĠCE": 1513,
      "ĠSuppressing": 1514,
      "526018": 1515,
      "itor": 1516,
      "onitor": 1517,
      "4149": 1518,
      "ose": 1519,
      "pose": 1520,
      "Ġpur": 1521,
      "Ġpurpose": 1522,
      "GL": 1523,
      "ĠOperation": 1524,
      "Ġwhile": 1525,
      "Ġexecuting": 1526,
      "OL": 1527,
      "ĠRAI": 1528,
      "ĠTHE": 1529,
      "ĠVOL": 1530,
      "ĠRAIL": 1531,
      "ĠVOLT": 1532,
      "Ġoperation": 1533,
      "Card": 1534,
      "DirectIDo": 1535,
      "start": 1536,
      "Ġbee": 1537,
      "Ġbeen": 1538,
      "round": 1539,
      "pture": 1540,
      "capture": 1541,
      "Bad": 1542,
      "ĠLink": 1543,
      "ĠPort": 1544,
      "Ġwires": 1545,
      "Ġgoing": 1546,
      "ĠLinkCard": 1547,
      "Ġus": 1548,
      "Ġcli": 1549,
      "Ġusable": 1550,
      "Ġclient": 1551,
      "While": 1552,
      "599": 1553,
      "fig": 1554,
      "7179": 1555,
      "ower": 1556,
      "Problem": 1557,
      "unicating": 1558,
      "Ġcommunicating": 1559,
      "Power": 1560,
      "693": 1561,
      "Ġ'<*>:<*>": 1562,
      "...........<*>'": 1563,
      "ĠStat": 1564,
      "activ": 1565,
      "Ġdeactiv": 1566,
      "Ġdeactivated": 1567,
      "parity": 1568,
      "ef": 1569,
      ".......<*>'": 1570,
      "Ġport": 1571,
      "DRAM": 1572,
      "bff": 1573,
      "bfb": 1574,
      "act": 1575,
      "rst": 1576,
      "ĠEDRAM": 1577,
      "Ġfirst": 1578,
      "Runt": 1579,
      "imeException": 1580,
      "ĠCommunic": 1581,
      "RuntimeException": 1582,
      "ĠCommunication": 1583,
      "Ġ<*>:": 1584,
      "::": 1585,
      "number": 1586,
      "()": 1587,
      "log": 1588,
      "Ġlatch": 1589,
      "ĠLP": 1590,
      "ddb": 1591,
      "(<*>)": 1592,
      "952": 1593,
      "Ġlatched": 1594,
      "hernet": 1595,
      "Ġcr": 1596,
      "cf": 1597,
      "237": 1598,
      "ap": 1599,
      "Train": 1600,
      "ede": 1601,
      "3949": 1602,
      "thernet": 1603,
      "ind": 1604,
      "Ġfind": 1605,
      "ĠEthernet": 1606,
      "address": 1607,
      "39498": 1608,
      "ĠEthernetSwitch": 1609,
      "ĠIn": 1610,
      "Ġ-<*>)": 1611,
      "738": 1612,
      "eeeeeee": 1613,
      "730": 1614,
      "tlb": 1615,
      "738237": 1616,
      "fdd": 1617,
      "store": 1618,
      "7730": 1619,
      "906": 1620,
      "313": 1621,
      "697": 1622,
      "...........................<*>'": 1623,
      "56": 1624,
      "ise": 1625,
      "prec": 1626,
      "acfdd": 1627,
      "imprec": 1628,
      "imprecise": 1629,
      "xer": 1630,
      "Ġxer": 1631,
      "Ġstart": 1632,
      "uration": 1633,
      "figuration": 1634,
      "program": 1635,
      "Ġstarted": 1636,
      "min": 1637,
      "Ġeof": 1638,
      "ĠUne": 1639,
      "plus": 1640,
      "minus": 1641,
      "ĠUnexpected": 1642,
      "Ġ-<*>)'": 1643,
      "17": 1644,
      "Ġgot": 1645,
      "54": 1646,
      "Ġinitial": 1647,
      "Ġinitializ": 1648,
      "436": 1649,
      "Ġinitializing": 1650,
      "adc": 1651,
      "ĠIP": 1652,
      "ies": 1653,
      "pert": 1654,
      "propert": 1655,
      "properties": 1656,
      "032": 1657,
      "Ġapu": 1658,
      "Ġinstruction": 1659,
      "ast": 1660,
      "roadc": 1661,
      "Ġbroadc": 1662,
      "0328": 1663,
      "Ġbroadcast": 1664,
      "eab": 1665,
      "ĠStatus": 1666,
      "275": 1667,
      "34": 1668,
      "dede": 1669,
      "eTrain": 1670,
      "receiv": 1671,
      "Ġiap": 1672,
      "2433": 1673,
      "receiveTrain": 1674,
      "/<*>": 1675,
      "145": 1676,
      "Ġload": 1677,
      "force": 1678,
      "002": 1679,
      "...............<*>'": 1680,
      "145002": 1681,
      "fo": 1682,
      "BGL": 1683,
      "om": 1684,
      "sid": 1685,
      "acing": 1686,
      "Ġrepl": 1687,
      "Ġconsid": 1688,
      "Ġreplacing": 1689,
      "Ġconsider": 1690,
      "458": 1691,
      "=/<*>": 1692,
      "nin": 1693,
      "Ġcont": 1694,
      "ĠUnin": 1695,
      "ĠDirectIDo": 1696,
      "08458": 1697,
      "itialized": 1698,
      "Ġcontact": 1699,
      "ĠUninitialized": 1700,
      "ul": 1701,
      ".....<*>'": 1702,
      "pre": 1703,
      "monitor": 1704,
      "bc": 1705,
      "be": 1706,
      "111": 1707,
      ")'": 1708,
      "summ": 1709,
      "5734": 1710,
      "summary": 1711,
      "388": 1712,
      "544": 1713,
      "ult": 1714,
      "Ġ<*>.": 1715,
      "read": 1716,
      "Ġmult": 1717,
      "Ġsymbols": 1718,
      "ĠUnable": 1719,
      "Ġalread": 1720,
      "iple": 1721,
      "ĠDue": 1722,
      "Ġmultiple": 1723,
      "Ġalready": 1724,
      "891": 1725,
      "con": 1726,
      "aster": 1727,
      "5376": 1728,
      "6200": 1729,
      "805": 1730,
      "bcdc": 1731,
      "DDR": 1732,
      "Ġban": 1733,
      "620020": 1734,
      "Ġbank": 1735,
      "core": 1736,
      "072": 1737,
      "06072": 1738,
      "Ġconfiguration": 1739,
      "jo": 1740,
      "reed": 1741,
      "Ġfreed": 1742,
      "2392": 1743,
      "ĠBlock": 1744,
      "job": 1745,
      "239257": 1746,
      "203": 1747,
      "691": 1748,
      "ĠRegisters": 1749,
      "663": 1750,
      "cr": 1751,
      "ward": 1752,
      "Ġtoward": 1753,
      "20330": 1754,
      "lue": 1755,
      "fb": 1756,
      "38": 1757,
      ".................<*>'": 1758,
      "ax": 1759,
      "Ġ$": 1760,
      "69982": 1761,
      "38869982": 1762,
      "(<*>),": 1763,
      "max": 1764,
      "Ip": 1765,
      "Type": 1766,
      "ĠmIp": 1767,
      "ĠmType": 1768,
      "(<*>))": 1769,
      "bebf": 1770,
      "86": 1771,
      "erver": 1772,
      "ffffffff": 1773,
      "ux": 1774,
      "cs": 1775,
      "server": 1776,
      "mmcs": 1777,
      "Ġall": 1778,
      "272": 1779,
      "<*>']": 1780,
      "bea": 1781,
      "ers": 1782,
      "sed": 1783,
      "Ġclo": 1784,
      "197": 1785,
      "Ġclosed": 1786,
      "Ġmonitor": 1787,
      "ware": 1788,
      "ardware": 1789,
      "fetch": 1790,
      "Ġdept": 1791,
      "099": 1792,
      "72099": 1793,
      "prefetch": 1794,
      "Ġdepth": 1795,
      "Hardware": 1796,
      "265": 1797,
      "............<*>'": 1798,
      "eue": 1799,
      "Ġqu": 1800,
      "915": 1801,
      "265915": 1802,
      "Ġqueue": 1803,
      "-'": 1804,
      "2229": 1805,
      "8912229": 1806,
      "383": 1807,
      "95": 1808,
      "Ġnumber": 1809,
      "Ġcommand": 1810,
      "reat": 1811,
      "Ġthan": 1812,
      "897": 1813,
      "Ġgreat": 1814,
      "Ġgreater": 1815,
      "46684": 1816,
      "466848": 1817,
      "37": 1818,
      "<*>:<*>": 1819,
      "low": 1820,
      "Master": 1821,
      "sol": 1822,
      "BGLMaster": 1823,
      "consol": 1824,
      "console": 1825,
      "Ġinternal": 1826,
      "Machine": 1827,
      "330": 1828,
      "046": 1829,
      "672": 1830,
      "fra": 1831,
      "flow": 1832,
      "Ġcom": 1833,
      "2244": 1834,
      "........................<*>'": 1835,
      "5995": 1836,
      "330672": 1837,
      "fraction": 1838,
      "dow": 1839,
      "utdow": 1840,
      "shutdow": 1841,
      "shutdown": 1842,
      "46": 1843,
      "CR": 1844,
      "bit": 1845,
      "./": 1846,
      "Ġ./": 1847,
      "Ġdb": 1848,
      "dbproperties": 1849,
      "10": 1850,
      "893": 1851,
      "Ġunit": 1852,
      "DCR": 1853,
      "490": 1854,
      "afbb": 1855,
      "Ġinfo": 1856,
      "Address": 1857,
      "pAddress": 1858,
      "ĠIpAddress": 1859,
      "93": 1860,
      "res": 1861,
      "bgl": 1862,
      "................<*>'": 1863,
      "file": 1864,
      "ceed": 1865,
      "Ġexceed": 1866,
      "582": 1867,
      "com": 1868,
      "od": 1869,
      "Ġmay": 1870,
      "ĠBG": 1871,
      "cor": 1872,
      "rect": 1873,
      "correct": 1874,
      "correctable": 1875,
      "Go": 1876,
      "Id": 1877,
      "ting": 1878,
      "ĠGo": 1879,
      "Ġaction": 1880,
      "Ġrequ": 1881,
      "ired": 1882,
      "ĠGood": 1883,
      "Ġrequired": 1884,
      "AL": 1885,
      "Ġfp": 1886,
      "fba": 1887,
      "ace": 1888,
      "block": 1889,
      "onnect": 1890,
      "reconnect": 1891,
      "ĠBGL": 1892,
      "blocks": 1893,
      "ize": 1894,
      "In": 1895,
      "inter": 1896,
      "903": 1897,
      "ĠJtagId": 1898,
      "Invalid": 1899,
      "Blue": 1900,
      "Database": 1901,
      "Light": 1902,
      "iolog": 1903,
      "useDatabase": 1904,
      "logs": 1905,
      "BlueLight": 1906,
      "size": 1907,
      "hes": 1908,
      "Ġ(<*>": 1909,
      "rite": 1910,
      "Ġlines": 1911,
      "..................<*>'": 1912,
      "Ġfailing": 1913,
      "6810": 1914,
      "84854": 1915,
      "interrupt": 1916,
      "6810873": 1917,
      "oft": 1918,
      "RAM": 1919,
      "Ġro": 1920,
      "Ġba": 1921,
      "Run": 1922,
      "ciodb": 1923,
      "Ġrestart": 1924,
      "ĠSRAM": 1925,
      "Ġexceeded": 1926,
      "Ġrestarted": 1927,
      "exception": 1928,
      "ground": 1929,
      "Ġdata": 1930,
      "ckground": 1931,
      "Ġbackground": 1932,
      "Running": 1933,
      "]'": 1934,
      "ling": 1935,
      "ws": 1936,
      "Ġ[": 1937,
      "Ġ]'": 1938,
      "Start": 1939,
      "ĠSystem": 1940,
      "Controlling": 1941,
      "Ġrows": 1942,
      "Starting": 1943,
      "ĠSystemController": 1944,
      "518": 1945,
      "Ġ'<*>:": 1946,
      "fce": 1947,
      "Ge": 1948,
      "Name": 1949,
      "fl": 1950,
      "info": 1951,
      "erinfo": 1952,
      "Ġparam": 1953,
      "eters": 1954,
      "ush": 1955,
      "userinfo": 1956,
      "ĠBlue": 1957,
      "enablefl": 1958,
      "loguserinfo": 1959,
      "ĠInput": 1960,
      "Gene": 1961,
      "Ġparameters": 1962,
      "ĠBlueGene": 1963,
      "enableflush": 1964,
      "98": 1965,
      "fcea": 1966,
      "277": 1967,
      "aux": 1968,
      "iliar": 1969,
      "auxiliar": 1970,
      "auxiliary": 1971,
      "81": 1972,
      "lr": 1973,
      "tr": 1974,
      "Ġctr": 1975,
      "by": 1976,
      "ĠDDR": 1977,
      "99998": 1978,
      "999985": 1979,
      "01": 1980,
      "5623": 1981,
      "5623903": 1982,
      "ib": 1983,
      "85": 1984,
      "ibm": 1985,
      "034": 1986,
      "066": 1987,
      "791": 1988,
      "ate": 1989,
      "Lin": 1990,
      "bu": 1991,
      "homm": 1992,
      "qx": 1993,
      "Ġ..": 1994,
      "ild": 1995,
      "preqx": 1996,
      "374": 1997,
      "Linux": 1998,
      "build": 1999,
      "homme": 2000,
      "Ġ../": 2001,
      "ecc": 2002,
      "bbecc": 2003,
      "8281": 2004,
      "Ġdcache": 2005,
      "....................<*>'": 2006,
      "port": 2007,
      "soft": 2008,
      "softheader": 2009,
      "eout": 2010,
      "tail": 2011,
      "tim": 2012,
      "Ġdetail": 2013,
      "ĠProblem": 2014,
      "Ġgetting": 2015,
      "Ġhw": 2016,
      "timeout": 2017,
      "Ġdetailed": 2018,
      "ĠProblems": 2019,
      "master": 2020,
      "init": 2021,
      "Ġbglmaster": 2022,
      "figfile": 2023,
      "configfile": 2024,
      "consoleip": 2025,
      "consoleport": 2026,
      "zer": 2027,
      "zero": 2028,
      "dda": 2029,
      "Ġcould": 2030,
      "=<*>)'": 2031,
      ".....................<*>'": 2032,
      "fea": 2033,
      "234": 2034,
      "199": 2035,
      "feaa": 2036,
      "nv": 2037,
      "983": 2038,
      "553": 2039,
      "Core": 2040,
      "ĠCon": 2041,
      "63199": 2042,
      "40663199": 2043,
      "ĠConfiguration": 2044,
      "ĠCheck": 2045,
      "ĠState": 2046,
      ")...<*>'": 2047,
      "129": 2048,
      "382": 2049,
      "972": 2050,
      "9234": 2051,
      "Floating": 2052,
      "aN": 2053,
      "bj": 2054,
      "div": 2055,
      "ect": 2056,
      "ide": 2057,
      "iet": 2058,
      "led": 2059,
      "ms": 2060,
      "oint": 2061,
      "over": 2062,
      "scr": 2063,
      "xact": 2064,
      "Ġes": 2065,
      "Ġ<*>]": 2066,
      "Ġccr": 2067,
      "Ġcnv": 2068,
      "erflow": 2069,
      "Ġobj": 2070,
      "Ġdbs": 2071,
      "ĠControl": 2072,
      "aba": 2073,
      "abled": 2074,
      "anM": 2075,
      "Ġvers": 2076,
      "ĠPoint": 2077,
      "ĠNaN": 2078,
      "ĠFanM": 2079,
      "667": 2080,
      "8804": 2081,
      "22129": 2082,
      "erved": 2083,
      "inexact": 2084,
      "enabled": 2085,
      "quiet": 2086,
      "90618": 2087,
      "......................<*>'": 2088,
      ".......................<*>'": 2089,
      ".................................<*>'": 2090,
      "6854": 2091,
      "dbcr": 2092,
      "................................<*>'": 2093,
      "underflow": 2094,
      "reserved": 2095,
      "Ġfpscr": 2096,
      "9838": 2097,
      "5534": 2098,
      "97261": 2099,
      "divide": 2100,
      "msr": 2101,
      "overflow": 2102,
      "Ġesr": 2103,
      "Ġcnvt": 2104,
      "Ġobject": 2105,
      "Ġdbsr": 2106,
      "Ġversion": 2107,
      "880414": 2108,
      "2212966": 2109,
      "39": 2110,
      "arest": 2111,
      "............................<*>'": 2112,
      "Ġnearest": 2113,
      "35382": 2114,
      "9164": 2115,
      "aut": 2116,
      "Ġy": 2117,
      "Ġ<*>:<*>']": 2118,
      "orestart": 2119,
      "autorestart": 2120,
      "36": 2121,
      "41": 2122,
      "Ġse": 2123,
      "27": 2124,
      "ple": 2125,
      "Ġcomple": 2126,
      "Ġcomplete": 2127,
      "58": 2128,
      "Ġrack": 2129,
      "2729": 2130,
      "bac": 2131,
      "fee": 2132,
      "efb": 2133,
      "009": 2134,
      "bfc": 2135,
      "state": 2136,
      "jor": 2137,
      "822": 2138,
      "Ġmajor": 2139,
      "536": 2140,
      "ssible": 2141,
      "Ġpossible": 2142,
      "<*>:<*>'": 2143,
      "uff": 2144,
      "uffer": 2145,
      "2536": 2146,
      "Found": 2147,
      "369": 2148,
      "fac": 2149,
      "Ġ\"": 2150,
      "3935": 2151,
      "557": 2152,
      "clo": 2153,
      "ches": 2154,
      "fres": 2155,
      "oon": 2156,
      "tur": 2157,
      "write": 2158,
      "Ġsoon": 2159,
      "den": 2160,
      "Ġpages": 2161,
      "653": 2162,
      "451": 2163,
      "stand": 2164,
      "idden": 2165,
      "etches": 2166,
      "Ġbuffer": 2167,
      "Ġrefres": 2168,
      "dcf": 2169,
      "Ġ<*>:<*>..................<*>'": 2170,
      "Ġprefetches": 2171,
      "Ġwrite": 2172,
      "bbd": 2173,
      "442": 2174,
      "30442": 2175,
      "Ġoutstand": 2176,
      "593": 2177,
      "Ġhidden": 2178,
      "Ġcommit": 2179,
      "39352": 2180,
      "close": 2181,
      "turn": 2182,
      "Ġrefreshes": 2183,
      "Ġoutstanding": 2184,
      "447": 2185,
      "'s": 2186,
      "543": 2187,
      "856": 2188,
      "970": 2189,
      "can": 2190,
      "comm": 2191,
      "gct": 2192,
      "ging": 2193,
      "lag": 2194,
      "mask": 2195,
      "mis": 2196,
      "qw": 2197,
      "sym": 2198,
      "regct": 2199,
      "Ġscan": 2200,
      "Ġflag": 2201,
      "rapp": 2202,
      "Ġtrapp": 2203,
      "ten": 2204,
      ".<*>\"": 2205,
      "Ġbus": 2206,
      "chip": 2207,
      "uncorrectable": 2208,
      "837": 2209,
      "Ġvalid": 2210,
      "Ġinterfa": 2211,
      "Ġwrit": 2212,
      "ĠUE": 2213,
      "0256": 2214,
      ".........<*>'": 2215,
      "52822": 2216,
      "....................................<*>'": 2217,
      "2086": 2218,
      "99451": 2219,
      "293": 2220,
      "ĠEDRAMs": 2221,
      "compare": 2222,
      "Ġselect": 2223,
      "00980": 2224,
      "bfcdc": 2225,
      "36921": 2226,
      "54357": 2227,
      "command": 2228,
      "miscompare": 2229,
      "symbol": 2230,
      "regctl": 2231,
      "Ġscancom": 2232,
      "Ġflagging": 2233,
      "Ġtrapped": 2234,
      "Ġinterface": 2235,
      "Ġwritten": 2236,
      "299": 2237,
      "Ġstore": 2238,
      "used": 2239,
      "5146": 2240,
      "Ġcaused": 2241,
      "985146": 2242,
      "9851467": 2243,
      "ĠFanModule": 2244,
      "aca": 2245,
      "4744": 2246,
      "044744": 2247,
      "profile": 2248,
      "his": 2249,
      "this": 2250,
      "9086": 2251,
      "90867": 2252,
      ":<*>'": 2253,
      "766": 2254,
      "950": 2255,
      "7668": 2256,
      "9507": 2257,
      "600": 2258,
      "Ġexit": 2259,
      "VAL": 2260,
      "bca": 2261,
      ".............<*>'": 2262,
      "Ġset": 2263,
      "Ġfan": 2264,
      "Ġspeed": 2265,
      "Ġsetting": 2266,
      "271": 2267,
      "feea": 2268,
      "map": 2269,
      "txt": 2270,
      "Ġmy": 2271,
      "ĠFail": 2272,
      "ĠInfo": 2273,
      "DO": 2274,
      "cce": 2275,
      "conne": 2276,
      "eff": 2277,
      "Ġdis": 2278,
      "ndTrain": 2279,
      "2208": 2280,
      "sendTrain": 2281,
      "connected": 2282,
      "Ġdisconnected": 2283,
      "22085": 2284,
      "BAL": 2285,
      "ES": 2286,
      "ERR": 2287,
      "ECK": 2288,
      "ITI": 2289,
      "OBAL": 2290,
      "PT": 2291,
      "TERR": 2292,
      "UES": 2293,
      "UPT": 2294,
      "mal": 2295,
      "nor": 2296,
      "ynd": 2297,
      "CHECK": 2298,
      "INITI": 2299,
      "INTERR": 2300,
      "rome": 2301,
      "GLOBAL": 2302,
      "Ġexited": 2303,
      "VALUES": 2304,
      "mally": 2305,
      "normally": 2306,
      "yndrome": 2307,
      "INITIAL": 2308,
      "INTERRUPT": 2309,
      "dbe": 2310,
      "abcf": 2311,
      "3716": 2312,
      "Ġ<*>)']": 2313,
      "ddde": 2314,
      "080": 2315,
      "Ġfailure": 2316,
      "9849": 2317,
      "Ġsyndrome": 2318,
      "08081": 2319,
      "cab": 2320,
      "153": 2321,
      "9437": 2322,
      "Ġsoft": 2323,
      "ive": 2324,
      "cessive": 2325,
      "Ġexcessive": 2326,
      "Ġfailures": 2327,
      "607": 2328,
      "NodeCard": 2329,
      "Ġcur": 2330,
      "rent": 2331,
      "ĠIDo": 2332,
      "Ġcurrent": 2333,
      "Ġcurrently": 2334,
      "482": 2335,
      "579": 2336,
      "Ġab": 2337,
      "Ġ'<*>:<*>:": 2338,
      "980": 2339,
      "fefff": 2340,
      "Ġdue": 2341,
      "fca": 2342,
      "orted": 2343,
      "Ġabnormally": 2344,
      "+'": 2345,
      ":<*>:": 2346,
      "2903": 2347,
      "abff": 2348,
      "cdb": 2349,
      "borted": 2350,
      "23912": 2351,
      "ĠAborted": 2352,
      "Ġbf": 2353,
      "146": 2354,
      "239124": 2355,
      "ffffff": 2356,
      "564": 2357,
      "<*>:": 2358,
      "854": 2359,
      "bg": 2360,
      "cli": 2361,
      "lli": 2362,
      "qlli": 2363,
      "sqlli": 2364,
      "89854": 2365,
      "bgdb": 2366,
      "sqllib": 2367,
      "date": 2368,
      "7104": 2369,
      "042": 2370,
      "877104": 2371,
      "Ġupdate": 2372,
      "87710483": 2373,
      "afc": 2374,
      "528": 2375,
      ".............................<*>'": 2376,
      "eac": 2377,
      "ffffffe": 2378,
      "810": 2379,
      "der": 2380,
      "Ġorder": 2381,
      "Ġbut": 2382,
      "byte": 2383,
      "Ġordering": 2384,
      "Expected": 2385,
      "les": 2386,
      "Ġ)": 2387,
      "ĠFound": 2388,
      "5149": 2389,
      "odules": 2390,
      "ĠFanModules": 2391,
      "afcf": 2392,
      "12": 2393,
      "Ġ.............<*>'": 2394,
      "4965": 2395,
      "126": 2396,
      "176": 2397,
      "Ch": 2398,
      "Ġcorrupt": 2399,
      "ffffc": 2400,
      "067": 2401,
      "Ġexceeds": 2402,
      "916": 2403,
      "Bgl": 2404,
      "EO": 2405,
      "Ġtable": 2406,
      "ĠIDO": 2407,
      "IdoCh": 2408,
      "Ġpackets": 2409,
      "Ġmany": 2410,
      "efdd": 2411,
      "Ġ-<*>)']": 2412,
      "482916": 2413,
      "Ġ).'": 2414,
      "BglIdoCh": 2415,
      "ĠIDOs": 2416,
      "BglIdoChip": 2417,
      "edb": 2418,
      "331": 2419,
      "282": 2420,
      "373": 2421,
      "service": 2422,
      "fdb": 2423,
      "81009": 2424,
      "IDO": 2425,
      "KT": 2426,
      "MEO": 2427,
      "PKT": 2428,
      "link": 2429,
      "Ġconnection": 2430,
      "LERR": 2431,
      "Ġlost": 2432,
      "TIMEO": 2433,
      "Ġ'<*>:<*>:<*>'": 2434,
      "5827": 2435,
      "ĠBGLERR": 2436,
      "TIMEOUT": 2437,
      "273": 2438,
      "97": 2439,
      "64273": 2440,
      "ebab": 2441,
      "ccb": 2442,
      "2993": 2443,
      "abe": 2444,
      "201": 2445,
      "Bul": 2446,
      "Module": 2447,
      "end": 2448,
      "kPower": 2449,
      "vice": 2450,
      "device": 2451,
      "arget": 2452,
      "ĠVend": 2453,
      "bgldevice": 2454,
      "BulkPower": 2455,
      "ĠVendor": 2456,
      "bgldevices": 2457,
      "BulkPowerModule": 2458,
      "152": 2459,
      "094": 2460,
      "35201": 2461,
      "<*>:<*>:<*>": 2462,
      "Ġ'<*>:<*>:<*>": 2463,
      "//": 2464,
      "163": 2465,
      "6130": 2466,
      "://": 2467,
      "Al": 2468,
      "FF": 2469,
      "JTAG": 2470,
      "Target": 2471,
      "ead": 2472,
      "ll": 2473,
      "Ġpap": 2474,
      "parityAl": 2475,
      "6130094": 2476,
      "parityAlignment": 2477,
      "74": 2478,
      "ffc": 2479,
      "Ġbfd": 2480,
      "fcce": 2481,
      "590": 2482,
      "241": 2483,
      "9392": 2484,
      "282241": 2485,
      "15215": 2486,
      "023": 2487,
      "aab": 2488,
      "Ġ(<*>)']": 2489,
      "8411": 2490,
      "2378411": 2491,
      "Ġsend": 2492,
      "Ġet": 2493,
      "Ġethernet": 2494,
      "259": 2495,
      "2067": 2496,
      "713": 2497,
      "794": 2498,
      "Rs": 2499,
      "Torus": 2500,
      "cting": 2501,
      "Ġfol": 2502,
      "Ġnon": 2503,
      "pecting": 2504,
      "verable": 2505,
      "Ġexpecting": 2506,
      "448": 2507,
      "5965": 2508,
      "Ġinstead": 2509,
      "ĠDCRs": 2510,
      "Ġuncorrectable": 2511,
      "recoverable": 2512,
      "03440": 2513,
      "39448": 2514,
      "4820": 2515,
      "Ġfollow": 2516,
      "291": 2517,
      "No": 2518,
      "fda": 2519,
      "Ġbff": 2520,
      "fcfb": 2521,
      "858": 2522,
      "aeaca": 2523,
      "615": 2524,
      "286": 2525,
      "67": 2526,
      "Ms": 2527,
      "cdf": 2528,
      "637": 2529,
      "8745": 2530,
      "01286": 2531,
      "978745": 2532,
      "Msg": 2533,
      "113": 2534,
      "78": 2535,
      "dabe": 2536,
      "sor": 2537,
      "Ġsen": 2538,
      "Ġbfc": 2539,
      "Ġbfe": 2540,
      "692": 2541,
      "......<*>']": 2542,
      "dabebf": 2543,
      "Ġsensor": 2544,
      "194": 2545,
      "284": 2546,
      "<*>:<*>:": 2547,
      "Ġsending": 2548,
      "611": 2549,
      "676": 2550,
      "969": 2551,
      "efc": 2552,
      "Ġnormally": 2553,
      "Ġ'<*>']": 2554,
      "AGE": 2555,
      "886": 2556,
      "917": 2557,
      "198": 2558,
      "ffffca": 2559,
      "19419": 2560,
      "9694": 2561,
      "42": 2562,
      "594": 2563,
      "9731": 2564,
      "AD": 2565,
      "DAT": 2566,
      "IM": 2567,
      "IDAT": 2568,
      "LO": 2569,
      "fde": 2570,
      ".....<*>']": 2571,
      "798": 2572,
      "CRC": 2573,
      "VALIDAT": 2574,
      "5948": 2575,
      "IMAGE": 2576,
      "LOAD": 2577,
      "VALIDATE": 2578,
      "746": 2579,
      "900": 2580,
      "BM": 2581,
      "Re": 2582,
      "Vp": 2583,
      "cca": 2584,
      "dRe": 2585,
      "kee": 2586,
      "nation": 2587,
      "okee": 2588,
      "vis": 2589,
      "erial": 2590,
      "Ġfa": 2591,
      "ĠCher": 2592,
      "ternation": 2593,
      "ĠPart": 2594,
      "ĠRevis": 2595,
      "ĠSerial": 2596,
      "ĠIBM": 2597,
      "faf": 2598,
      "87699": 2599,
      "ĠAssembly": 2600,
      "ĠInternation": 2601,
      "VpdRe": 2602,
      "ĠCherokee": 2603,
      "ĠRevision": 2604,
      "ĠInternational": 2605,
      "VpdReply": 2606,
      "362": 2607,
      "870": 2608,
      "ecf": 2609,
      "6290": 2610,
      "076": 2611,
      "41917": 2612,
      "2821": 2613,
      "ffcd": 2614,
      "683": 2615,
      "799": 2616,
      "afa": 2617,
      "dba": 2618,
      "igned": 2619,
      "6671": 2620,
      "eaef": 2621,
      "79076": 2622,
      "Ġfault": 2623,
      "050": 2624,
      "992": 2625,
      "dff": 2626,
      "efe": 2627,
      "Ġbfb": 2628,
      "30362": 2629,
      "051": 2630,
      "393": 2631,
      "488": 2632,
      "415": 2633,
      "523": 2634,
      "786": 2635,
      "Pll": 2636,
      "clear": 2637,
      "Ġlock": 2638,
      "arsh": 2639,
      "aler": 2640,
      "ddd": 2641,
      "825": 2642,
      "Ġaligned": 2643,
      "993": 2644,
      "afb": 2645,
      "346": 2646,
      "9863": 2647,
      "57973": 2648,
      "<*>:<*>:<*>/": 2649,
      "efccd": 2650,
      "41557973": 2651,
      "arshaler": 2652,
      "325": 2653,
      "922": 2654,
      "IT": 2655,
      "Scom": 2656,
      "caa": 2657,
      "dfc": 2658,
      "power": 2659,
      "407": 2660,
      "4030": 2661,
      "ffb": 2662,
      "7525": 2663,
      "968": 2664,
      "fdcdf": 2665,
      "...<*>']": 2666,
      "339": 2667,
      "284825": 2668,
      "ScomError": 2669,
      "75251": 2670,
      "205": 2671,
      "871": 2672,
      "FB": 2673,
      "Jtag": 2674,
      "daa": 2675,
      "fbd": 2676,
      "Ġ`": 2677,
      "Ġzero": 2678,
      "4531": 2679,
      "40393": 2680,
      "ĠAll": 2681,
      "Ġbd": 2682,
      "Ġbed": 2683,
      "abd": 2684,
      "Ġlow": 2685,
      "921": 2686,
      "ebe": 2687,
      "033": 2688,
      ".........................<*>']": 2689,
      "Ġgood": 2690,
      "........<*>']": 2691,
      "<*>:<*>:<*>'": 2692,
      "6796": 2693,
      "JtagId": 2694,
      "Ġzeros": 2695,
      "987": 2696,
      "aed": 2697,
      "cbd": 2698,
      "cfe": 2699,
      "ded": 2700,
      "dbb": 2701,
      "fdf": 2702,
      "Ġfffff": 2703,
      "1302": 2704,
      "ecb": 2705,
      "6989": 2706,
      "Ġ==": 2707,
      "eef": 2708,
      "755": 2709,
      "dfb": 2710,
      "7007": 2711,
      "70418": 2712,
      "2281": 2713,
      "fdcb": 2714,
      ".............................<*>']": 2715,
      "40745": 2716,
      "98740745": 2717,
      "6989496": 2718,
      "162": 2719,
      "204": 2720,
      "484": 2721,
      "8234": 2722,
      "ER": 2723,
      "PER": 2724,
      "Rec": 2725,
      "aad": 2726,
      "dea": 2727,
      "7532": 2728,
      "IdoMsg": 2729,
      "fffff": 2730,
      "51284": 2731,
      "99339": 2732,
      "367": 2733,
      "baca": 2734,
      "96851284": 2735,
      "1628234": 2736,
      "Recv": 2737,
      "99339798": 2738,
      "16282341": 2739,
      "350": 2740,
      "516": 2741,
      "866": 2742,
      "De": 2743,
      "EX": 2744,
      "Nul": 2745,
      "Po": 2746,
      "Ser": 2747,
      "To": 2748,
      "bcc": 2749,
      "lPo": 2750,
      "num": 2751,
      "ot": 2752,
      "Ġ']": 2753,
      "eda": 2754,
      "ĠmCard": 2755,
      "633": 2756,
      "698": 2757,
      "ĠSyndrome": 2758,
      "358": 2759,
      "OGRAM": 2760,
      "3202": 2761,
      "60325": 2762,
      "dbc": 2763,
      "dbeef": 2764,
      "ĠPROGRAM": 2765,
      "...........<*>']": 2766,
      "...........................<*>']": 2767,
      "interException": 2768,
      "Ġroot": 2769,
      "8151": 2770,
      "bfca": 2771,
      "ccecb": 2772,
      "57918": 2773,
      "Ġbffc": 2774,
      "ĠsendMsg": 2775,
      "0509": 2776,
      "ITED": 2777,
      "daaf": 2778,
      "Debugger": 2779,
      "EXITED": 2780,
      "NullPo": 2781,
      "Sernum": 2782,
      "ToDebugger": 2783,
      "ĠmCardSernum": 2784,
      "ĠsendMsgToDebugger": 2785,
      "NullPointerException": 2786,
      "!(": 2787,
      ")']": 2788,
      "127": 2789,
      "280": 2790,
      "371": 2791,
      "370": 2792,
      "583": 2793,
      "763": 2794,
      "859": 2795,
      "=!(": 2796,
      "FE": 2797,
      "Hdr": 2798,
      "Len": 2799,
      "Marshaler": 2800,
      "Port": 2801,
      "bcb": 2802,
      "cdc": 2803,
      "cpp": 2804,
      "cdad": 2805,
      "iro": 2806,
      "iag": 2807,
      "marshaler": 2808,
      "nment": 2809,
      "press": 2810,
      "nose": 2811,
      "Ġdiag": 2812,
      "650": 2813,
      "ĠRun": 2814,
      "Ġbll": 2815,
      "831": 2816,
      "83121": 2817,
      "ddab": 2818,
      "115": 2819,
      "Ġenv": 2820,
      "ĠIdo": 2821,
      "Ġexpress": 2822,
      "47583": 2823,
      "ĠDB": 2824,
      "Ġhardware": 2825,
      "439": 2826,
      "ffffffc": 2827,
      "874": 2828,
      "bdbb": 2829,
      "idomarshaler": 2830,
      "7925": 2831,
      "7981": 2832,
      "9391": 2833,
      "clearPort": 2834,
      "Ġfffffe": 2835,
      "75329391": 2836,
      "8597981": 2837,
      "cdadc": 2838,
      "ironment": 2839,
      "Ġdiagnose": 2840,
      "Ġenvironment": 2841,
      "ĠIdoMarshaler": 2842,
      "Ġexpression": 2843,
      "idomarshalerio": 2844,
      "Ġenvironmental": 2845,
      "045": 2846,
      "055": 2847,
      "169": 2848,
      "173": 2849,
      "151": 2850,
      "128": 2851,
      "263": 2852,
      "2963": 2853,
      "319": 2854,
      "425": 2855,
      "511": 2856,
      "670": 2857,
      "718": 2858,
      "782": 2859,
      "847": 2860,
      "954": 2861,
      "SI": 2862,
      "bde": 2863,
      "bcf": 2864,
      "beda": 2865,
      "dde": 2866,
      "fbb": 2867,
      "fbc": 2868,
      "set": 2869,
      "decd": 2870,
      "Ġfea": 2871,
      "2328": 2872,
      "Ġdf": 2873,
      "452": 2874,
      "ceb": 2875,
      "adf": 2876,
      "409": 2877,
      "aaa": 2878,
      "aae": 2879,
      "Ġbc": 2880,
      "Ġbdd": 2881,
      "Ġbdf": 2882,
      "Ġreset": 2883,
      "ffd": 2884,
      "Ġassertion": 2885,
      "dcc": 2886,
      "5776": 2887,
      "647": 2888,
      ":<*>\"": 2889,
      "6268": 2890,
      "8293": 2891,
      "4991": 2892,
      "bfaa": 2893,
      "=<*>)']": 2894,
      "eaad": 2895,
      "59647": 2896,
      "6174": 2897,
      "25358": 2898,
      "84633": 2899,
      "721": 2900,
      "fdab": 2901,
      "778": 2902,
      "92778": 2903,
      "1955": 2904,
      "06450": 2905,
      "036": 2906,
      "03436": 2907,
      "Ġbef": 2908,
      "3141": 2909,
      "bced": 2910,
      "fbdfb": 2911,
      "3930": 2912,
      "00909": 2913,
      "cabd": 2914,
      "Ġbfeb": 2915,
      "81061": 2916,
      "Ġ).']": 2917,
      "9222328": 2918,
      "aadcd": 2919,
      "8660": 2920,
      "05588": 2921,
      "169036": 2922,
      "128557": 2923,
      "296318": 2924,
      "42559647": 2925,
      "Ġresets": 2926,
      "&)']": 2927,
      "*&)']": 2928,
      "->": 2929,
      "022": 2930,
      "109": 2931,
      "120": 2932,
      "200": 2933,
      "219": 2934,
      "248": 2935,
      "466": 2936,
      "4271": 2937,
      "550": 2938,
      "5436": 2939,
      "664": 2940,
      "749": 2941,
      "9536": 2942,
      ":']": 2943,
      "AS": 2944,
      "Block": 2945,
      "Buffer": 2946,
      "EM": 2947,
      "RE": 2948,
      "Read": 2949,
      "RSI": 2950,
      "SON": 2951,
      "Size": 2952,
      "URE": 2953,
      "ait": 2954,
      "bcd": 2955,
      "bdb": 2956,
      "bebe": 2957,
      "dbbe": 2958,
      "ffca": 2959,
      "nMsg": 2960,
      "oid": 2961,
      "pers": 2962,
      "sion": 2963,
      "void": 2964,
      "Ġcb": 2965,
      "edcd": 2966,
      "Ġserver": 2967,
      "dec": 2968,
      "debd": 2969,
      "Ġint": 2970,
      "ality": 2971,
      "ill": 2972,
      "Ġtarget": 2973,
      "5034": 2974,
      "Ġbfdc": 2975,
      "ĠMAS": 2976,
      "abdd": 2977,
      "8302": 2978,
      "ĠTEM": 2979,
      "Ġstill": 2980,
      "648": 2981,
      "6462": 2982,
      "629": 2983,
      "181": 2984,
      "182": 2985,
      "1829": 2986,
      "Ġwait": 2987,
      "4900": 2988,
      "49120": 2989,
      "ĠFF": 2990,
      "version": 2991,
      "ATURE": 2992,
      "VERSI": 2993,
      "fabd": 2994,
      "fabda": 2995,
      "fabdd": 2996,
      "881": 2997,
      "88755": 2998,
      "161": 2999,
      "faec": 3000,
      "onality": 3001,
      "eae": 3002,
      "aef": 3003,
      "967": 3004,
      ".............<*>']": 3005,
      "532": 3006,
      "533": 3007,
      "539": 3008,
      "5283": 3009,
      "904": 3010,
      "Ġready": 3011,
      "7215": 3012,
      ".....................<*>']": 3013,
      "92893": 3014,
      "92922": 3015,
      "92749": 3016,
      "cdedcd": 3017,
      "66561": 3018,
      "dbd": 3019,
      "4892893": 3020,
      "949115": 3021,
      "fef": 3022,
      "feffff": 3023,
      "()'": 3024,
      "3464": 3025,
      "8688755": 3026,
      "ALIT": 3027,
      "ĠBGLPER": 3028,
      "....................<*>']": 3029,
      "6073": 3030,
      "11323": 3031,
      "4880": 3032,
      "PERATURE": 3033,
      "IdoMsgHdr": 3034,
      "RecvBuffer": 3035,
      "76365": 3036,
      "ĠIdoMarshalerRecvBuffer": 3037,
      "829344": 3038,
      "24866": 3039,
      "6641": 3040,
      "ReadBlock": 3041,
      "SONALIT": 3042,
      "nMsgLen": 3043,
      "personality": 3044,
      "Ġserverdb": 3045,
      "ĠMASK": 3046,
      "ĠTEMPERATURE": 3047,
      "Ġwaiting": 3048,
      "VERSION": 3049,
      "9292245": 3050,
      "9274906": 3051,
      "ĠBGLPERSONALIT": 3052,
      "ĠBGLPERSONALITY": 3053,
      "016": 3054,
      "157": 3055,
      "122": 3056,
      "172": 3057,
      "1014": 3058,
      "1201": 3059,
      "1033": 3060,
      "250": 3061,
      "269": 3062,
      "302": 3063,
      "380": 3064,
      "3703": 3065,
      "3968": 3066,
      "423": 3067,
      "464": 3068,
      "424": 3069,
      "4650": 3070,
      "530": 3071,
      "673": 3072,
      "762": 3073,
      "787": 3074,
      "7893": 3075,
      "883": 3076,
      "844": 3077,
      "973": 3078,
      "994": 3079,
      "971": 3080,
      "9941": 3081,
      "FException": 3082,
      "Operation": 3083,
      "ROL": 3084,
      "TROL": 3085,
      "Un": 3086,
      "ade": 3087,
      "aec": 3088,
      "aff": 3089,
      "afd": 3090,
      "aeee": 3091,
      "afdb": 3092,
      "bce": 3093,
      "bffff": 3094,
      "baae": 3095,
      "cba": 3096,
      "cbfb": 3097,
      "dce": 3098,
      "dedf": 3099,
      "dfa": 3100,
      "ebf": 3101,
      "efff": 3102,
      "gment": 3103,
      "su": 3104,
      "eddf": 3105,
      "Ġae": 3106,
      "defe": 3107,
      "Ġfffffffe": 3108,
      "Ġdfa": 3109,
      "cee": 3110,
      "ada": 3111,
      "acd": 3112,
      "ĠCON": 3113,
      "401": 3114,
      "40161": 3115,
      "50673": 3116,
      "Ġbfa": 3117,
      "Ġbfba": 3118,
      "Ġbfaf": 3119,
      "fcab": 3120,
      "8363": 3121,
      "fffc": 3122,
      "ffae": 3123,
      "631": 3124,
      "0956": 3125,
      "dcb": 3126,
      "dcd": 3127,
      "5768": 3128,
      "6478": 3129,
      "Ġ<*>:<*>:<*>": 3130,
      "6224": 3131,
      "dacee": 3132,
      "1196": 3133,
      "erting": 3134,
      "Ġea": 3135,
      "Ġee": 3136,
      "829": 3137,
      "8273": 3138,
      "ĠSegment": 3139,
      "bfa": 3140,
      "07157": 3141,
      "6235": 3142,
      "bfee": 3143,
      "666": 3144,
      "661033": 3145,
      "4754": 3146,
      "888": 3147,
      "004": 3148,
      "0025": 3149,
      "13851": 3150,
      "pported": 3151,
      "fade": 3152,
      "446": 3153,
      "7524": 3154,
      "028": 3155,
      "dfe": 3156,
      "96151": 3157,
      "597": 3158,
      "5955": 3159,
      "551": 3160,
      "Ġinserting": 3161,
      "901014": 3162,
      "905768": 3163,
      "4317": 3164,
      "fded": 3165,
      "fdfffff": 3166,
      "77401": 3167,
      "920": 3168,
      "92484": 3169,
      "92551": 3170,
      "fdcc": 3171,
      "fdcff": 3172,
      "Ġcaeeb": 3173,
      "037": 3174,
      "2055": 3175,
      "808": 3176,
      "93540": 3177,
      "31272": 3178,
      "0800": 3179,
      "afe": 3180,
      "fefab": 3181,
      "efac": 3182,
      "beac": 3183,
      "fbab": 3184,
      "9516": 3185,
      "981": 3186,
      "36067": 3187,
      "Ġbfec": 3188,
      "Ġbfbb": 3189,
      "Ġbfdea": 3190,
      "0420956": 3191,
      "EOFException": 3192,
      "9743": 3193,
      "746235": 3194,
      "Ġbfcb": 3195,
      "4263": 3196,
      "0505": 3197,
      "caaa": 3198,
      "dfcf": 3199,
      "33984": 3200,
      "Ġfffffffc": 3201,
      "127028": 3202,
      "280872": 3203,
      "371263": 3204,
      "37192551": 3205,
      "3708": 3206,
      "370424": 3207,
      "65030": 3208,
      "67013": 3209,
      "71850673": 3210,
      "84765030": 3211,
      "88361": 3212,
      "OperationException": 3213,
      "Unsu": 3214,
      "adefac": 3215,
      "ĠCONTROL": 3216,
      "Ġbfbaf": 3217,
      "836380": 3218,
      "647899": 3219,
      "ĠSegmentation": 3220,
      "47542": 3221,
      "1385101": 3222,
      "pportedOperationException": 3223,
      "UnsupportedOperationException": 3224,
      "065": 3225,
      "069": 3226,
      "035": 3227,
      "044": 3228,
      "087": 3229,
      "017": 3230,
      "0451": 3231,
      "118": 3232,
      "166": 3233,
      "144": 3234,
      "177": 3235,
      "283": 3236,
      "257": 3237,
      "262": 3238,
      "218": 3239,
      "211": 3240,
      "207": 3241,
      "2147": 3242,
      "294": 3243,
      "349": 3244,
      "395": 3245,
      "483": 3246,
      "416": 3247,
      "487": 3248,
      "4358": 3249,
      "513": 3250,
      "569": 3251,
      "547": 3252,
      "522": 3253,
      "552": 3254,
      "5444": 3255,
      "584": 3256,
      "682": 3257,
      "602": 3258,
      "788": 3259,
      "773": 3260,
      "790": 3261,
      "743": 3262,
      "760": 3263,
      "7094": 3264,
      "823": 3265,
      "840": 3266,
      "850": 3267,
      "816": 3268,
      "800": 3269,
      "853": 3270,
      "8111": 3271,
      "8648": 3272,
      "947": 3273,
      "9627": 3274,
      "991": 3275,
      "930": 3276,
      "9891": 3277,
      "9791": 3278,
      "Dec": 3279,
      "Io": 3280,
      "Mail": 3281,
      "Net": 3282,
      "[\"": 3283,
      "aac": 3284,
      "aacc": 3285,
      "aeaad": 3286,
      "bo": 3287,
      "bad": 3288,
      "bec": 3289,
      "bdd": 3290,
      "bee": 3291,
      "bdf": 3292,
      "bef": 3293,
      "cbf": 3294,
      "cfa": 3295,
      "dacd": 3296,
      "eaa": 3297,
      "eede": 3298,
      "faa": 3299,
      "fec": 3300,
      "feeb": 3301,
      "lare": 3302,
      "signed": 3303,
      "virt": 3304,
      "||": 3305,
      "Ġru": 3306,
      "Ġ.............<*>']": 3307,
      "Ġ||": 3308,
      "<*>=<*>']": 3309,
      "Ġcf": 3310,
      "erist": 3311,
      "eddd": 3312,
      "deb": 3313,
      "dee": 3314,
      "deed": 3315,
      "Ġfe": 3316,
      "aract": 3317,
      "657": 3318,
      "658": 3319,
      "6588": 3320,
      "456462": 3321,
      "adcfc": 3322,
      "acdf": 3323,
      "4015": 3324,
      "40017": 3325,
      "Ġbcd": 3326,
      "Ġbfea": 3327,
      "fcb": 3328,
      "fcd": 3329,
      "abdb": 3330,
      "abef": 3331,
      "abfcd": 3332,
      "1382": 3333,
      "8321": 3334,
      "ĠddrSize": 3335,
      "ffaa": 3336,
      "634": 3337,
      "638": 3338,
      "6325": 3339,
      "63569": 3340,
      "092": 3341,
      "57700": 3342,
      "5799": 3343,
      "5737": 3344,
      "Ġ<*>:<*>:<*>'": 3345,
      "621": 3346,
      "ddf": 3347,
      "6958": 3348,
      "184": 3349,
      "186": 3350,
      "ics": 3351,
      "Ġef": 3352,
      "Ġempt": 3353,
      "8228": 3354,
      "8246": 3355,
      "351": 3356,
      "356958": 3357,
      "49325": 3358,
      "495444": 3359,
      "bfdea": 3360,
      "070": 3361,
      "079": 3362,
      "0743": 3363,
      "0768": 3364,
      "bfea": 3365,
      "477": 3366,
      "47356958": 3367,
      "8873": 3368,
      "168": 3369,
      "919": 3370,
      "363788": 3371,
      "eaf": 3372,
      "bbb": 3373,
      "bbc": 3374,
      "751": 3375,
      "754": 3376,
      "7582": 3377,
      "7529": 3378,
      "7515": 3379,
      "caf": 3380,
      "cafc": 3381,
      "021": 3382,
      "02992": 3383,
      "02079": 3384,
      "dfbb": 3385,
      "7107": 3386,
      "7177": 3387,
      "7148": 3388,
      "598": 3389,
      "5904": 3390,
      "59847": 3391,
      "610": 3392,
      "526588": 3393,
      "905": 3394,
      "9048": 3395,
      "4380": 3396,
      "7247": 3397,
      "fdff": 3398,
      "fdfa": 3399,
      "054": 3400,
      "7748": 3401,
      "ddrSize": 3402,
      "Ġunsigned": 3403,
      "1481": 3404,
      "1412": 3405,
      "048": 3406,
      "ebd": 3407,
      "cdce": 3408,
      "cdfff": 3409,
      "fffbcc": 3410,
      "8791": 3411,
      "601": 3412,
      "031": 3413,
      "038": 3414,
      "ServiceNet": 3415,
      "4847": 3416,
      "4861": 3417,
      "9958": 3418,
      "9978": 3419,
      "33439": 3420,
      "33648": 3421,
      "33092": 3422,
      "295": 3423,
      "80121": 3424,
      "80168": 3425,
      "cbad": 3426,
      "ecaf": 3427,
      "0868": 3428,
      "0815": 3429,
      "0812": 3430,
      "2870": 3431,
      "28822": 3432,
      "cddbf": 3433,
      "afbe": 3434,
      "767": 3435,
      "accfbc": 3436,
      "workCh": 3437,
      "efed": 3438,
      "()']": 3439,
      "cfadcfc": 3440,
      "73011": 3441,
      "2756": 3442,
      "27537": 3443,
      "ulLen": 3444,
      "5446": 3445,
      "62008": 3446,
      "fbee": 3447,
      "8683": 3448,
      "33033": 3449,
      "93181": 3450,
      "aceaa": 3451,
      "RunRecv": 3452,
      "5186": 3453,
      "812": 3454,
      "98313": 3455,
      "5538": 3456,
      "5539": 3457,
      ")...<*>']": 3458,
      "3829978": 3459,
      "3955": 3460,
      "41633": 3461,
      "27455": 3462,
      "2760": 3463,
      "59395": 3464,
      "60057700": 3465,
      "94378": 3466,
      "607181": 3467,
      "Ġabdb": 3468,
      "Ġbfed": 3469,
      "fdbbf": 3470,
      "Ġ'<*>:<*>:<*>:<*>": 3471,
      "7427537": 3472,
      "Ġbfdab": 3473,
      "Ġbffe": 3474,
      "Ġbffee": 3475,
      "MsgHdr": 3476,
      "efcd": 3477,
      "4279": 3478,
      "fdef": 3479,
      "fdead": 3480,
      "993130": 3481,
      "3258": 3482,
      "407070": 3483,
      "RecvMsgHdr": 3484,
      "86660": 3485,
      "Ġbffcf": 3486,
      "Ġbffcbf": 3487,
      "ĠIdoMarshalerIo": 3488,
      "263584": 3489,
      "ddef": 3490,
      "0224": 3491,
      "2001": 3492,
      "20080": 3493,
      "64624": 3494,
      "faecd": 3495,
      "1729791": 3496,
      "25082": 3497,
      "bffffa": 3498,
      "069658": 3499,
      "08702992": 3500,
      "16614": 3501,
      "1779": 3502,
      "25767": 3503,
      "21870": 3504,
      "21474": 3505,
      "34984": 3506,
      "4839": 3507,
      "41670": 3508,
      "48735878": 3509,
      "5473": 3510,
      "5520": 3511,
      "6821": 3512,
      "602080": 3513,
      "85049": 3514,
      "8001382": 3515,
      "853295": 3516,
      "962714": 3517,
      "991035": 3518,
      "98910868": 3519,
      "Declare": 3520,
      "Mailbo": 3521,
      "faaf": 3522,
      "fecfc": 3523,
      "virtual": 3524,
      "Ġrun": 3525,
      "eristics": 3526,
      "aracteristics": 3527,
      "45646244": 3528,
      "832118": 3529,
      "Ġempty": 3530,
      "493254": 3531,
      "07689958": 3532,
      "88733": 3533,
      "7529621": 3534,
      "438082": 3535,
      "cdfffe": 3536,
      "fffbccf": 3537,
      "ServiceNetworkCh": 3538,
      "cfadcfcc": 3539,
      "2635842": 3540,
      "DeclareServiceNetworkCh": 3541,
      "Mailbox": 3542,
      "DeclareServiceNetworkCharacteristics": 3543,
      "&,": 3544,
      "013": 3545,
      "018": 3546,
      "053": 3547,
      "019": 3548,
      "1138": 3549,
      "159": 3550,
      "105": 3551,
      "1599": 3552,
      "252": 3553,
      "309": 3554,
      "465": 3555,
      "445": 3556,
      "463": 3557,
      "469": 3558,
      "449": 3559,
      "540": 3560,
      "616": 3561,
      "6161": 3562,
      "765": 3563,
      "750": 3564,
      "772": 3565,
      "811": 3566,
      "890": 3567,
      "815": 3568,
      "964": 3569,
      "988": 3570,
      "9928": 3571,
      "Add": 3572,
      "App": 3573,
      "Ent": 3574,
      "Memory": 3575,
      "Monitor": 3576,
      "ZE": 3577,
      "_<*>": 3578,
      "aede": 3579,
      "bed": 3580,
      "bnet": 3581,
      "cer": 3582,
      "cacc": 3583,
      "ebda": 3584,
      "expected": 3585,
      "eApp": 3586,
      "mu": 3587,
      "vaddr": 3588,
      "Ġ%": 3589,
      "error": 3590,
      "edefb": 3591,
      "Ġaaec": 3592,
      "Ġmmu": 3593,
      "Ġoption": 3594,
      "Ġforce": 3595,
      "8355": 3596,
      "83447": 3597,
      "ecbd": 3598,
      "fffa": 3599,
      "Ġsubnet": 3600,
      "ĠPAGE": 3601,
      "6972": 3602,
      "180": 3603,
      "Ġaddresses": 3604,
      "110": 3605,
      "1168": 3606,
      "1114": 3607,
      "82018": 3608,
      "4956": 3609,
      "077": 3610,
      "['<*>'": 3611,
      "8856": 3612,
      "16409": 3613,
      "16772": 3614,
      "fafe": 3615,
      "227": 3616,
      "7594": 3617,
      "cafde": 3618,
      "aebed": 3619,
      "306161": 3620,
      "Ġlib": 3621,
      "61286": 3622,
      "5332": 3623,
      "5348": 3624,
      "Ġ-<*>": 3625,
      "25439": 3626,
      "['<*>:": 3627,
      "['<*>:<*>": 3628,
      "quencer": 3629,
      "3273": 3630,
      "726": 3631,
      ".................<*>']": 3632,
      "Ġunexpected": 3633,
      "924": 3634,
      "ĠTLBEnt": 3635,
      "ebc": 3636,
      "ccf": 3637,
      "ccbc": 3638,
      "6047": 3639,
      "..<*>']": 3640,
      "....<*>']": 3641,
      "cbc": 3642,
      "60185": 3643,
      "17811": 3644,
      "ĠinitializeApp": 3645,
      "...............<*>']": 3646,
      "bead": 3647,
      "<*>:<*>']": 3648,
      "93721": 3649,
      "................<*>']": 3650,
      "582019": 3651,
      "066194": 3652,
      "feaf": 3653,
      "............................<*>']": 3654,
      "Ġsequencer": 3655,
      "278": 3656,
      "feeaa": 3657,
      "1761114": 3658,
      "serviceMailbox": 3659,
      "82516772": 3660,
      "daabe": 3661,
      "03391": 3662,
      "31970": 3663,
      "SIZE": 3664,
      "1720": 3665,
      "250463": 3666,
      "3808293": 3667,
      "bffffd": 3668,
      "03783": 3669,
      "MailboxMonitor": 3670,
      "0133": 3671,
      "10516409": 3672,
      "25255": 3673,
      "46560": 3674,
      "6160": 3675,
      "7503": 3676,
      "815445": 3677,
      "9885348": 3678,
      "Added": 3679,
      "Ġaaecab": 3680,
      "Ġsubnets": 3681,
      "69729": 3682,
      "cafdec": 3683,
      "53321720": 3684,
      "ĠTLBEntry": 3685,
      "ĠinitializeAppMemory": 3686,
      "serviceMailboxes": 3687
    },
    "merges": [
      "* >",
      "< *>",
      "Ġ <*>",
      "Ġ '",
      "o r",
      "i n",
      "Ġ c",
      "r e",
      "e r",
      "c t",
      "i o",
      "e d",
      "Ġ s",
      "Ġ a",
      "Ġ<*> ,",
      "d e",
      "Ġ<*> '",
      "Ġ f",
      "Ġ m",
      "a r",
      "Ġ p",
      "Ġ i",
      "r or",
      "ct ed",
      "Ġc or",
      "in g",
      "s s",
      "a t",
      "Ġ er",
      "g e",
      "Ġ in",
      "c io",
      "cio d",
      "= <*>",
      "n o",
      "io n",
      "2 3",
      "h e",
      "Ġi s",
      "i t",
      "a l",
      "Ġ o",
      "Ġer ror",
      "i l",
      "y m",
      "Ġs ym",
      "Ġcor re",
      "r a",
      "Ġcorre cted",
      "Ġ no",
      "a s",
      "Ġ d",
      "Ġ t",
      "6 5",
      "Ġa t",
      "Ġ de",
      "o de",
      "n d",
      "l o",
      "as k",
      "C E",
      "Ġm ask",
      "r u",
      "r o",
      "c k",
      "ar d",
      "Ġc ard",
      "4 5",
      "ct ion",
      "s t",
      "Ġ E",
      "c e",
      "a d",
      "a c",
      "t e",
      ". <*>",
      "Ġ C",
      "Ġp ro",
      "i d",
      "Ġp ar",
      "e t",
      "e s",
      "Ġ R",
      "te cted",
      "a ge",
      "4 0",
      "ac he",
      "it y",
      "Ġpar ity",
      "Ġc ache",
      "5 0",
      "Ġf or",
      "o l",
      "Ġde tected",
      "Ġf il",
      "r ror",
      "er at",
      "ĠE rror",
      "ru ction",
      "st ruction",
      "in struction",
      "a a",
      "Ġ A",
      "Ġ' <*>",
      "Ġ or",
      "Ġ b",
      "n erat",
      "Ġcor e",
      "ge nerat",
      "Ġ ra",
      "Ġo n",
      "Ġ re",
      "=<*> ,",
      "ad ing",
      "p t",
      "Ġ M",
      "i v",
      "Ġ O",
      "g ra",
      "gra m",
      "Ġpro gram",
      "Ġ L",
      "Ġno t",
      "ĠO K",
      "c h",
      "Ġa nd",
      "u n",
      "Ġ J",
      "N ode",
      "f c",
      "a b",
      "d r",
      "1 3",
      "a n",
      "Ġ (",
      "8 3",
      "Ġd dr",
      "a m",
      "t er",
      "Ġt o",
      "i g",
      "Ġ v",
      "i re",
      "Ġo f",
      "i ss",
      "e c",
      "ig n",
      "f f",
      "Ġno de",
      "Ġ :",
      "lo ck",
      "6 3",
      "l y",
      "re ss",
      "Ġ T",
      ".<*> '",
      "ce iv",
      "Ġfil e",
      "Ġs u",
      "L E",
      "Ġa ss",
      "Ġs t",
      "l e",
      "A G",
      "T AG",
      "ĠC lock",
      "es et",
      "ĠR eset",
      "ĠJ TAG",
      "Ġ<*> .<*>",
      "0 9",
      "ol t",
      "Ġra il",
      "Ġv olt",
      "ĠT he",
      "e ss",
      "ess age",
      "generat ing",
      "09 40",
      "Ġm essage",
      "Ġ P",
      "u s",
      "=<*> '",
      "Ġ N",
      "Ġ lo",
      "Ġ V",
      "re am",
      "d c",
      "5 7",
      "P D",
      "ĠV PD",
      "Ġst at",
      ". .",
      "Ġin ter",
      "ru pt",
      "Ġinter rupt",
      "6 4",
      ": <*>",
      "ck et",
      "Ġp re",
      "ire ct",
      "or y",
      "S t",
      "ĠN o",
      "Ġ<*> :<*>",
      "u t",
      "Ġd irect",
      "Ġdirect ory",
      "o cket",
      "Ġsu ch",
      "Ġpre f",
      "Ġb it",
      "Ġs ocket",
      "i x",
      "io St",
      "Ġpref ix",
      "ioSt ream",
      "n t",
      "al id",
      "v alid",
      "6 2",
      "Ġin valid",
      "iss ing",
      "Ġf u",
      "Ġm issing",
      "m age",
      "Ġi mage",
      "Ġlo ading",
      "d a",
      "Ġre ading",
      "ĠC ioStream",
      "ĠR e",
      "Ġs ign",
      "Ġsign al",
      "d d",
      "6 9",
      "Ġc ode",
      "1 8",
      "dd ress",
      "Ġa ddress",
      "9 63",
      "r no",
      "Ġer rno",
      "13 83",
      "ceiv ed",
      "ĠRe ceived",
      "963 1383",
      "1 1",
      "i c",
      "Ġfil es",
      "Ġstat us",
      "r t",
      "Ġ generat",
      "Ġgenerat ed",
      ". '",
      "Ġ w",
      "t al",
      "p e",
      "Ġ S",
      "b ol",
      "Ġsym bol",
      "n k",
      "Ġra nk",
      "o nd",
      "ec ond",
      "econd s",
      "t o",
      "p ut",
      "Ġin put",
      "er t",
      "o u",
      "at ion",
      "ert ed",
      "Ġ e",
      "a il",
      "8 2",
      "Ġp o",
      "Ġf ail",
      "Ġfail ed",
      "C H",
      "in t",
      "Ġpo int",
      "e nt",
      "un t",
      "3 5",
      "m b",
      "o unt",
      "g l",
      "4 9",
      "Ġb gl",
      "Ġbgl io",
      "to tal",
      "er m",
      "ct iv",
      "Ġ I",
      "l an",
      "Ġa ctiv",
      "Ġde ar",
      "G O",
      "O D",
      "GO OD",
      "ĠI S",
      "T I",
      "R R",
      "O R",
      "RR OR",
      "R T",
      "ĠA S",
      "p lan",
      "id plan",
      "idplan e",
      "Ġ F",
      "I C",
      "Ġm ount",
      "ĠS e",
      "f or",
      "A I",
      "un ction",
      "for m",
      "L u",
      "st re",
      "LE D",
      "ĠF AI",
      "Lu stre",
      "ĠFAI LED",
      "v er",
      "Ġf unction",
      "Ġfunction al",
      "b f",
      "l ly",
      "Ġfu lly",
      "Ġactiv e",
      "Ġass erted",
      "0 7",
      "o w",
      "ĠM idplane",
      "I N",
      "A T",
      "P GOOD",
      "ĠM PGOOD",
      "V E",
      "C TI",
      "ĠA CTI",
      "ĠACTI VE",
      "ĠE RROR",
      "ĠL AT",
      "ĠLAT CH",
      "Ġ<*>:<*> ,",
      "le ct",
      "23 35",
      "ĠA LE",
      "ĠALE RT",
      "ge t",
      "6 23",
      "Ġa re",
      "h y",
      "ĠM ode",
      "ĠL ow",
      "ĠP hy",
      "ĠAS IC",
      "ĠSe lect",
      "ĠALERT s",
      "Ġ get",
      "e mb",
      "emb ly",
      "C an",
      "Ġin form",
      "Ġass embly",
      "623 2",
      "Ġinform ation",
      "Ġerror s",
      "bf e",
      "c bfe",
      "18 40",
      "ab b",
      "<*> )",
      "b da",
      "6 6",
      "Ġ U",
      "O G",
      "ĠL OG",
      "ĠLOG IN",
      "[ '",
      "ce ss",
      "Ġinterrupt s",
      "r it",
      "he ck",
      "Ġc heck",
      "ic al",
      "rit ical",
      "Ġs econds",
      "Ġ ec",
      "f ab",
      "Ġpro cess",
      "Ġprocess or",
      "Ġec id",
      "Ġs lo",
      "Ġslo t",
      "<*> '",
      "49 83",
      "i ed",
      "Ġ<*> )",
      "Ġe x",
      "4 7",
      "at ch",
      "Ġd o",
      "8 8",
      "pt ion",
      "ce ption",
      "1 6",
      "ou nd",
      "0 0",
      "Ġ /",
      "Ġf ound",
      "62 7",
      "Ġm atch",
      "g b",
      "Ġ( <*>)",
      "Ġo ver",
      "45 5",
      "dc r",
      "13 8",
      "57 138",
      "Ġi ar",
      "c fc",
      "1 47",
      "cfc ff",
      "Ġa l",
      "' ]",
      "Ġex ception",
      "m ent",
      "ign ment",
      "Ġal ignment",
      "Ġexception s",
      "p p",
      "9 1",
      "y pe",
      "Ġt ype",
      ".. ..",
      "ed f",
      "3 63",
      "n ied",
      "Ġde nied",
      "iss ion",
      "ĠP erm",
      "ĠPerm ission",
      "=<*> )",
      "Ġc h",
      "Ġt he",
      "=<*>) :",
      "un it",
      "n e",
      "h er",
      "ress ing",
      "Ġfu rt",
      "pp ressing",
      "Ġfurt her",
      "f a",
      "Ġw ire",
      "rt s",
      "am e",
      "n ing",
      "Ġs ame",
      "c ritical",
      "ar ning",
      "Ġw arning",
      "f ter",
      "Ġa fter",
      "Ġ<*>:<*> :",
      "82 91",
      "Ġre ceiv",
      "m m",
      "i m",
      "7 3",
      "at ing",
      "Ġreceiv er",
      "Ġm a",
      "o n",
      "7 00",
      "er ne",
      "erne l",
      "e a",
      "b b",
      "i p",
      "Ġ =",
      "d o",
      "ic ro",
      "Ġch ip",
      "4 4",
      "Ġi p",
      "40 6",
      "u ppressing",
      "at ed",
      "s econds",
      "Ġm icro",
      "Ġmicro seconds",
      "406 45",
      "e fa",
      "s uppressing",
      "b le",
      "k ernel",
      "Ġ kernel",
      "in ated",
      "as on",
      "Ġt erm",
      "Ġre ason",
      "Ġterm inated",
      "Ġt im",
      "e e",
      "2 2",
      "7 5",
      "or us",
      "u mm",
      "c a",
      "o nt",
      "Ġt orus",
      "73 9",
      "h umm",
      "Ġd ou",
      "62 65",
      "humm er",
      "Ġdou ble",
      "Ġstat e",
      "re e",
      "Ġt ree",
      "ro l",
      "ont rol",
      "y n",
      "0 2",
      "a e",
      "lo ating",
      "d f",
      "Ġma p",
      "9 6",
      "9 4",
      "Ġcorre ct",
      "ab le",
      "<*> -",
      "i ar",
      "g er",
      "ee b",
      "Ġf loating",
      "i pe",
      "Ġp ipe",
      "3 0",
      "Ġ D",
      "Ġc ritical",
      "7 1",
      "Ġ l",
      "Ġto tal",
      "94 6",
      "13 0",
      "3 40",
      "Ġo ut",
      "s yn",
      "v ent",
      "Ġe vent",
      "syn ch",
      "at a",
      ".... ....",
      "p u",
      "d ata",
      "er v",
      "5 9",
      "i ce",
      "erv ice",
      "Ġc pu",
      "u g",
      "Ġtim e",
      "7 0",
      "6 1",
      "5 3",
      "5 2",
      "r i",
      "C ontrol",
      "I do",
      "in e",
      "Ġin to",
      "c ation",
      "b ug",
      "Ġi do",
      "g ed",
      "an ged",
      "Ġch anged",
      "5 5",
      "Ġb lock",
      "Ġa s",
      "9 96",
      "m pt",
      "Ġat te",
      "mpt ing",
      "Ġatte mpting",
      "Ġ -",
      "Ġpar t",
      "at ab",
      "as e",
      "atab ase",
      "3 75",
      "44 4",
      "Ġin s",
      "0 62",
      "N e",
      "Ġd atabase",
      "Ġins erted",
      "062 444",
      "Ne w",
      "ĠA ction",
      "ĠS ervice",
      "Ġma x",
      "2 5",
      "Ġs pe",
      "d ad",
      "Ġspe nt",
      "Ġsu ppressing",
      "Ġlo cation",
      "bug ger",
      "Ġde bugger",
      "D es",
      "c ri",
      "e tected",
      "l Control",
      "or s",
      "Ġp ol",
      "23 55",
      "Ġd ied",
      "pt ors",
      "ĠD etected",
      "Des cri",
      "lControl Descri",
      "Ġpol lControlDescri",
      "ĠpollControlDescri ptors",
      "71 53",
      "o f",
      "a nd",
      "i rt",
      "D irt",
      "Ġ #",
      "of Dirt",
      "ofDirt y",
      "ro m",
      "Ġf rom",
      "59 75",
      "ad er",
      "Ġc re",
      "Ġcre ating",
      "b a",
      "Ġl ine",
      "A CH",
      "e n",
      "Ġ r",
      "82 8",
      "Ġb ad",
      "[' <*>",
      "50 2",
      "Ġtim ed",
      "he ader",
      "Ġ header",
      "Ġ h",
      "8 4",
      "l er",
      "q u",
      "u mb",
      "umb er",
      "x pe",
      "xpe cted",
      "e m",
      "u r",
      "Ġ<*>:<*> '",
      "Ġre t",
      "9 0",
      "p ly",
      "qu en",
      "ĠE xpected",
      "ĠRe ply",
      "quen ce",
      "Ġre ad",
      "375 8",
      ".. .",
      "4 3",
      "<*> =<*>",
      "1 83",
      "C ioStream",
      "Ġc ontrol",
      "Ġst ream",
      "3 2",
      "p erat",
      "Ġcorrect able",
      "de x",
      "Ġin dex",
      "s e",
      "o mm",
      "ar y",
      "b s",
      "7 2",
      "<*> ,",
      "22 8",
      "Ġin st",
      "Ġw as",
      "u m",
      "3 22",
      "l s",
      "Ġc al",
      "Ġs ing",
      "Ġd ur",
      "an ce",
      "im um",
      "Ġmax imum",
      "and ler",
      "Ġr bs",
      "Ġh andler",
      "Ġinst ance",
      "322 228",
      "Ġcal ls",
      "Ġsing le",
      "Ġdur ing",
      "00 45",
      "u re",
      "on ne",
      "ff ff",
      "Ġsu mm",
      "Ġsumm ary",
      "66 84",
      "onne ction",
      "in es",
      "ĠC onnection",
      "f d",
      "age s",
      "d dc",
      "K ernel",
      "Ġin te",
      "Ġinte ger",
      "ĠD C",
      "D b",
      "L ines",
      "W or",
      "l Wor",
      "Ġa ver",
      "ofDirty Db",
      "ofDirty Lines",
      "ACH E",
      "32 6684",
      "ĠDC ACHE",
      "lWor d",
      "Ġaver ages",
      "ofDirtyDb lWord",
      "326684 23",
      "ĠC omm",
      "fa e",
      "c de",
      "c fae",
      "Ġ ...",
      "em perat",
      "emperat ure",
      "49 6",
      "4 496",
      "45 0",
      "3 90",
      "5 1",
      "73 1",
      "73 6",
      "731 736",
      "Ġ(<*>) '",
      "d u",
      "65 9",
      "N F",
      "r y",
      "Ġs le",
      "ĠM ount",
      "Ġret ry",
      "51 659",
      "NF S",
      "Ġsle pt",
      "Ġretry ing",
      "S R",
      "ĠP SR",
      "........ ........",
      "u al",
      "N umber",
      "e quence",
      "ct ual",
      "ĠA ctual",
      "ĠO p",
      "ĠS yn",
      "ĠComm and",
      "equence Number",
      "ĠSyn c",
      "0 5",
      "Ġ<*>' ]",
      "6 8",
      "H E",
      "7 7",
      "in k",
      "Ġ- -",
      "o pp",
      "Ġst opp",
      "Ġstopp ing",
      "ec ut",
      "Ġex ecut",
      "i z",
      "d dr",
      "Ġ un",
      "x ception",
      "1 4",
      "9 2",
      "Ġ<*>) '",
      "h t",
      "an t",
      "C K",
      "E xception",
      "a v",
      "j av",
      "Ġ jav",
      "Ġjav a",
      "Ġl r",
      "0 4",
      "re c",
      "4 18",
      "2 23",
      "M ACH",
      "ĠC HE",
      "IN E",
      "418 223",
      "MACH INE",
      "ĠCHE CK",
      "418223 6",
      "Ġs te",
      "Ġste er",
      "h ine",
      "ac hine",
      "f p",
      "fp r",
      "i st",
      "g ist",
      "gist er",
      "i s",
      "Ġl ink",
      "iz ed",
      "Ġp an",
      "Ġpan ic",
      "07 16",
      "22 0716",
      "Ġexecut ion",
      "f dc",
      "91 2",
      "Ġ B",
      "L B",
      "ĠT LB",
      "X F",
      "Ġc able",
      "Ġsteer ing",
      ".. .<*>'",
      "1 9",
      "rec o",
      "ĠL im",
      "ĠLim it",
      "ff a",
      "ad dr",
      "g n",
      "Ġs ent",
      "Ġtree addr",
      "Ġun reco",
      "gn ized",
      "Ġunreco gnized",
      "ĠM essage",
      "2 1",
      "e b",
      "nd ant",
      "Ġre du",
      "Ġredu ndant",
      "Ġactiv ating",
      "s pp",
      "<*> /",
      "spp m",
      "35 68",
      "o ut",
      "c d",
      "bb e",
      "8 72",
      "1 49",
      "Ġtime out",
      "Ġre gister",
      "Ġre ver",
      "Ġ-- >",
      "Ġrever se",
      "m achine",
      "0 6",
      "n al",
      "c c",
      "E RT",
      "S ERT",
      "ĠAS SERT",
      "n able",
      "ĠP GOOD",
      "0 83",
      "083 912",
      "O T",
      "ĠN OT",
      "Ġto o",
      "ff f",
      "Ġ >",
      "Ġb ig",
      "62 09",
      "e x",
      "ter nal",
      "ex ternal",
      "I XF",
      "ĠP IXF",
      "Ġt h",
      "O N",
      "A TI",
      "E RROR",
      "M M",
      "N IC",
      "O MM",
      "U NIC",
      "ĠC OMM",
      "ATI ON",
      "UNIC ATION",
      "ĠCOMM UNICATION",
      "ĠN umber",
      "I s",
      "O k",
      "O ut",
      "S equenceNumber",
      "Ġs equenceNumber",
      "Ġf al",
      "Ġt ru",
      "ĠSe quence",
      "ri es",
      "Ġtimed Out",
      "Ġret ries",
      "ĠExpected SequenceNumber",
      "Is Ok",
      "ĠsequenceNumber IsOk",
      "Ġfal se",
      "Ġtru e",
      "8 7",
      "ffff fff",
      "Ġc a",
      "Ġf fffffff",
      "2 6",
      "06 69",
      "ug ht",
      "Ġca ught",
      "6 0",
      "S w",
      "it ch",
      "Sw itch",
      "Ġe nable",
      "d is",
      "dis able",
      "0 3",
      "ab c",
      "n et",
      "T emperature",
      "ĠO ver",
      ". .<*>'",
      "D o",
      "35 87",
      "3587 8",
      "6 65",
      "Ġb y",
      "e bb",
      "ebb ac",
      "p ro",
      "ĠT emperature",
      "S ervice",
      "02 59",
      "it h",
      "Ġw ith",
      "l d",
      "St at",
      "d b",
      "lan g",
      "e Exception",
      "1 21",
      "94 1",
      "121 941",
      "E rror",
      "6 18",
      "er form",
      "Ġp erform",
      "Ġb e",
      "Control ler",
      "o du",
      "0 14",
      "odu le",
      "i ble",
      "c cess",
      "Ġa ccess",
      "ca fa",
      "618 7",
      "a re",
      "... .<*>'",
      "3 14",
      "p ar",
      "Ġm odule",
      "w er",
      "Ġpo wer",
      "Ġaccess ible",
      "M idplane",
      "Switch Controller",
      "Midplane SwitchController",
      "ĠA ss",
      "ert ion",
      "ig ht",
      "M icro",
      "b d",
      "lo ader",
      "ĠAss ertion",
      "Micro loader",
      "2 0",
      "4 8",
      "Ġbe ing",
      "f loating",
      "9 9",
      "r ce",
      "ĠS ou",
      "ĠSou rce",
      "Ġp a",
      "8 9",
      "Ġpa cket",
      "3 3",
      "=<*>' ]",
      "................ ........",
      "il e",
      "l b",
      "69 9",
      "3 16",
      "N K",
      "k pt",
      "l ight",
      "ĠC NK",
      "ch kpt",
      "m ode",
      "ĠV N",
      "88 71",
      "05 8871",
      "2 4",
      "Ġf i",
      "c ad",
      "07 4",
      "84 8",
      "2 9",
      "U T",
      "ra in",
      "8 0",
      "s ent",
      "Ġpre sent",
      "7 48",
      "M issing",
      "ĠC able",
      "ĠB UT",
      "or t",
      "perat ion",
      "I l",
      "g al",
      "le gal",
      "Stat eException",
      "Il legal",
      "Illegal StateException",
      "Ġ g",
      "c b",
      "p are",
      "ar t",
      "h ile",
      "Ġ'<*> '",
      ".... ..<*>'",
      "Ġ Z",
      "F or",
      "P re",
      "Ġdo ne",
      "Ġth is",
      "pare For",
      "Pre pareFor",
      "PrepareFor Service",
      "us e",
      "7 848",
      "Ġm an",
      "9 49",
      "a ger",
      "Ġman ager",
      "in valid",
      "or e",
      ".' ]",
      "et ch",
      "<*>) ,",
      "8 73",
      "Ġ ne",
      "Ġs ervice",
      "y st",
      "un ic",
      "33 699",
      "yst em",
      "Ġs par",
      "92 50",
      "Ġperform ing",
      "Ġspar ing",
      "3 68",
      "11 20",
      "c ache",
      "s h",
      "2 13",
      "id o",
      "213 35",
      "I Do",
      "x t",
      "irect IDo",
      "em ory",
      "m emory",
      "Ġg o",
      ".<*>' ]",
      "D R",
      "<*> =<*>'",
      "I O",
      "IO Exception",
      "ou ld",
      "ec a",
      ": '",
      "u e",
      "Ġb eca",
      "Ġbeca use",
      "9 35",
      "3 1",
      "lo cation",
      "Ġal location",
      "Ġne xt",
      "de bug",
      "Ġm ode",
      "Ġp t",
      "07 03",
      "89 70",
      "0703 8970",
      "1 5",
      ".... ....<*>'",
      "le ar",
      "ĠP R",
      "Ġc lear",
      "Ġt emperature",
      "Ġ- <*>,",
      "ĠPR XF",
      "ad b",
      "ee ee",
      "Ġp lb",
      "ĠL atch",
      "70 3",
      "E D",
      "ĠM ask",
      "ĠASSERT ED",
      "99 8",
      "Ġfiles ystem",
      "Ġun able",
      "873 21",
      "x y",
      "pro xy",
      "ido proxy",
      "idoproxy db",
      "0 8",
      "8 92",
      "Ġc omm",
      "935 63",
      "Ġ X",
      "Ġ Y",
      "ĠC ould",
      "Ġi Do",
      "64 6",
      "2 8",
      "ad d",
      "912 71",
      "a g",
      "p l",
      "i al",
      "ĠRe gister",
      "g u",
      "ar an",
      "ad dd",
      "te ed",
      "gu aran",
      "guaran teed",
      "c dd",
      "3 77",
      "it ial",
      "Ġpref etch",
      "ic ache",
      "377 7",
      "a f",
      "t orus",
      "Ġt rain",
      "Ġw ant",
      "Ġtrain ing",
      "Ġwant ed",
      "e ld",
      "en able",
      "Ġfi eld",
      "re sh",
      "ol d",
      "Ġth resh",
      "Ġthresh old",
      "ee e",
      "Ġh as",
      "f e",
      "1 646",
      "ĠM issing",
      "Ġfield s",
      "L ct",
      "m Lct",
      "mLct n",
      "k en",
      "ro ken",
      "ĠB roken",
      "S ocket",
      "Socket Exception",
      "2 43",
      "t ag",
      "ĠJ tag",
      "7 6",
      "Ġc ond",
      "it ion",
      "ĠF unction",
      "Ġh it",
      "Ġcond ition",
      "Ġc on",
      "ac b",
      "fa acb",
      "Ġregister s",
      "ac c",
      "w or",
      "wor k",
      "Ġ net",
      "Ġnet work",
      "6 84",
      "u p",
      "Ġ up",
      "Ġreceiv ing",
      "u nd",
      "Ġm achine",
      "406 88",
      "A M",
      "........................ .<*>'",
      "ro ble",
      "roble m",
      "A ction",
      "E nd",
      "Service Action",
      "Ġperform ed",
      "Ġup on",
      "End ServiceAction",
      "7 9",
      "92 8",
      "6 45",
      "l i",
      "60 18",
      "Ġ CE",
      "ĠS uppressing",
      "52 6018",
      "it or",
      "on itor",
      "4 149",
      "o se",
      "p ose",
      "Ġp ur",
      "Ġpur pose",
      "G L",
      "ĠO peration",
      "Ġw hile",
      "Ġexecut ing",
      "O L",
      "ĠR AI",
      "ĠT HE",
      "ĠV OL",
      "ĠRAI L",
      "ĠVOL T",
      "Ġo peration",
      "C ard",
      "D irectIDo",
      "st art",
      "Ġb ee",
      "Ġbee n",
      "ro und",
      "pt ure",
      "ca pture",
      "B ad",
      "ĠL ink",
      "ĠP ort",
      "Ġwire s",
      "Ġgo ing",
      "ĠLink Card",
      "Ġ us",
      "Ġc li",
      "Ġus able",
      "Ġcli ent",
      "W hile",
      "59 9",
      "f ig",
      "71 79",
      "ow er",
      "P roblem",
      "unic ating",
      "Ġcomm unicating",
      "P ower",
      "69 3",
      "Ġ'<*> :<*>",
      "........ ...<*>'",
      "Ġ Stat",
      "a ctiv",
      "Ġde activ",
      "Ġdeactiv ated",
      "par ity",
      "e f",
      ".... ...<*>'",
      "Ġp ort",
      "DR AM",
      "b ff",
      "bf b",
      "a ct",
      "r st",
      "ĠE DRAM",
      "Ġfi rst",
      "R unt",
      "im eException",
      "ĠComm unic",
      "Runt imeException",
      "ĠCommunic ation",
      "Ġ<*> :",
      ": :",
      "n umber",
      "( )",
      "lo g",
      "Ġl atch",
      "ĠL P",
      "dd b",
      "( <*>)",
      "9 52",
      "Ġlatch ed",
      "her net",
      "Ġc r",
      "c f",
      "23 7",
      "a p",
      "T rain",
      "ed e",
      "3 949",
      "t hernet",
      "in d",
      "Ġf ind",
      "ĠE thernet",
      "add ress",
      "3949 8",
      "ĠEthernet Switch",
      "ĠI n",
      "Ġ- <*>)",
      "73 8",
      "eeee eee",
      "73 0",
      "t lb",
      "738 237",
      "f dd",
      "st ore",
      "7 730",
      "90 6",
      "3 13",
      "69 7",
      "........................ ...<*>'",
      "5 6",
      "i se",
      "p rec",
      "ac fdd",
      "im prec",
      "imprec ise",
      "x er",
      "Ġ xer",
      "Ġst art",
      "ur ation",
      "fig uration",
      "pro gram",
      "Ġstart ed",
      "m in",
      "Ġe of",
      "ĠU ne",
      "pl us",
      "min us",
      "ĠUne xpected",
      "Ġ-<*>) '",
      "1 7",
      "Ġgo t",
      "5 4",
      "Ġin itial",
      "Ġinitial iz",
      "43 6",
      "Ġinitializ ing",
      "ad c",
      "ĠI P",
      "i es",
      "p ert",
      "pro pert",
      "propert ies",
      "0 32",
      "Ġa pu",
      "Ġin struction",
      "as t",
      "ro adc",
      "Ġb roadc",
      "032 8",
      "Ġbroadc ast",
      "e ab",
      "ĠStat us",
      "2 75",
      "3 4",
      "d ede",
      "e Train",
      "re ceiv",
      "Ġi ap",
      "243 3",
      "receiv eTrain",
      "/ <*>",
      "1 45",
      "Ġlo ad",
      "for ce",
      "00 2",
      "........ .......<*>'",
      "145 002",
      "f o",
      "B GL",
      "o m",
      "s id",
      "ac ing",
      "Ġre pl",
      "Ġcon sid",
      "Ġrepl acing",
      "Ġconsid er",
      "45 8",
      "= /<*>",
      "n in",
      "Ġc ont",
      "ĠU nin",
      "ĠD irectIDo",
      "08 458",
      "itial ized",
      "Ġcont act",
      "ĠUnin itialized",
      "u l",
      ".... .<*>'",
      "p re",
      "m onitor",
      "b c",
      "b e",
      "11 1",
      ") '",
      "s umm",
      "57 34",
      "summ ary",
      "3 88",
      "5 44",
      "ul t",
      "Ġ<*> .",
      "re ad",
      "Ġm ult",
      "Ġsymbol s",
      "ĠU nable",
      "Ġal read",
      "ip le",
      "ĠD ue",
      "Ġmult iple",
      "Ġalread y",
      "8 91",
      "c on",
      "as ter",
      "53 76",
      "62 00",
      "8 05",
      "bc dc",
      "D DR",
      "Ġb an",
      "6200 20",
      "Ġban k",
      "c ore",
      "07 2",
      "06 072",
      "Ġcon figuration",
      "j o",
      "re ed",
      "Ġf reed",
      "23 92",
      "ĠB lock",
      "jo b",
      "2392 57",
      "2 03",
      "69 1",
      "ĠRegister s",
      "6 63",
      "c r",
      "w ard",
      "Ġto ward",
      "203 30",
      "l ue",
      "f b",
      "3 8",
      "................ .<*>'",
      "a x",
      "Ġ $",
      "699 82",
      "388 69982",
      "( <*>),",
      "m ax",
      "I p",
      "T ype",
      "Ġm Ip",
      "Ġm Type",
      "(<*>) )",
      "be bf",
      "8 6",
      "er ver",
      "ffff ffff",
      "u x",
      "c s",
      "s erver",
      "mm cs",
      "Ġal l",
      "2 72",
      "<*>' ]",
      "b ea",
      "er s",
      "s ed",
      "Ġc lo",
      "19 7",
      "Ġclo sed",
      "Ġm onitor",
      "w are",
      "ard ware",
      "f etch",
      "Ġde pt",
      "09 9",
      "72 099",
      "pre fetch",
      "Ġdept h",
      "H ardware",
      "2 65",
      "........ ....<*>'",
      "e ue",
      "Ġ qu",
      "91 5",
      "265 915",
      "Ġqu eue",
      "- '",
      "22 29",
      "891 2229",
      "3 83",
      "9 5",
      "Ġ number",
      "Ġcomm and",
      "re at",
      "Ġth an",
      "89 7",
      "Ġg reat",
      "Ġgreat er",
      "4 6684",
      "46684 8",
      "3 7",
      "<*> :<*>",
      "lo w",
      "M aster",
      "s ol",
      "BGL Master",
      "con sol",
      "consol e",
      "Ġinter nal",
      "M achine",
      "3 30",
      "04 6",
      "6 72",
      "f ra",
      "f low",
      "Ġc om",
      "22 44",
      "................ ........<*>'",
      "599 5",
      "330 672",
      "fra ction",
      "d ow",
      "ut dow",
      "sh utdow",
      "shutdow n",
      "4 6",
      "C R",
      "b it",
      ". /",
      "Ġ ./",
      "Ġd b",
      "db properties",
      "1 0",
      "89 3",
      "Ġ unit",
      "D CR",
      "49 0",
      "af bb",
      "Ġin fo",
      "A ddress",
      "p Address",
      "ĠI pAddress",
      "9 3",
      "re s",
      "b gl",
      "........ ........<*>'",
      "f ile",
      "ce ed",
      "Ġex ceed",
      "5 82",
      "c om",
      "o d",
      "Ġma y",
      "ĠB G",
      "c or",
      "re ct",
      "cor rect",
      "correct able",
      "G o",
      "I d",
      "t ing",
      "Ġ Go",
      "Ġa ction",
      "Ġre qu",
      "ire d",
      "ĠGo od",
      "Ġrequ ired",
      "A L",
      "Ġf p",
      "f ba",
      "a ce",
      "b lock",
      "onne ct",
      "rec onnect",
      "ĠB GL",
      "block s",
      "iz e",
      "I n",
      "in ter",
      "90 3",
      "ĠJtag Id",
      "In valid",
      "B lue",
      "D atabase",
      "L ight",
      "io log",
      "use Database",
      "log s",
      "Blue Light",
      "s ize",
      "he s",
      "Ġ( <*>",
      "rit e",
      "Ġl ines",
      "................ ..<*>'",
      "Ġfail ing",
      "68 10",
      "848 54",
      "inter rupt",
      "6810 873",
      "of t",
      "R AM",
      "Ġ ro",
      "Ġb a",
      "R un",
      "ciod b",
      "Ġre start",
      "ĠS RAM",
      "Ġexceed ed",
      "Ġrestart ed",
      "e xception",
      "g round",
      "Ġd ata",
      "ck ground",
      "Ġba ckground",
      "Run ning",
      "] '",
      "l ing",
      "w s",
      "Ġ [",
      "Ġ ]'",
      "St art",
      "ĠS ystem",
      "Control ling",
      "Ġro ws",
      "Start ing",
      "ĠSystem Controller",
      "5 18",
      "Ġ'<*> :",
      "f ce",
      "G e",
      "N ame",
      "f l",
      "in fo",
      "er info",
      "Ġpar am",
      "et ers",
      "us h",
      "us erinfo",
      "ĠB lue",
      "enable fl",
      "log userinfo",
      "ĠIn put",
      "Ge ne",
      "Ġparam eters",
      "ĠBlue Gene",
      "enablefl ush",
      "9 8",
      "fce a",
      "2 77",
      "a ux",
      "il iar",
      "aux iliar",
      "auxiliar y",
      "8 1",
      "l r",
      "t r",
      "Ġc tr",
      "b y",
      "ĠD DR",
      "99 998",
      "99998 5",
      "0 1",
      "5 623",
      "5623 903",
      "i b",
      "8 5",
      "ib m",
      "03 4",
      "0 66",
      "7 91",
      "at e",
      "L in",
      "b u",
      "h omm",
      "q x",
      "Ġ ..",
      "il d",
      "pre qx",
      "37 4",
      "Lin ux",
      "bu ild",
      "homm e",
      "Ġ.. /",
      "ec c",
      "bb ecc",
      "828 1",
      "Ġd cache",
      "................ ....<*>'",
      "p ort",
      "s oft",
      "soft header",
      "e out",
      "t ail",
      "t im",
      "Ġde tail",
      "ĠP roblem",
      "Ġget ting",
      "Ġh w",
      "tim eout",
      "Ġdetail ed",
      "ĠProblem s",
      "m aster",
      "in it",
      "Ġbgl master",
      "fig file",
      "con figfile",
      "console ip",
      "console port",
      "z er",
      "zer o",
      "d da",
      "Ġc ould",
      "=<*>) '",
      "................ .....<*>'",
      "f ea",
      "23 4",
      "19 9",
      "fe aa",
      "n v",
      "9 83",
      "5 53",
      "C ore",
      "ĠC on",
      "63 199",
      "406 63199",
      "ĠCon figuration",
      "ĠC heck",
      "ĠStat e",
      ") ...<*>'",
      "1 29",
      "3 82",
      "9 72",
      "9 234",
      "F loating",
      "a N",
      "b j",
      "d iv",
      "e ct",
      "i de",
      "i et",
      "l ed",
      "m s",
      "o int",
      "o ver",
      "s cr",
      "x act",
      "Ġ es",
      "Ġ<*> ]",
      "Ġc cr",
      "Ġc nv",
      "er flow",
      "Ġo bj",
      "Ġd bs",
      "ĠC ontrol",
      "ab a",
      "ab led",
      "an M",
      "Ġv ers",
      "ĠP oint",
      "ĠN aN",
      "ĠF anM",
      "66 7",
      "88 04",
      "22 129",
      "erv ed",
      "ine xact",
      "en abled",
      "qu iet",
      "90 618",
      "................ ......<*>'",
      "................ .......<*>'",
      "................ .................<*>'",
      "68 54",
      "db cr",
      "........................ ........<*>'",
      "und erflow",
      "res erved",
      "Ġfp scr",
      "983 8",
      "553 4",
      "972 61",
      "div ide",
      "ms r",
      "over flow",
      "Ġes r",
      "Ġcnv t",
      "Ġobj ect",
      "Ġdbs r",
      "Ġvers ion",
      "8804 14",
      "22129 66",
      "3 9",
      "are st",
      "........................ ....<*>'",
      "Ġne arest",
      "35 382",
      "91 64",
      "a ut",
      "Ġ y",
      "Ġ<*>:<*> ']",
      "ore start",
      "aut orestart",
      "3 6",
      "4 1",
      "Ġs e",
      "2 7",
      "p le",
      "Ġcom ple",
      "Ġcomple te",
      "5 8",
      "Ġra ck",
      "272 9",
      "b ac",
      "f ee",
      "ef b",
      "0 09",
      "b fc",
      "st ate",
      "j or",
      "82 2",
      "Ġma jor",
      "53 6",
      "ss ible",
      "Ġpo ssible",
      "<*>:<*> '",
      "u ff",
      "uff er",
      "2 536",
      "F ound",
      "3 69",
      "f ac",
      "Ġ \"",
      "3 935",
      "5 57",
      "c lo",
      "c hes",
      "f res",
      "o on",
      "t ur",
      "w rite",
      "Ġs oon",
      "de n",
      "Ġp ages",
      "65 3",
      "45 1",
      "st and",
      "id den",
      "et ches",
      "Ġb uffer",
      "Ġre fres",
      "dc f",
      "Ġ<*>:<*> ..................<*>'",
      "Ġpref etches",
      "Ġw rite",
      "bb d",
      "44 2",
      "30 442",
      "Ġout stand",
      "59 3",
      "Ġh idden",
      "Ġcomm it",
      "3935 2",
      "clo se",
      "tur n",
      "Ġrefres hes",
      "Ġoutstand ing",
      "4 47",
      "' s",
      "5 43",
      "8 56",
      "9 70",
      "c an",
      "c omm",
      "g ct",
      "g ing",
      "l ag",
      "m ask",
      "m is",
      "q w",
      "s ym",
      "re gct",
      "Ġs can",
      "Ġf lag",
      "ra pp",
      "Ġt rapp",
      "te n",
      ".<*> \"",
      "Ġb us",
      "ch ip",
      "un correctable",
      "83 7",
      "Ġv alid",
      "Ġinter fa",
      "Ġw rit",
      "ĠU E",
      "02 56",
      "........ .<*>'",
      "52 822",
      "................ ....................<*>'",
      "20 86",
      "99 451",
      "29 3",
      "ĠEDRAM s",
      "com pare",
      "Ġse lect",
      "009 80",
      "bfc dc",
      "369 21",
      "543 57",
      "comm and",
      "mis compare",
      "sym bol",
      "regct l",
      "Ġscan com",
      "Ġflag ging",
      "Ġtrapp ed",
      "Ġinterfa ce",
      "Ġwrit ten",
      "2 99",
      "Ġst ore",
      "us ed",
      "51 46",
      "Ġca used",
      "98 5146",
      "985146 7",
      "ĠFanM odule",
      "ac a",
      "47 44",
      "04 4744",
      "pro file",
      "h is",
      "t his",
      "90 86",
      "9086 7",
      ":<*> '",
      "7 66",
      "9 50",
      "766 8",
      "950 7",
      "6 00",
      "Ġex it",
      "V AL",
      "b ca",
      "........ .....<*>'",
      "Ġs et",
      "Ġf an",
      "Ġspe ed",
      "Ġset ting",
      "2 71",
      "fe ea",
      "m ap",
      "t xt",
      "Ġm y",
      "ĠF ail",
      "ĠIn fo",
      "D O",
      "c ce",
      "c onne",
      "e ff",
      "Ġd is",
      "nd Train",
      "22 08",
      "se ndTrain",
      "conne cted",
      "Ġdis connected",
      "2208 5",
      "B AL",
      "E S",
      "E RR",
      "E CK",
      "I TI",
      "O BAL",
      "P T",
      "T ERR",
      "U ES",
      "U PT",
      "m al",
      "n or",
      "y nd",
      "CH ECK",
      "IN ITI",
      "IN TERR",
      "rom e",
      "GL OBAL",
      "Ġexit ed",
      "VAL UES",
      "mal ly",
      "nor mally",
      "ynd rome",
      "INITI AL",
      "INTERR UPT",
      "db e",
      "abc f",
      "37 16",
      "Ġ<*>) ']",
      "dd de",
      "0 80",
      "Ġfail ure",
      "98 49",
      "Ġs yndrome",
      "080 81",
      "c ab",
      "1 53",
      "94 37",
      "Ġs oft",
      "iv e",
      "cess ive",
      "Ġex cessive",
      "Ġfailure s",
      "6 07",
      "Node Card",
      "Ġc ur",
      "re nt",
      "ĠI Do",
      "Ġcur rent",
      "Ġcurrent ly",
      "4 82",
      "57 9",
      "Ġa b",
      "Ġ'<*>:<*> :",
      "9 80",
      "fe fff",
      "Ġd ue",
      "fc a",
      "ort ed",
      "Ġab normally",
      "+ '",
      ":<*> :",
      "2 903",
      "ab ff",
      "cd b",
      "b orted",
      "23 912",
      "ĠA borted",
      "Ġb f",
      "14 6",
      "23912 4",
      "ffff ff",
      "5 64",
      "<*> :",
      "8 54",
      "b g",
      "c li",
      "l li",
      "q lli",
      "s qlli",
      "89 854",
      "bg db",
      "sqlli b",
      "d ate",
      "71 04",
      "04 2",
      "87 7104",
      "Ġup date",
      "877104 83",
      "a fc",
      "52 8",
      "........................ .....<*>'",
      "e ac",
      "ffffff e",
      "8 10",
      "d er",
      "Ġor der",
      "Ġb ut",
      "by te",
      "Ġorder ing",
      "E xpected",
      "l es",
      "Ġ )",
      "ĠF ound",
      "51 49",
      "odu les",
      "ĠFanM odules",
      "afc f",
      "1 2",
      "Ġ .............<*>'",
      "49 65",
      "1 26",
      "1 76",
      "C h",
      "Ġcor rupt",
      "fff fc",
      "06 7",
      "Ġexceed s",
      "9 16",
      "B gl",
      "E O",
      "Ġt able",
      "ĠI DO",
      "Ido Ch",
      "Ġpacket s",
      "Ġman y",
      "ef dd",
      "Ġ-<*>) ']",
      "482 916",
      "Ġ) .'",
      "Bgl IdoCh",
      "ĠIDO s",
      "BglIdoCh ip",
      "ed b",
      "33 1",
      "2 82",
      "3 73",
      "s ervice",
      "fd b",
      "810 09",
      "I DO",
      "K T",
      "M EO",
      "P KT",
      "l ink",
      "Ġc onnection",
      "LE RR",
      "Ġlo st",
      "TI MEO",
      "Ġ'<*>:<*> :<*>'",
      "582 7",
      "ĠBG LERR",
      "TIMEO UT",
      "2 73",
      "9 7",
      "64 273",
      "eb ab",
      "cc b",
      "299 3",
      "ab e",
      "20 1",
      "B ul",
      "M odule",
      "e nd",
      "k Power",
      "v ice",
      "de vice",
      "ar get",
      "ĠV end",
      "bgl device",
      "Bul kPower",
      "ĠVend or",
      "bgldevice s",
      "BulkPower Module",
      "1 52",
      "09 4",
      "35 201",
      "<*>:<*> :<*>",
      "Ġ'<*>:<*> :<*>",
      "/ /",
      "1 63",
      "6 130",
      ": //",
      "A l",
      "F F",
      "J TAG",
      "T arget",
      "e ad",
      "l l",
      "Ġpa p",
      "parity Al",
      "6130 094",
      "parityAl ignment",
      "7 4",
      "f fc",
      "Ġb fd",
      "fc ce",
      "59 0",
      "24 1",
      "93 92",
      "282 241",
      "152 15",
      "0 23",
      "aa b",
      "Ġ(<*>) ']",
      "84 11",
      "237 8411",
      "Ġse nd",
      "Ġ et",
      "Ġet hernet",
      "2 59",
      "2 067",
      "7 13",
      "7 94",
      "R s",
      "T orus",
      "ct ing",
      "Ġf ol",
      "Ġno n",
      "pe cting",
      "ver able",
      "Ġex pecting",
      "44 8",
      "59 65",
      "Ġinst ead",
      "ĠDC Rs",
      "Ġun correctable",
      "reco verable",
      "034 40",
      "39 448",
      "482 0",
      "Ġfol low",
      "2 91",
      "N o",
      "f da",
      "Ġb ff",
      "fc fb",
      "85 8",
      "ae aca",
      "61 5",
      "28 6",
      "6 7",
      "M s",
      "c df",
      "63 7",
      "87 45",
      "01 286",
      "97 8745",
      "Ms g",
      "1 13",
      "7 8",
      "d abe",
      "s or",
      "Ġs en",
      "Ġb fc",
      "Ġb fe",
      "69 2",
      "......<*>' ]",
      "dabe bf",
      "Ġsen sor",
      "1 94",
      "2 84",
      "<*>:<*> :",
      "Ġsend ing",
      "6 11",
      "6 76",
      "9 69",
      "e fc",
      "Ġ normally",
      "Ġ'<*> ']",
      "AG E",
      "88 6",
      "91 7",
      "19 8",
      "fff fca",
      "194 19",
      "969 4",
      "4 2",
      "5 94",
      "9 731",
      "A D",
      "D AT",
      "I M",
      "I DAT",
      "L O",
      "f de",
      ".... .<*>']",
      "79 8",
      "CR C",
      "VAL IDAT",
      "594 8",
      "IM AGE",
      "LO AD",
      "VALIDAT E",
      "7 46",
      "9 00",
      "B M",
      "R e",
      "V p",
      "c ca",
      "d Re",
      "k ee",
      "n ation",
      "o kee",
      "v is",
      "er ial",
      "Ġf a",
      "ĠC her",
      "ter nation",
      "ĠP art",
      "ĠRe vis",
      "ĠS erial",
      "ĠI BM",
      "fa f",
      "87 699",
      "ĠAss embly",
      "ĠIn ternation",
      "Vp dRe",
      "ĠCher okee",
      "ĠRevis ion",
      "ĠInternation al",
      "VpdRe ply",
      "3 62",
      "8 70",
      "ec f",
      "62 90",
      "07 6",
      "41 917",
      "282 1",
      "ffc d",
      "6 83",
      "7 99",
      "a fa",
      "d ba",
      "ign ed",
      "66 71",
      "ea ef",
      "79 076",
      "Ġfa ult",
      "0 50",
      "9 92",
      "d ff",
      "e fe",
      "Ġb fb",
      "30 362",
      "0 51",
      "3 93",
      "4 88",
      "4 15",
      "5 23",
      "7 86",
      "P ll",
      "c lear",
      "Ġ lock",
      "ar sh",
      "al er",
      "dd d",
      "82 5",
      "Ġal igned",
      "99 3",
      "af b",
      "34 6",
      "98 63",
      "579 73",
      "<*>:<*>:<*> /",
      "efc cd",
      "415 57973",
      "arsh aler",
      "3 25",
      "9 22",
      "I T",
      "S com",
      "c aa",
      "d fc",
      "p ower",
      "40 7",
      "40 30",
      "ff b",
      "75 25",
      "96 8",
      "fdc df",
      "...<*>' ]",
      "33 9",
      "284 825",
      "Scom Error",
      "7525 1",
      "2 05",
      "8 71",
      "F B",
      "J tag",
      "d aa",
      "f bd",
      "Ġ `",
      "Ġ zero",
      "45 31",
      "40 393",
      "ĠA ll",
      "Ġb d",
      "Ġb ed",
      "ab d",
      "Ġlo w",
      "92 1",
      "eb e",
      "03 3",
      "........................ .<*>']",
      "Ġgo od",
      "........<*>' ]",
      "<*>:<*> :<*>'",
      "67 96",
      "Jtag Id",
      "Ġzero s",
      "9 87",
      "a ed",
      "c bd",
      "c fe",
      "d ed",
      "d bb",
      "f df",
      "Ġf ffff",
      "13 02",
      "ec b",
      "69 89",
      "Ġ= =",
      "ee f",
      "75 5",
      "df b",
      "70 07",
      "70 418",
      "228 1",
      "fdc b",
      "........................ .....<*>']",
      "407 45",
      "987 40745",
      "6989 496",
      "1 62",
      "2 04",
      "4 84",
      "8 234",
      "E R",
      "P ER",
      "R ec",
      "a ad",
      "de a",
      "75 32",
      "Ido Msg",
      "ffff f",
      "51 284",
      "99 339",
      "36 7",
      "bac a",
      "968 51284",
      "162 8234",
      "Rec v",
      "99339 798",
      "1628234 1",
      "3 50",
      "5 16",
      "8 66",
      "D e",
      "E X",
      "N ul",
      "P o",
      "S er",
      "T o",
      "b cc",
      "l Po",
      "n um",
      "o t",
      "Ġ' ]",
      "ed a",
      "Ġm Card",
      "63 3",
      "69 8",
      "ĠS yndrome",
      "35 8",
      "OG RAM",
      "32 02",
      "60 325",
      "db c",
      "db eef",
      "ĠPR OGRAM",
      "...........<*>' ]",
      "...........................<*>' ]",
      "inter Exception",
      "Ġro ot",
      "81 51",
      "bfc a",
      "cce cb",
      "579 18",
      "Ġbf fc",
      "Ġsend Msg",
      "050 9",
      "IT ED",
      "daa f",
      "De bugger",
      "EX ITED",
      "Nul lPo",
      "Ser num",
      "To Debugger",
      "ĠmCard Sernum",
      "ĠsendMsg ToDebugger",
      "NullPo interException",
      "! (",
      ") ']",
      "1 27",
      "2 80",
      "3 71",
      "3 70",
      "5 83",
      "7 63",
      "8 59",
      "= !(",
      "F E",
      "H dr",
      "L en",
      "M arshaler",
      "P ort",
      "b cb",
      "c dc",
      "c pp",
      "c dad",
      "i ro",
      "i ag",
      "m arshaler",
      "n ment",
      "p ress",
      "no se",
      "Ġd iag",
      "65 0",
      "ĠR un",
      "Ġb ll",
      "83 1",
      "83 121",
      "dd ab",
      "11 5",
      "Ġe nv",
      "ĠI do",
      "Ġex press",
      "47 583",
      "ĠD B",
      "Ġh ardware",
      "43 9",
      "ffff ffc",
      "87 4",
      "bd bb",
      "ido marshaler",
      "79 25",
      "79 81",
      "93 91",
      "clear Port",
      "Ġfffff e",
      "7532 9391",
      "859 7981",
      "cdad c",
      "iro nment",
      "Ġdiag nose",
      "Ġenv ironment",
      "ĠIdo Marshaler",
      "Ġexpress ion",
      "idomarshaler io",
      "Ġenvironment al",
      "0 45",
      "0 55",
      "1 69",
      "1 73",
      "1 51",
      "1 28",
      "2 63",
      "2 963",
      "3 19",
      "4 25",
      "5 11",
      "6 70",
      "7 18",
      "7 82",
      "8 47",
      "9 54",
      "S I",
      "b de",
      "b cf",
      "b eda",
      "d de",
      "f bb",
      "f bc",
      "s et",
      "de cd",
      "Ġf ea",
      "23 28",
      "Ġd f",
      "45 2",
      "ce b",
      "ad f",
      "40 9",
      "aa a",
      "aa e",
      "Ġb c",
      "Ġb dd",
      "Ġb df",
      "Ġre set",
      "ff d",
      "Ġass ertion",
      "dc c",
      "57 76",
      "64 7",
      ":<*> \"",
      "62 68",
      "82 93",
      "49 91",
      "bf aa",
      "=<*>) ']",
      "ea ad",
      "59 647",
      "61 74",
      "25 358",
      "84 633",
      "72 1",
      "fd ab",
      "77 8",
      "92 778",
      "19 55",
      "06 450",
      "03 6",
      "03 436",
      "Ġbe f",
      "314 1",
      "bc ed",
      "fb dfb",
      "39 30",
      "009 09",
      "cab d",
      "Ġbf eb",
      "810 61",
      "Ġ) .']",
      "922 2328",
      "aad cd",
      "866 0",
      "055 88",
      "169 036",
      "128 557",
      "2963 18",
      "425 59647",
      "Ġreset s",
      "& )']",
      "* &)']",
      "- >",
      "0 22",
      "1 09",
      "1 20",
      "2 00",
      "2 19",
      "2 48",
      "4 66",
      "4 271",
      "5 50",
      "5 436",
      "6 64",
      "7 49",
      "9 536",
      ": ']",
      "A S",
      "B lock",
      "B uffer",
      "E M",
      "R E",
      "R ead",
      "R SI",
      "S ON",
      "S ize",
      "U RE",
      "a it",
      "b cd",
      "b db",
      "b ebe",
      "d bbe",
      "f fca",
      "n Msg",
      "o id",
      "p ers",
      "s ion",
      "v oid",
      "Ġc b",
      "ed cd",
      "Ġs erver",
      "de c",
      "de bd",
      "Ġin t",
      "al ity",
      "il l",
      "Ġt arget",
      "50 34",
      "Ġb fdc",
      "ĠM AS",
      "ab dd",
      "83 02",
      "ĠT EM",
      "Ġst ill",
      "64 8",
      "64 62",
      "62 9",
      "18 1",
      "18 2",
      "18 29",
      "Ġw ait",
      "49 00",
      "49 120",
      "ĠF F",
      "ver sion",
      "AT URE",
      "VE RSI",
      "fab d",
      "fab da",
      "fab dd",
      "88 1",
      "88 755",
      "16 1",
      "fa ec",
      "on ality",
      "ea e",
      "ae f",
      "96 7",
      "........ .....<*>']",
      "53 2",
      "53 3",
      "53 9",
      "52 83",
      "90 4",
      "Ġread y",
      "72 15",
      "................ .....<*>']",
      "92 893",
      "92 922",
      "92 749",
      "cd edcd",
      "665 61",
      "db d",
      "48 92893",
      "949 115",
      "fe f",
      "fe ffff",
      "() '",
      "34 64",
      "86 88755",
      "AL IT",
      "ĠBGL PER",
      "....................<*>' ]",
      "607 3",
      "113 23",
      "488 0",
      "PER ATURE",
      "IdoMsg Hdr",
      "Recv Buffer",
      "763 65",
      "ĠIdoMarshaler RecvBuffer",
      "8293 44",
      "248 66",
      "664 1",
      "Read Block",
      "SON ALIT",
      "nMsg Len",
      "pers onality",
      "Ġserver db",
      "ĠMAS K",
      "ĠTEM PERATURE",
      "Ġwait ing",
      "VERSI ON",
      "92922 45",
      "92749 06",
      "ĠBGLPER SONALIT",
      "ĠBGLPERSONALIT Y",
      "0 16",
      "1 57",
      "1 22",
      "1 72",
      "1 014",
      "1 201",
      "1 033",
      "2 50",
      "2 69",
      "3 02",
      "3 80",
      "3 703",
      "3 968",
      "4 23",
      "4 64",
      "4 24",
      "4 650",
      "5 30",
      "6 73",
      "7 62",
      "7 87",
      "7 893",
      "8 83",
      "8 44",
      "9 73",
      "9 94",
      "9 71",
      "9 941",
      "F Exception",
      "O peration",
      "R OL",
      "T ROL",
      "U n",
      "a de",
      "a ec",
      "a ff",
      "a fd",
      "a eee",
      "a fdb",
      "b ce",
      "b ffff",
      "b aae",
      "c ba",
      "c bfb",
      "d ce",
      "d edf",
      "d fa",
      "e bf",
      "e fff",
      "g ment",
      "s u",
      "ed df",
      "Ġa e",
      "de fe",
      "Ġf ffffffe",
      "Ġd fa",
      "ce e",
      "ad a",
      "ac d",
      "ĠC ON",
      "40 1",
      "40 161",
      "50 673",
      "Ġb fa",
      "Ġb fba",
      "Ġb faf",
      "fc ab",
      "83 63",
      "ff fc",
      "ff ae",
      "63 1",
      "09 56",
      "dc b",
      "dc d",
      "57 68",
      "64 78",
      "Ġ<*>:<*> :<*>",
      "62 24",
      "da cee",
      "11 96",
      "ert ing",
      "Ġe a",
      "Ġe e",
      "82 9",
      "82 73",
      "ĠSe gment",
      "bf a",
      "07 157",
      "623 5",
      "bfe e",
      "66 6",
      "66 1033",
      "47 54",
      "88 8",
      "00 4",
      "00 25",
      "138 51",
      "pp orted",
      "fa de",
      "44 6",
      "75 24",
      "02 8",
      "df e",
      "96 151",
      "59 7",
      "59 55",
      "55 1",
      "Ġins erting",
      "90 1014",
      "90 5768",
      "43 17",
      "fd ed",
      "fd fffff",
      "77 401",
      "92 0",
      "92 484",
      "92 551",
      "fdc c",
      "fdc ff",
      "Ġca eeb",
      "03 7",
      "20 55",
      "80 8",
      "935 40",
      "31 272",
      "08 00",
      "af e",
      "fe fab",
      "ef ac",
      "be ac",
      "fb ab",
      "95 16",
      "98 1",
      "36 067",
      "Ġbf ec",
      "Ġbf bb",
      "Ġbf dea",
      "042 0956",
      "EO FException",
      "97 43",
      "74 6235",
      "Ġbfc b",
      "42 63",
      "050 5",
      "caa a",
      "dfc f",
      "339 84",
      "Ġfffff ffc",
      "127 028",
      "280 872",
      "371 263",
      "371 92551",
      "370 8",
      "370 424",
      "650 30",
      "670 13",
      "718 50673",
      "847 65030",
      "883 61",
      "Operation Exception",
      "Un su",
      "ade fac",
      "ĠCON TROL",
      "Ġbfba f",
      "8363 80",
      "6478 99",
      "ĠSegment ation",
      "4754 2",
      "13851 01",
      "pported OperationException",
      "Unsu pportedOperationException",
      "0 65",
      "0 69",
      "0 35",
      "0 44",
      "0 87",
      "0 17",
      "0 451",
      "1 18",
      "1 66",
      "1 44",
      "1 77",
      "2 83",
      "2 57",
      "2 62",
      "2 18",
      "2 11",
      "2 07",
      "2 147",
      "2 94",
      "3 49",
      "3 95",
      "4 83",
      "4 16",
      "4 87",
      "4 358",
      "5 13",
      "5 69",
      "5 47",
      "5 22",
      "5 52",
      "5 444",
      "5 84",
      "6 82",
      "6 02",
      "7 88",
      "7 73",
      "7 90",
      "7 43",
      "7 60",
      "7 094",
      "8 23",
      "8 40",
      "8 50",
      "8 16",
      "8 00",
      "8 53",
      "8 111",
      "8 648",
      "9 47",
      "9 627",
      "9 91",
      "9 30",
      "9 891",
      "9 791",
      "D ec",
      "I o",
      "M ail",
      "N et",
      "[ \"",
      "a ac",
      "a acc",
      "a eaad",
      "b o",
      "b ad",
      "b ec",
      "b dd",
      "b ee",
      "b df",
      "b ef",
      "c bf",
      "c fa",
      "d acd",
      "e aa",
      "e ede",
      "f aa",
      "f ec",
      "f eeb",
      "l are",
      "s igned",
      "v irt",
      "| |",
      "Ġ ru",
      "Ġ .............<*>']",
      "Ġ ||",
      "<*> =<*>']",
      "Ġc f",
      "er ist",
      "ed dd",
      "de b",
      "de e",
      "de ed",
      "Ġf e",
      "ar act",
      "65 7",
      "65 8",
      "65 88",
      "45 6462",
      "ad cfc",
      "ac df",
      "40 15",
      "40 017",
      "Ġb cd",
      "Ġb fea",
      "fc b",
      "fc d",
      "ab db",
      "ab ef",
      "ab fcd",
      "13 82",
      "83 21",
      "Ġddr Size",
      "ff aa",
      "63 4",
      "63 8",
      "63 25",
      "63 569",
      "09 2",
      "57 700",
      "57 99",
      "57 37",
      "Ġ<*>:<*> :<*>'",
      "62 1",
      "dd f",
      "69 58",
      "18 4",
      "18 6",
      "ic s",
      "Ġe f",
      "Ġe mpt",
      "82 28",
      "82 46",
      "35 1",
      "35 6958",
      "49 325",
      "49 5444",
      "bf dea",
      "07 0",
      "07 9",
      "07 43",
      "07 68",
      "bfe a",
      "47 7",
      "47 356958",
      "88 73",
      "16 8",
      "91 9",
      "363 788",
      "ea f",
      "bb b",
      "bb c",
      "75 1",
      "75 4",
      "75 82",
      "75 29",
      "75 15",
      "ca f",
      "ca fc",
      "02 1",
      "02 992",
      "02 079",
      "df bb",
      "71 07",
      "71 77",
      "71 48",
      "59 8",
      "59 04",
      "59 847",
      "61 0",
      "52 6588",
      "90 5",
      "90 48",
      "43 80",
      "72 47",
      "fd ff",
      "fd fa",
      "05 4",
      "77 48",
      "ddr Size",
      "Ġun signed",
      "14 81",
      "14 12",
      "04 8",
      "eb d",
      "cd ce",
      "cd fff",
      "fff bcc",
      "87 91",
      "60 1",
      "03 1",
      "03 8",
      "Service Net",
      "48 47",
      "48 61",
      "99 58",
      "99 78",
      "33 439",
      "33 648",
      "33 092",
      "29 5",
      "80 121",
      "80 168",
      "cb ad",
      "eca f",
      "08 68",
      "08 15",
      "08 12",
      "28 70",
      "28 822",
      "cdd bf",
      "af be",
      "76 7",
      "acc fbc",
      "work Ch",
      "ef ed",
      "() ']",
      "cf adcfc",
      "730 11",
      "275 6",
      "275 37",
      "ul Len",
      "544 6",
      "6200 8",
      "fb ee",
      "86 83",
      "330 33",
      "93 181",
      "ace aa",
      "Run Recv",
      "518 6",
      "81 2",
      "983 13",
      "553 8",
      "553 9",
      ")...<*>' ]",
      "382 9978",
      "39 55",
      "41 633",
      "27 455",
      "27 60",
      "593 95",
      "600 57700",
      "9437 8",
      "607 181",
      "Ġab db",
      "Ġbf ed",
      "fdb bf",
      "Ġ'<*>:<*>:<*> :<*>",
      "74 27537",
      "Ġbfd ab",
      "Ġbff e",
      "Ġbff ee",
      "Msg Hdr",
      "efc d",
      "42 79",
      "fde f",
      "fde ad",
      "993 130",
      "325 8",
      "407 070",
      "Recv MsgHdr",
      "866 60",
      "Ġbffc f",
      "Ġbffc bf",
      "ĠIdoMarshaler Io",
      "263 584",
      "dde f",
      "022 4",
      "200 1",
      "200 80",
      "6462 4",
      "faec d",
      "172 9791",
      "250 82",
      "bffff a",
      "069 658",
      "087 02992",
      "166 14",
      "177 9",
      "257 67",
      "218 70",
      "2147 4",
      "349 84",
      "483 9",
      "416 70",
      "487 35878",
      "547 3",
      "552 0",
      "682 1",
      "602 080",
      "850 49",
      "800 1382",
      "853 295",
      "9627 14",
      "991 035",
      "9891 0868",
      "Dec lare",
      "Mail bo",
      "faa f",
      "fec fc",
      "virt ual",
      "Ġru n",
      "erist ics",
      "aract eristics",
      "456462 44",
      "8321 18",
      "Ġempt y",
      "49325 4",
      "0768 9958",
      "8873 3",
      "7529 621",
      "4380 82",
      "cdfff e",
      "fffbcc f",
      "ServiceNet workCh",
      "cfadcfc c",
      "263584 2",
      "Declare ServiceNetworkCh",
      "Mailbo x",
      "DeclareServiceNetworkCh aracteristics",
      "& ,",
      "0 13",
      "0 18",
      "0 53",
      "0 19",
      "1 138",
      "1 59",
      "1 05",
      "1 599",
      "2 52",
      "3 09",
      "4 65",
      "4 45",
      "4 63",
      "4 69",
      "4 49",
      "5 40",
      "6 16",
      "6 161",
      "7 65",
      "7 50",
      "7 72",
      "8 11",
      "8 90",
      "8 15",
      "9 64",
      "9 88",
      "9 928",
      "A dd",
      "A pp",
      "E nt",
      "M emory",
      "M onitor",
      "Z E",
      "_ <*>",
      "a ede",
      "b ed",
      "b net",
      "c er",
      "c acc",
      "e bda",
      "e xpected",
      "e App",
      "m u",
      "v addr",
      "Ġ %",
      "er ror",
      "ed efb",
      "Ġa aec",
      "Ġm mu",
      "Ġo ption",
      "Ġfor ce",
      "83 55",
      "83 447",
      "ec bd",
      "ff fa",
      "Ġsu bnet",
      "ĠP AGE",
      "69 72",
      "18 0",
      "Ġaddress es",
      "11 0",
      "11 68",
      "11 14",
      "82 018",
      "49 56",
      "07 7",
      "[' <*>'",
      "88 56",
      "16 409",
      "16 772",
      "fa fe",
      "22 7",
      "75 94",
      "ca fde",
      "ae bed",
      "30 6161",
      "Ġl ib",
      "61 286",
      "53 32",
      "53 48",
      "Ġ- <*>",
      "25 439",
      "['<*> :",
      "['<*> :<*>",
      "quen cer",
      "32 73",
      "72 6",
      "................ .<*>']",
      "Ġun expected",
      "92 4",
      "ĠTLB Ent",
      "eb c",
      "cc f",
      "cc bc",
      "60 47",
      "..<*>' ]",
      "....<*>' ]",
      "cb c",
      "6018 5",
      "17 811",
      "Ġinitializ eApp",
      "...............<*>' ]",
      "be ad",
      "<*>:<*> ']",
      "93 721",
      "................<*>' ]",
      "582 019",
      "066 194",
      "fea f",
      "............................<*>' ]",
      "Ġse quencer",
      "27 8",
      "fee aa",
      "176 1114",
      "service Mailbox",
      "825 16772",
      "daa be",
      "033 91",
      "319 70",
      "SI ZE",
      "172 0",
      "250 463",
      "380 8293",
      "bffff d",
      "037 83",
      "Mailbox Monitor",
      "013 3",
      "105 16409",
      "252 55",
      "465 60",
      "616 0",
      "750 3",
      "815 445",
      "988 5348",
      "Add ed",
      "Ġaaec ab",
      "Ġsubnet s",
      "6972 9",
      "cafde c",
      "5332 1720",
      "ĠTLBEnt ry",
      "ĠinitializeApp Memory",
      "serviceMailbox es"
    ]
  }
}