{
  "version": "1.0",
  "truncation": null,
  "padding": null,
  "added_tokens": [
    {
      "id": 0,
      "content": "<s>",
      "single_word": false,
      "lstrip": false,
      "rstrip": false,
      "normalized": true,
      "special": true
    },
    {
      "id": 1,
      "content": "<pad>",
      "single_word": false,
      "lstrip": false,
      "rstrip": false,
      "normalized": true,
      "special": true
    },
    {
      "id": 2,
      "content": "</s>",
      "single_word": false,
      "lstrip": false,
      "rstrip": false,
      "normalized": true,
      "special": true
    },
    {
      "id": 3,
      "content": "<unk>",
      "single_word": false,
      "lstrip": false,
      "rstrip": false,
      "normalized": true,
      "special": true
    },
    {
      "id": 4,
      "content": "<mask>",
      "single_word": false,
      "lstrip": true,
      "rstrip": false,
      "normalized": true,
      "special": true
    }
  ],
  "normalizer": null,
  "pre_tokenizer": {
    "type": "ByteLevel",
    "add_prefix_space": false,
    "trim_offsets": true,
    "use_regex": true
  },
  "post_processor": {
    "type": "RobertaProcessing",
    "sep": [
      "</s>",
      2
    ],
    "cls": [
      "<s>",
      0
    ],
    "trim_offsets": true,
    "add_prefix_space": false
  },
  "decoder": {
    "type": "ByteLevel",
    "add_prefix_space": true,
    "trim_offsets": true,
    "use_regex": true
  },
  "model": {
    "type": "BPE",
    "dropout": null,
    "unk_token": null,
    "continuing_subword_prefix": "",
    "end_of_word_suffix": "",
    "fuse_unk": false,
    "byte_fallback": false,
    "vocab": {
      "<s>": 0,
      "<pad>": 1,
      "</s>": 2,
      "<unk>": 3,
      "<mask>": 4,
      "!": 5,
      "\"": 6,
      "#": 7,
      "$": 8,
      "%": 9,
      "&": 10,
      "'": 11,
      "(": 12,
      ")": 13,
      "*": 14,
      "+": 15,
      ",": 16,
      "-": 17,
      ".": 18,
      "/": 19,
      "0": 20,
      "1": 21,
      "2": 22,
      "3": 23,
      "4": 24,
      "5": 25,
      "6": 26,
      "7": 27,
      "8": 28,
      "9": 29,
      ":": 30,
      ";": 31,
      "<": 32,
      "=": 33,
      ">": 34,
      "?": 35,
      "@": 36,
      "A": 37,
      "B": 38,
      "C": 39,
      "D": 40,
      "E": 41,
      "F": 42,
      "G": 43,
      "H": 44,
      "I": 45,
      "J": 46,
      "K": 47,
      "L": 48,
      "M": 49,
      "N": 50,
      "O": 51,
      "P": 52,
      "Q": 53,
      "R": 54,
      "S": 55,
      "T": 56,
      "U": 57,
      "V": 58,
      "W": 59,
      "X": 60,
      "Y": 61,
      "Z": 62,
      "[": 63,
      "\\": 64,
      "]": 65,
      "^": 66,
      "_": 67,
      "`": 68,
      "a": 69,
      "b": 70,
      "c": 71,
      "d": 72,
      "e": 73,
      "f": 74,
      "g": 75,
      "h": 76,
      "i": 77,
      "j": 78,
      "k": 79,
      "l": 80,
      "m": 81,
      "n": 82,
      "o": 83,
      "p": 84,
      "q": 85,
      "r": 86,
      "s": 87,
      "t": 88,
      "u": 89,
      "v": 90,
      "w": 91,
      "x": 92,
      "y": 93,
      "z": 94,
      "{": 95,
      "|": 96,
      "}": 97,
      "~": 98,
      "¡": 99,
      "¢": 100,
      "£": 101,
      "¤": 102,
      "¥": 103,
      "¦": 104,
      "§": 105,
      "¨": 106,
      "©": 107,
      "ª": 108,
      "«": 109,
      "¬": 110,
      "®": 111,
      "¯": 112,
      "°": 113,
      "±": 114,
      "²": 115,
      "³": 116,
      "´": 117,
      "µ": 118,
      "¶": 119,
      "·": 120,
      "¸": 121,
      "¹": 122,
      "º": 123,
      "»": 124,
      "¼": 125,
      "½": 126,
      "¾": 127,
      "¿": 128,
      "À": 129,
      "Á": 130,
      "Â": 131,
      "Ã": 132,
      "Ä": 133,
      "Å": 134,
      "Æ": 135,
      "Ç": 136,
      "È": 137,
      "É": 138,
      "Ê": 139,
      "Ë": 140,
      "Ì": 141,
      "Í": 142,
      "Î": 143,
      "Ï": 144,
      "Ð": 145,
      "Ñ": 146,
      "Ò": 147,
      "Ó": 148,
      "Ô": 149,
      "Õ": 150,
      "Ö": 151,
      "×": 152,
      "Ø": 153,
      "Ù": 154,
      "Ú": 155,
      "Û": 156,
      "Ü": 157,
      "Ý": 158,
      "Þ": 159,
      "ß": 160,
      "à": 161,
      "á": 162,
      "â": 163,
      "ã": 164,
      "ä": 165,
      "å": 166,
      "æ": 167,
      "ç": 168,
      "è": 169,
      "é": 170,
      "ê": 171,
      "ë": 172,
      "ì": 173,
      "í": 174,
      "î": 175,
      "ï": 176,
      "ð": 177,
      "ñ": 178,
      "ò": 179,
      "ó": 180,
      "ô": 181,
      "õ": 182,
      "ö": 183,
      "÷": 184,
      "ø": 185,
      "ù": 186,
      "ú": 187,
      "û": 188,
      "ü": 189,
      "ý": 190,
      "þ": 191,
      "ÿ": 192,
      "Ā": 193,
      "ā": 194,
      "Ă": 195,
      "ă": 196,
      "Ą": 197,
      "ą": 198,
      "Ć": 199,
      "ć": 200,
      "Ĉ": 201,
      "ĉ": 202,
      "Ċ": 203,
      "ċ": 204,
      "Č": 205,
      "č": 206,
      "Ď": 207,
      "ď": 208,
      "Đ": 209,
      "đ": 210,
      "Ē": 211,
      "ē": 212,
      "Ĕ": 213,
      "ĕ": 214,
      "Ė": 215,
      "ė": 216,
      "Ę": 217,
      "ę": 218,
      "Ě": 219,
      "ě": 220,
      "Ĝ": 221,
      "ĝ": 222,
      "Ğ": 223,
      "ğ": 224,
      "Ġ": 225,
      "ġ": 226,
      "Ģ": 227,
      "ģ": 228,
      "Ĥ": 229,
      "ĥ": 230,
      "Ħ": 231,
      "ħ": 232,
      "Ĩ": 233,
      "ĩ": 234,
      "Ī": 235,
      "ī": 236,
      "Ĭ": 237,
      "ĭ": 238,
      "Į": 239,
      "į": 240,
      "İ": 241,
      "ı": 242,
      "Ĳ": 243,
      "ĳ": 244,
      "Ĵ": 245,
      "ĵ": 246,
      "Ķ": 247,
      "ķ": 248,
      "ĸ": 249,
      "Ĺ": 250,
      "ĺ": 251,
      "Ļ": 252,
      "ļ": 253,
      "Ľ": 254,
      "ľ": 255,
      "Ŀ": 256,
      "ŀ": 257,
      "Ł": 258,
      "ł": 259,
      "Ń": 260,
      "*>": 261,
      "<*>": 262,
      "Ġ<*>": 263,
      "or": 264,
      "Ġ'": 265,
      "in": 266,
      "Ġc": 267,
      "re": 268,
      "er": 269,
      "ct": 270,
      "io": 271,
      "ed": 272,
      "Ġs": 273,
      "Ġa": 274,
      "Ġ<*>,": 275,
      "de": 276,
      "Ġ<*>'": 277,
      "Ġf": 278,
      "Ġm": 279,
      "ar": 280,
      "Ġp": 281,
      "Ġi": 282,
      "ror": 283,
      "cted": 284,
      "Ġcor": 285,
      "ing": 286,
      "ss": 287,
      "at": 288,
      "Ġer": 289,
      "ge": 290,
      "Ġin": 291,
      "cio": 292,
      "ciod": 293,
      "=<*>": 294,
      "no": 295,
      "ion": 296,
      "he": 297,
      "Ġis": 298,
      "it": 299,
      "al": 300,
      "Ġo": 301,
      "Ġerror": 302,
      "il": 303,
      "ym": 304,
      "Ġsym": 305,
      "Ġcorre": 306,
      "ra": 307,
      "Ġcorrected": 308,
      "Ġno": 309,
      "as": 310,
      "Ġd": 311,
      "Ġt": 312,
      "Ġat": 313,
      "Ġde": 314,
      "ode": 315,
      "nd": 316,
      "lo": 317,
      "ask": 318,
      "CE": 319,
      "Ġmask": 320,
      "ru": 321,
      "ro": 322,
      "ck": 323,
      "ard": 324,
      "Ġcard": 325,
      "ction": 326,
      "st": 327,
      "ĠE": 328,
      "ce": 329,
      "te": 330,
      ".<*>": 331,
      "ĠC": 332,
      "Ġpro": 333,
      "id": 334,
      "Ġpar": 335,
      "et": 336,
      "es": 337,
      "ad": 338,
      "ĠR": 339,
      "tected": 340,
      "ac": 341,
      "age": 342,
      "ache": 343,
      "ity": 344,
      "Ġparity": 345,
      "Ġcache": 346,
      "Ġfor": 347,
      "ol": 348,
      "Ġdetected": 349,
      "Ġfil": 350,
      "rror": 351,
      "erat": 352,
      "ĠError": 353,
      "ruction": 354,
      "struction": 355,
      "instruction": 356,
      "ĠA": 357,
      "Ġ'<*>": 358,
      "Ġor": 359,
      "Ġb": 360,
      "nerat": 361,
      "Ġcore": 362,
      "generat": 363,
      "Ġra": 364,
      "Ġon": 365,
      "Ġre": 366,
      "=<*>,": 367,
      "ading": 368,
      "pt": 369,
      "ĠM": 370,
      "iv": 371,
      "ĠO": 372,
      "gra": 373,
      "gram": 374,
      "Ġprogram": 375,
      "ĠL": 376,
      "Ġnot": 377,
      "ĠOK": 378,
      "ch": 379,
      "Ġand": 380,
      "un": 381,
      "ĠJ": 382,
      "Node": 383,
      "dr": 384,
      "an": 385,
      "Ġ(": 386,
      "Ġddr": 387,
      "am": 388,
      "ter": 389,
      "Ġto": 390,
      "ig": 391,
      "Ġv": 392,
      "ire": 393,
      "Ġof": 394,
      "iss": 395,
      "ign": 396,
      "ec": 397,
      "Ġnode": 398,
      "Ġ:": 399,
      "lock": 400,
      "ly": 401,
      "ress": 402,
      "ĠT": 403,
      ".<*>'": 404,
      "ceiv": 405,
      "Ġfile": 406,
      "Ġsu": 407,
      "LE": 408,
      "Ġass": 409,
      "Ġst": 410,
      "le": 411,
      "AG": 412,
      "TAG": 413,
      "ĠClock": 414,
      "eset": 415,
      "ĠReset": 416,
      "ĠJTAG": 417,
      "Ġ<*>.<*>": 418,
      "olt": 419,
      "Ġrail": 420,
      "Ġvolt": 421,
      "ĠThe": 422,
      "ess": 423,
      "essage": 424,
      "generating": 425,
      "Ġmessage": 426,
      "ĠP": 427,
      "us": 428,
      "=<*>'": 429,
      "ĠN": 430,
      "Ġlo": 431,
      "ĠV": 432,
      "ream": 433,
      "PD": 434,
      "ĠVPD": 435,
      "Ġstat": 436,
      "Ġinter": 437,
      "rupt": 438,
      "Ġinterrupt": 439,
      ":<*>": 440,
      "cket": 441,
      "Ġpre": 442,
      "irect": 443,
      "ory": 444,
      "St": 445,
      "ĠNo": 446,
      "Ġ<*>:<*>": 447,
      "ut": 448,
      "Ġdirect": 449,
      "Ġdirectory": 450,
      "ocket": 451,
      "Ġsuch": 452,
      "Ġpref": 453,
      "Ġbit": 454,
      "Ġsocket": 455,
      "ix": 456,
      "ioSt": 457,
      "Ġprefix": 458,
      "ioStream": 459,
      "..": 460,
      "nt": 461,
      "alid": 462,
      "valid": 463,
      "Ġinvalid": 464,
      "issing": 465,
      "Ġfu": 466,
      "Ġmissing": 467,
      "cr": 468,
      "mage": 469,
      "Ġimage": 470,
      "Ġloading": 471,
      "Ġreading": 472,
      "ĠCioStream": 473,
      "ĠRe": 474,
      "Ġsign": 475,
      "Ġsignal": 476,
      "Ġcode": 477,
      "dress": 478,
      "ddress": 479,
      "Ġaddress": 480,
      "rno": 481,
      "Ġerrno": 482,
      "ceived": 483,
      "ĠReceived": 484,
      "ic": 485,
      "Ġfiles": 486,
      "Ġstatus": 487,
      "rt": 488,
      "Ġgenerat": 489,
      "Ġgenerated": 490,
      ".'": 491,
      "Ġw": 492,
      "tal": 493,
      "pe": 494,
      "ĠS": 495,
      "bol": 496,
      "Ġsymbol": 497,
      "nk": 498,
      "Ġrank": 499,
      "ond": 500,
      "econd": 501,
      "econds": 502,
      "to": 503,
      "put": 504,
      "Ġinput": 505,
      "ert": 506,
      "ou": 507,
      "ation": 508,
      "erted": 509,
      "Ġe": 510,
      "ail": 511,
      "Ġpo": 512,
      "Ġfail": 513,
      "Ġfailed": 514,
      "CH": 515,
      "int": 516,
      "Ġpoint": 517,
      "ent": 518,
      "unt": 519,
      "mb": 520,
      "ount": 521,
      "gl": 522,
      "Ġbgl": 523,
      "Ġbglio": 524,
      "total": 525,
      "erm": 526,
      "ctiv": 527,
      "ĠI": 528,
      "lan": 529,
      "Ġactiv": 530,
      "Ġdear": 531,
      "GO": 532,
      "OD": 533,
      "GOOD": 534,
      "ĠIS": 535,
      "TI": 536,
      "RR": 537,
      "OR": 538,
      "RROR": 539,
      "RT": 540,
      "ĠAS": 541,
      "plan": 542,
      "idplan": 543,
      "idplane": 544,
      "ĠF": 545,
      "IC": 546,
      "Ġmount": 547,
      "ĠSe": 548,
      "for": 549,
      "AI": 550,
      "unction": 551,
      "form": 552,
      "Lu": 553,
      "stre": 554,
      "LED": 555,
      "ĠFAI": 556,
      "Lustre": 557,
      "ĠFAILED": 558,
      "ver": 559,
      "Ġfunction": 560,
      "Ġfunctional": 561,
      "lly": 562,
      "Ġfully": 563,
      "Ġactive": 564,
      "Ġasserted": 565,
      "ow": 566,
      "ĠMidplane": 567,
      "IN": 568,
      "AT": 569,
      "PGOOD": 570,
      "ĠMPGOOD": 571,
      "VE": 572,
      "CTI": 573,
      "ĠACTI": 574,
      "ĠACTIVE": 575,
      "ĠERROR": 576,
      "ĠLAT": 577,
      "ĠLATCH": 578,
      "Ġ<*>:<*>,": 579,
      "lect": 580,
      "ĠALE": 581,
      "ĠALERT": 582,
      "get": 583,
      "Ġare": 584,
      "hy": 585,
      "ĠMode": 586,
      "ĠLow": 587,
      "ĠPhy": 588,
      "ĠASIC": 589,
      "ĠSelect": 590,
      "ĠALERTs": 591,
      "Ġget": 592,
      "emb": 593,
      "embly": 594,
      "Can": 595,
      "Ġinform": 596,
      "Ġassembly": 597,
      "Ġinformation": 598,
      "Ġerrors": 599,
      "<*>)": 600,
      "ĠU": 601,
      "OG": 602,
      "ĠLOG": 603,
      "ĠLOGIN": 604,
      "cess": 605,
      "Ġinterrupts": 606,
      "heck": 607,
      "Ġcheck": 608,
      "itic": 609,
      "itical": 610,
      "Ġseconds": 611,
      "Ġec": 612,
      "Ġprocess": 613,
      "Ġprocessor": 614,
      "Ġecid": 615,
      "Ġslo": 616,
      "Ġslot": 617,
      "<*>'": 618,
      "ied": 619,
      "Ġ<*>)": 620,
      "Ġex": 621,
      "atch": 622,
      "Ġdo": 623,
      "ption": 624,
      "ception": 625,
      "ound": 626,
      "Ġ/": 627,
      "Ġfound": 628,
      "Ġmatch": 629,
      "gb": 630,
      "Ġ(<*>)": 631,
      "Ġover": 632,
      "dcr": 633,
      "Ġiar": 634,
      "Ġal": 635,
      "Ġexception": 636,
      "ment": 637,
      "ignment": 638,
      "Ġalignment": 639,
      "Ġexceptions": 640,
      "pp": 641,
      "ble": 642,
      "ype": 643,
      "Ġtype": 644,
      "....": 645,
      "nied": 646,
      "Ġdenied": 647,
      "ission": 648,
      "ĠPerm": 649,
      "ĠPermission": 650,
      "=<*>)": 651,
      "Ġch": 652,
      "Ġthe": 653,
      "=<*>):": 654,
      "unit": 655,
      "ne": 656,
      "her": 657,
      "ressing": 658,
      "Ġfurt": 659,
      "ppressing": 660,
      "Ġfurther": 661,
      "Ġwire": 662,
      "rts": 663,
      "ame": 664,
      "ning": 665,
      "Ġsame": 666,
      "arning": 667,
      "critical": 668,
      "Ġwarning": 669,
      "fter": 670,
      "Ġafter": 671,
      "Ġ<*>:<*>:": 672,
      "Ġreceiv": 673,
      "mm": 674,
      "im": 675,
      "ating": 676,
      "Ġreceiver": 677,
      "Ġma": 678,
      "on": 679,
      "erne": 680,
      "ernel": 681,
      "ata": 682,
      "['": 683,
      "ip": 684,
      "Ġ=": 685,
      "do": 686,
      "icro": 687,
      "Ġchip": 688,
      "Ġip": 689,
      "uppressing": 690,
      "ated": 691,
      "seconds": 692,
      "Ġmicro": 693,
      "Ġmicroseconds": 694,
      "suppressing": 695,
      "kernel": 696,
      "Ġkernel": 697,
      "inated": 698,
      "ason": 699,
      "Ġterm": 700,
      "Ġreason": 701,
      "Ġterminated": 702,
      "Ġtim": 703,
      "orus": 704,
      "umm": 705,
      "ont": 706,
      "Ġtorus": 707,
      "humm": 708,
      "Ġdou": 709,
      "hummer": 710,
      "Ġdouble": 711,
      "Ġstate": 712,
      "ree": 713,
      "Ġtree": 714,
      "rol": 715,
      "ontrol": 716,
      "yn": 717,
      "loating": 718,
      "Ġmap": 719,
      "Ġcorrect": 720,
      "able": 721,
      "<*>-": 722,
      "']": 723,
      "Ġcr": 724,
      "iar": 725,
      "ger": 726,
      "Ġfloating": 727,
      "ipe": 728,
      "Ġpipe": 729,
      "ĠD": 730,
      "Ġcritical": 731,
      "Ġl": 732,
      "Ġtotal": 733,
      "ff": 734,
      "Ġout": 735,
      "syn": 736,
      "vent": 737,
      "Ġevent": 738,
      "synch": 739,
      "........": 740,
      "pu": 741,
      "data": 742,
      "erv": 743,
      "ice": 744,
      "ervice": 745,
      "Ġcpu": 746,
      "ug": 747,
      "Ġtime": 748,
      "Control": 749,
      "Ido": 750,
      "ine": 751,
      "Ġinto": 752,
      "cation": 753,
      "bug": 754,
      "Ġido": 755,
      "ged": 756,
      "anged": 757,
      "Ġchanged": 758,
      "Ġblock": 759,
      "Ġas": 760,
      "mpt": 761,
      "Ġatte": 762,
      "mpting": 763,
      "Ġattempting": 764,
      "Ġ-": 765,
      "Ġpart": 766,
      "bas": 767,
      "atabas": 768,
      "atabase": 769,
      "Ġins": 770,
      "Ne": 771,
      "Ġdatabase": 772,
      "Ġinserted": 773,
      "New": 774,
      "ĠAction": 775,
      "ĠService": 776,
      "Ġmax": 777,
      "Ġspe": 778,
      "Ġspent": 779,
      "Ġsuppressing": 780,
      "Ġlocation": 781,
      "bugger": 782,
      "Ġdebugger": 783,
      "Des": 784,
      "etected": 785,
      "ipt": 786,
      "lControl": 787,
      "ors": 788,
      "Ġpol": 789,
      "Ġdied": 790,
      "cript": 791,
      "ĠDetected": 792,
      "Descript": 793,
      "lControlDescript": 794,
      "ĠpollControlDescript": 795,
      "ĠpollControlDescriptors": 796,
      "of": 797,
      "and": 798,
      "irt": 799,
      "Dirt": 800,
      "Ġ#": 801,
      "ofDirt": 802,
      "ofDirty": 803,
      "rom": 804,
      "Ġfrom": 805,
      "ader": 806,
      "en": 807,
      "Ġcre": 808,
      "Ġcreating": 809,
      "Ġline": 810,
      "ACH": 811,
      "Ġr": 812,
      "Ġbad": 813,
      "['<*>": 814,
      "Ġtimed": 815,
      "header": 816,
      "Ġheader": 817,
      "Ġh": 818,
      "ler": 819,
      "qu": 820,
      "umb": 821,
      "umber": 822,
      "xpe": 823,
      "xpected": 824,
      "em": 825,
      "tr": 826,
      "ur": 827,
      "Ġ<*>:<*>'": 828,
      "Ġretr": 829,
      "ply": 830,
      "quen": 831,
      "ĠExpected": 832,
      "ĠReply": 833,
      "quence": 834,
      "Ġread": 835,
      "<*>=<*>": 836,
      "CioStream": 837,
      "Ġcontrol": 838,
      "Ġstream": 839,
      "perat": 840,
      "Ġcorrectable": 841,
      "dex": 842,
      "Ġindex": 843,
      "se": 844,
      "omm": 845,
      "ary": 846,
      "bs": 847,
      "<*>,": 848,
      "Ġinst": 849,
      "Ġwas": 850,
      "um": 851,
      "ls": 852,
      "Ġcal": 853,
      "Ġsing": 854,
      "Ġdur": 855,
      "ance": 856,
      "imum": 857,
      "Ġmaximum": 858,
      "andler": 859,
      "Ġrbs": 860,
      "Ġhandler": 861,
      "Ġinstance": 862,
      "Ġcalls": 863,
      "Ġsingle": 864,
      "Ġduring": 865,
      "ure": 866,
      "ffff": 867,
      "onne": 868,
      "Ġsumm": 869,
      "Ġsummary": 870,
      "onnection": 871,
      "ines": 872,
      "ĠConnection": 873,
      "bl": 874,
      "ages": 875,
      "Kernel": 876,
      "Ġinte": 877,
      "Ġinteger": 878,
      "ĠDC": 879,
      "Dbl": 880,
      "Lines": 881,
      "Wor": 882,
      "Ġaver": 883,
      "ofDirtyDbl": 884,
      "ofDirtyLines": 885,
      "ACHE": 886,
      "ĠDCACHE": 887,
      "Word": 888,
      "Ġaverages": 889,
      "ofDirtyDblWord": 890,
      "ĠComm": 891,
      "emperat": 892,
      "emperature": 893,
      "Ġ(<*>)'": 894,
      "du": 895,
      "NF": 896,
      "ying": 897,
      "Ġsle": 898,
      "ĠMount": 899,
      "Ġretrying": 900,
      "NFS": 901,
      "Ġslept": 902,
      "SR": 903,
      "ĠPSR": 904,
      "................": 905,
      "ual": 906,
      "Number": 907,
      "equence": 908,
      "ctual": 909,
      "ĠActual": 910,
      "ĠOp": 911,
      "ĠSyn": 912,
      "ĠCommand": 913,
      "equenceNumber": 914,
      "ĠSync": 915,
      "Ġ<*>']": 916,
      "HE": 917,
      "...": 918,
      "ink": 919,
      "Ġ--": 920,
      "opp": 921,
      "Ġstopp": 922,
      "Ġstopping": 923,
      "ecut": 924,
      "Ġexecut": 925,
      "iz": 926,
      "ddr": 927,
      "Ġun": 928,
      "xception": 929,
      "Ġ<*>)'": 930,
      "ht": 931,
      "ant": 932,
      "CK": 933,
      "Exception": 934,
      "av": 935,
      "jav": 936,
      "Ġjav": 937,
      "Ġjava": 938,
      "Ġlr": 939,
      "rec": 940,
      "MACH": 941,
      "ĠCHE": 942,
      "INE": 943,
      "MACHINE": 944,
      "ĠCHECK": 945,
      "Ġste": 946,
      "Ġsteer": 947,
      "hine": 948,
      "achine": 949,
      "fp": 950,
      "fpr": 951,
      "ist": 952,
      "gist": 953,
      "gister": 954,
      "is": 955,
      "Ġlink": 956,
      "ized": 957,
      "Ġpan": 958,
      "Ġpanic": 959,
      "Ġexecution": 960,
      "ĠB": 961,
      "LB": 962,
      "ĠTLB": 963,
      "XF": 964,
      "Ġcable": 965,
      "Ġsteering": 966,
      "...<*>'": 967,
      "ee": 968,
      "reco": 969,
      "ĠLim": 970,
      "ĠLimit": 971,
      "addr": 972,
      "gn": 973,
      "Ġsent": 974,
      "Ġtreeaddr": 975,
      "Ġunreco": 976,
      "gnized": 977,
      "Ġunrecognized": 978,
      "ĠMessage": 979,
      "ndant": 980,
      "Ġredu": 981,
      "Ġredundant": 982,
      "Ġactivating": 983,
      "spp": 984,
      "<*>/": 985,
      "sppm": 986,
      "out": 987,
      "Ġtimeout": 988,
      "ies": 989,
      "Ġregister": 990,
      "Ġrever": 991,
      "Ġ-->": 992,
      "Ġreverse": 993,
      "machine": 994,
      "nal": 995,
      "ERT": 996,
      "SERT": 997,
      "ĠASSERT": 998,
      "Ġ...": 999,
      "nable": 1000,
      "Ġbe": 1001,
      "ĠPGOOD": 1002,
      "OT": 1003,
      "ĠNOT": 1004,
      "Ġtoo": 1005,
      "Ġ>": 1006,
      "Ġbig": 1007,
      "ex": 1008,
      "ternal": 1009,
      "external": 1010,
      "IXF": 1011,
      "ĠPIXF": 1012,
      "Ġth": 1013,
      "ON": 1014,
      "fff": 1015,
      "ATI": 1016,
      "ERROR": 1017,
      "MM": 1018,
      "NIC": 1019,
      "OMM": 1020,
      "UNIC": 1021,
      "ĠCOMM": 1022,
      "ATION": 1023,
      "UNICATION": 1024,
      "ĠCOMMUNICATION": 1025,
      "ĠNumber": 1026,
      "Is": 1027,
      "Ok": 1028,
      "Out": 1029,
      "SequenceNumber": 1030,
      "ĠsequenceNumber": 1031,
      "Ġfal": 1032,
      "Ġtru": 1033,
      "ĠSequence": 1034,
      "ĠtimedOut": 1035,
      "Ġretries": 1036,
      "ĠExpectedSequenceNumber": 1037,
      "IsOk": 1038,
      "ĠsequenceNumberIsOk": 1039,
      "Ġfalse": 1040,
      "Ġtrue": 1041,
      "fffffff": 1042,
      "Ġca": 1043,
      "Ġffffffff": 1044,
      "ught": 1045,
      "Ġcaught": 1046,
      "Sw": 1047,
      "itch": 1048,
      "Switch": 1049,
      "Ġenable": 1050,
      "dis": 1051,
      "disable": 1052,
      "net": 1053,
      "Temperature": 1054,
      "ĠOver": 1055,
      "..<*>'": 1056,
      "Do": 1057,
      "Ġby": 1058,
      "pro": 1059,
      "ĠTemperature": 1060,
      "Service": 1061,
      "ith": 1062,
      "Ġwith": 1063,
      "ld": 1064,
      "Stat": 1065,
      "lang": 1066,
      "eException": 1067,
      "Error": 1068,
      "erform": 1069,
      "Ġperform": 1070,
      "Controller": 1071,
      "odu": 1072,
      "odule": 1073,
      "ible": 1074,
      "ccess": 1075,
      "Ġaccess": 1076,
      "db": 1077,
      "are": 1078,
      "....<*>'": 1079,
      "par": 1080,
      "Ġmodule": 1081,
      "wer": 1082,
      "Ġpower": 1083,
      "Ġaccessible": 1084,
      "Midplane": 1085,
      "SwitchController": 1086,
      "MidplaneSwitchController": 1087,
      "ĠAss": 1088,
      "ertion": 1089,
      "ight": 1090,
      "Micro": 1091,
      "loader": 1092,
      "ĠAssertion": 1093,
      "Microloader": 1094,
      "Ġbeing": 1095,
      "floating": 1096,
      "rce": 1097,
      "ĠSou": 1098,
      "ĠSource": 1099,
      "Ġpa": 1100,
      "Ġpacket": 1101,
      "=<*>']": 1102,
      "........................": 1103,
      "ile": 1104,
      "lb": 1105,
      "NK": 1106,
      "kpt": 1107,
      "light": 1108,
      "ĠCNK": 1109,
      "chkpt": 1110,
      "mode": 1111,
      "ĠVN": 1112,
      "Ġfi": 1113,
      "UT": 1114,
      "rain": 1115,
      "sent": 1116,
      "Ġpresent": 1117,
      "Missing": 1118,
      "ĠCable": 1119,
      "ĠBUT": 1120,
      "ort": 1121,
      "peration": 1122,
      "Il": 1123,
      "gal": 1124,
      "legal": 1125,
      "StateException": 1126,
      "Illegal": 1127,
      "IllegalStateException": 1128,
      "Ġg": 1129,
      "pare": 1130,
      "art": 1131,
      "hile": 1132,
      "Ġ'<*>'": 1133,
      "......<*>'": 1134,
      "ĠZ": 1135,
      "For": 1136,
      "Pre": 1137,
      "Ġdone": 1138,
      "Ġthis": 1139,
      "pareFor": 1140,
      "PrepareFor": 1141,
      "PrepareForService": 1142,
      "use": 1143,
      "Ġman": 1144,
      "ager": 1145,
      "Ġmanager": 1146,
      "invalid": 1147,
      "ore": 1148,
      ".']": 1149,
      "etch": 1150,
      "<*>),": 1151,
      "Ġne": 1152,
      "Ġservice": 1153,
      "yst": 1154,
      "unic": 1155,
      "ystem": 1156,
      "Ġspar": 1157,
      "Ġperforming": 1158,
      "Ġsparing": 1159,
      "cache": 1160,
      "sh": 1161,
      "ido": 1162,
      "IDo": 1163,
      "xt": 1164,
      "irectIDo": 1165,
      "emory": 1166,
      "memory": 1167,
      "Ġgo": 1168,
      ".<*>']": 1169,
      "DR": 1170,
      "<*>=<*>'": 1171,
      "IO": 1172,
      "IOException": 1173,
      "ould": 1174,
      ":'": 1175,
      "ue": 1176,
      "eca": 1177,
      "Ġbeca": 1178,
      "Ġbecause": 1179,
      "location": 1180,
      "Ġallocation": 1181,
      "Ġnext": 1182,
      "debug": 1183,
      "Ġmode": 1184,
      "Ġpt": 1185,
      "........<*>'": 1186,
      "lear": 1187,
      "ĠPR": 1188,
      "Ġclear": 1189,
      "Ġtemperature": 1190,
      "Ġ-<*>,": 1191,
      "ĠPRXF": 1192,
      "eeee": 1193,
      "Ġplb": 1194,
      "ĠLatch": 1195,
      "ED": 1196,
      "ĠMask": 1197,
      "ĠASSERTED": 1198,
      "Ġfilesystem": 1199,
      "Ġunable": 1200,
      "xy": 1201,
      "proxy": 1202,
      "idoproxy": 1203,
      "idoproxydb": 1204,
      "Ġcomm": 1205,
      "ĠX": 1206,
      "ĠY": 1207,
      "ĠCould": 1208,
      "ĠiDo": 1209,
      "ag": 1210,
      "pl": 1211,
      "ial": 1212,
      "ĠRegister": 1213,
      "gu": 1214,
      "aran": 1215,
      "teed": 1216,
      "guaran": 1217,
      "guaranteed": 1218,
      "itial": 1219,
      "Ġprefetch": 1220,
      "icache": 1221,
      "torus": 1222,
      "Ġtrain": 1223,
      "Ġwant": 1224,
      "Ġtraining": 1225,
      "Ġwanted": 1226,
      "eld": 1227,
      "enable": 1228,
      "Ġfield": 1229,
      "resh": 1230,
      "old": 1231,
      "Ġthresh": 1232,
      "Ġthreshold": 1233,
      "Ġhas": 1234,
      "ĠMissing": 1235,
      "Ġfields": 1236,
      "Lct": 1237,
      "mLct": 1238,
      "mLctn": 1239,
      "ken": 1240,
      "roken": 1241,
      "ĠBroken": 1242,
      "Socket": 1243,
      "SocketException": 1244,
      "tag": 1245,
      "ĠJtag": 1246,
      "Ġcond": 1247,
      "ition": 1248,
      "ĠFunction": 1249,
      "Ġhit": 1250,
      "Ġcondition": 1251,
      "Ġcon": 1252,
      "Ġregisters": 1253,
      "wor": 1254,
      "work": 1255,
      "Ġnet": 1256,
      "Ġnetwork": 1257,
      "up": 1258,
      "Ġup": 1259,
      "Ġreceiving": 1260,
      "und": 1261,
      "Ġmachine": 1262,
      "AM": 1263,
      ".........................<*>'": 1264,
      "roble": 1265,
      "roblem": 1266,
      "Action": 1267,
      "End": 1268,
      "ServiceAction": 1269,
      "Ġperformed": 1270,
      "Ġupon": 1271,
      "EndServiceAction": 1272,
      "li": 1273,
      "ĠCE": 1274,
      "ĠSuppressing": 1275,
      "itor": 1276,
      "onitor": 1277,
      "ose": 1278,
      "pose": 1279,
      "Ġpur": 1280,
      "Ġpurpose": 1281,
      "GL": 1282,
      "ĠOperation": 1283,
      "Ġwhile": 1284,
      "Ġexecuting": 1285,
      "ca": 1286,
      "OL": 1287,
      "ĠRAI": 1288,
      "ĠTHE": 1289,
      "ĠVOL": 1290,
      "ĠRAIL": 1291,
      "ĠVOLT": 1292,
      "Ġoperation": 1293,
      "Card": 1294,
      "DirectIDo": 1295,
      "start": 1296,
      "Ġbeen": 1297,
      "round": 1298,
      "pture": 1299,
      "capture": 1300,
      "Bad": 1301,
      "ĠLink": 1302,
      "ĠPort": 1303,
      "Ġwires": 1304,
      "Ġgoing": 1305,
      "ĠLinkCard": 1306,
      "Ġus": 1307,
      "Ġcli": 1308,
      "Ġusable": 1309,
      "Ġclient": 1310,
      "While": 1311,
      "fig": 1312,
      "ower": 1313,
      "Problem": 1314,
      "unicating": 1315,
      "Ġcommunicating": 1316,
      "Power": 1317,
      "Ġ'<*>:<*>": 1318,
      "...........<*>'": 1319,
      "ĠStat": 1320,
      "activ": 1321,
      "Ġdeactiv": 1322,
      "Ġdeactivated": 1323,
      "parity": 1324,
      ".......<*>'": 1325,
      "Ġport": 1326,
      "DRAM": 1327,
      "act": 1328,
      "rst": 1329,
      "ĠEDRAM": 1330,
      "Ġfirst": 1331,
      "Runt": 1332,
      "imeException": 1333,
      "ĠCommunic": 1334,
      "RuntimeException": 1335,
      "ĠCommunication": 1336,
      "Ġ<*>:": 1337,
      "::": 1338,
      "number": 1339,
      "()": 1340,
      "log": 1341,
      "Ġlatch": 1342,
      "ĠLP": 1343,
      "(<*>)": 1344,
      "Ġlatched": 1345,
      "hernet": 1346,
      "ap": 1347,
      "Train": 1348,
      "thernet": 1349,
      "ind": 1350,
      "Ġfind": 1351,
      "ĠEthernet": 1352,
      "address": 1353,
      "ĠEthernetSwitch": 1354,
      "ĠIn": 1355,
      "Ġ-<*>)": 1356,
      "eee": 1357,
      "eeeeeee": 1358,
      "tlb": 1359,
      "store": 1360,
      "...........................<*>'": 1361,
      "ise": 1362,
      "prec": 1363,
      "imprec": 1364,
      "imprecise": 1365,
      "xer": 1366,
      "Ġxer": 1367,
      "Ġstart": 1368,
      "uration": 1369,
      "figuration": 1370,
      "program": 1371,
      "Ġstarted": 1372,
      "min": 1373,
      "Ġeof": 1374,
      "ĠUne": 1375,
      "plus": 1376,
      "minus": 1377,
      "ĠUnexpected": 1378,
      "Ġ-<*>)'": 1379,
      "Ġgot": 1380,
      "adc": 1381,
      "Ġinitial": 1382,
      "Ġinitializ": 1383,
      "Ġinitializing": 1384,
      "ĠIP": 1385,
      "pert": 1386,
      "propert": 1387,
      "properties": 1388,
      "Ġapu": 1389,
      "Ġinstruction": 1390,
      "ast": 1391,
      "roadc": 1392,
      "Ġbroadc": 1393,
      "Ġbroadcast": 1394,
      "ĠStatus": 1395,
      "eTrain": 1396,
      "receiv": 1397,
      "Ġiap": 1398,
      "receiveTrain": 1399,
      "/<*>": 1400,
      "Ġload": 1401,
      "force": 1402,
      "...............<*>'": 1403,
      "fo": 1404,
      "BGL": 1405,
      "om": 1406,
      "sid": 1407,
      "acing": 1408,
      "Ġrepl": 1409,
      "Ġconsid": 1410,
      "Ġreplacing": 1411,
      "Ġconsider": 1412,
      "=/<*>": 1413,
      "nin": 1414,
      "Ġcont": 1415,
      "ĠUnin": 1416,
      "ĠDirectIDo": 1417,
      "itialized": 1418,
      "Ġcontact": 1419,
      "ĠUninitialized": 1420,
      "ul": 1421,
      ".....<*>'": 1422,
      "pre": 1423,
      "monitor": 1424,
      "fe": 1425,
      ")'": 1426,
      "summ": 1427,
      "summary": 1428,
      "ult": 1429,
      "Ġ<*>.": 1430,
      "read": 1431,
      "Ġmult": 1432,
      "Ġsymbols": 1433,
      "ĠUnable": 1434,
      "Ġalread": 1435,
      "iple": 1436,
      "ĠDue": 1437,
      "Ġmultiple": 1438,
      "Ġalready": 1439,
      "con": 1440,
      "aster": 1441,
      "DDR": 1442,
      "Ġban": 1443,
      "Ġbank": 1444,
      "core": 1445,
      "Ġconfiguration": 1446,
      "jo": 1447,
      "reed": 1448,
      "Ġfreed": 1449,
      "ĠBlock": 1450,
      "job": 1451,
      "ĠRegisters": 1452,
      "ward": 1453,
      "Ġtoward": 1454,
      "lue": 1455,
      ".................<*>'": 1456,
      "ax": 1457,
      "Ġ$": 1458,
      "(<*>),": 1459,
      "max": 1460,
      "Ip": 1461,
      "Type": 1462,
      "ĠmIp": 1463,
      "ĠmType": 1464,
      "(<*>))": 1465,
      "erver": 1466,
      "ffffffff": 1467,
      "ux": 1468,
      "cs": 1469,
      "server": 1470,
      "mmcs": 1471,
      "Ġall": 1472,
      "<*>']": 1473,
      "ers": 1474,
      "sed": 1475,
      "Ġclo": 1476,
      "Ġclosed": 1477,
      "Ġmonitor": 1478,
      "ware": 1479,
      "ardware": 1480,
      "fetch": 1481,
      "Ġdept": 1482,
      "prefetch": 1483,
      "Ġdepth": 1484,
      "rit": 1485,
      "Hardware": 1486,
      "............<*>'": 1487,
      "eue": 1488,
      "Ġqu": 1489,
      "Ġqueue": 1490,
      "-'": 1491,
      "Ġnumber": 1492,
      "Ġcommand": 1493,
      "reat": 1494,
      "Ġthan": 1495,
      "Ġgreat": 1496,
      "Ġgreater": 1497,
      "<*>:<*>": 1498,
      "low": 1499,
      "Master": 1500,
      "sol": 1501,
      "BGLMaster": 1502,
      "consol": 1503,
      "console": 1504,
      "fea": 1505,
      "Ġinternal": 1506,
      "Machine": 1507,
      "fra": 1508,
      "flow": 1509,
      "Ġcom": 1510,
      "........................<*>'": 1511,
      "fraction": 1512,
      "dow": 1513,
      "utdow": 1514,
      "shutdow": 1515,
      "shutdown": 1516,
      "CR": 1517,
      "bit": 1518,
      "./": 1519,
      "Ġ./": 1520,
      "Ġdb": 1521,
      "dbproperties": 1522,
      "Ġunit": 1523,
      "DCR": 1524,
      "Ġinfo": 1525,
      "Address": 1526,
      "pAddress": 1527,
      "ĠIpAddress": 1528,
      "res": 1529,
      "bgl": 1530,
      "................<*>'": 1531,
      "file": 1532,
      "ceed": 1533,
      "Ġexceed": 1534,
      "com": 1535,
      "od": 1536,
      "Ġmay": 1537,
      "ĠBG": 1538,
      "cor": 1539,
      "rect": 1540,
      "correct": 1541,
      "correctable": 1542,
      "Go": 1543,
      "Id": 1544,
      "ting": 1545,
      "ĠGo": 1546,
      "Ġaction": 1547,
      "Ġrequ": 1548,
      "ired": 1549,
      "ĠGood": 1550,
      "Ġrequired": 1551,
      "AL": 1552,
      "Ġfp": 1553,
      "block": 1554,
      "onnect": 1555,
      "reconnect": 1556,
      "ĠBGL": 1557,
      "blocks": 1558,
      "ize": 1559,
      "In": 1560,
      "inter": 1561,
      "ĠJtagId": 1562,
      "Invalid": 1563,
      "Blue": 1564,
      "Database": 1565,
      "Light": 1566,
      "iolog": 1567,
      "useDatabase": 1568,
      "logs": 1569,
      "BlueLight": 1570,
      "size": 1571,
      "hes": 1572,
      "Ġ(<*>": 1573,
      "rite": 1574,
      "Ġlines": 1575,
      "..................<*>'": 1576,
      "Ġfailing": 1577,
      "interrupt": 1578,
      "oft": 1579,
      "RAM": 1580,
      "Ġro": 1581,
      "Ġba": 1582,
      "Run": 1583,
      "ciodb": 1584,
      "Ġrestart": 1585,
      "ĠSRAM": 1586,
      "Ġexceeded": 1587,
      "Ġrestarted": 1588,
      "exception": 1589,
      "ground": 1590,
      "Ġdata": 1591,
      "ckground": 1592,
      "Ġbackground": 1593,
      "Running": 1594,
      "]'": 1595,
      "ling": 1596,
      "ws": 1597,
      "Ġ[": 1598,
      "Ġ]'": 1599,
      "Start": 1600,
      "ĠSystem": 1601,
      "Controlling": 1602,
      "Ġrows": 1603,
      "Starting": 1604,
      "ĠSystemController": 1605,
      "fa": 1606,
      "fee": 1607,
      "Ġ'<*>:": 1608,
      "Ge": 1609,
      "Name": 1610,
      "fl": 1611,
      "info": 1612,
      "erinfo": 1613,
      "Ġparam": 1614,
      "eters": 1615,
      "ush": 1616,
      "userinfo": 1617,
      "ĠBlue": 1618,
      "enablefl": 1619,
      "loguserinfo": 1620,
      "ĠInput": 1621,
      "Gene": 1622,
      "Ġparameters": 1623,
      "ĠBlueGene": 1624,
      "enableflush": 1625,
      "aux": 1626,
      "iliar": 1627,
      "auxiliar": 1628,
      "auxiliary": 1629,
      "lr": 1630,
      "Ġctr": 1631,
      "by": 1632,
      "ĠDDR": 1633,
      "ib": 1634,
      "ibm": 1635,
      "ate": 1636,
      "Lin": 1637,
      "bu": 1638,
      "homm": 1639,
      "qx": 1640,
      "Ġ..": 1641,
      "ild": 1642,
      "preqx": 1643,
      "Linux": 1644,
      "build": 1645,
      "homme": 1646,
      "Ġ../": 1647,
      "Ġdcache": 1648,
      "....................<*>'": 1649,
      "port": 1650,
      "soft": 1651,
      "softheader": 1652,
      "eout": 1653,
      "tail": 1654,
      "tim": 1655,
      "Ġdetail": 1656,
      "ĠProblem": 1657,
      "Ġgetting": 1658,
      "Ġhw": 1659,
      "timeout": 1660,
      "Ġdetailed": 1661,
      "ĠProblems": 1662,
      "master": 1663,
      "init": 1664,
      "Ġbglmaster": 1665,
      "figfile": 1666,
      "configfile": 1667,
      "consoleip": 1668,
      "consoleport": 1669,
      "zer": 1670,
      "zero": 1671,
      "Ġcould": 1672,
      "=<*>)'": 1673,
      ".....................<*>'": 1674,
      "feaa": 1675,
      "nv": 1676,
      "Core": 1677,
      "ĠCon": 1678,
      "ĠConfiguration": 1679,
      "ĠCheck": 1680,
      "ĠState": 1681,
      ")...<*>'": 1682,
      "Floating": 1683,
      "aN": 1684,
      "abl": 1685,
      "bj": 1686,
      "div": 1687,
      "ect": 1688,
      "ide": 1689,
      "iet": 1690,
      "ms": 1691,
      "oint": 1692,
      "over": 1693,
      "scr": 1694,
      "xact": 1695,
      "Ġes": 1696,
      "Ġ<*>]": 1697,
      "Ġccr": 1698,
      "Ġcnv": 1699,
      "erflow": 1700,
      "Ġobj": 1701,
      "Ġdbs": 1702,
      "ĠControl": 1703,
      "anM": 1704,
      "Ġvers": 1705,
      "ĠPoint": 1706,
      "ĠNaN": 1707,
      "ĠFanM": 1708,
      "erved": 1709,
      "inexact": 1710,
      "enabl": 1711,
      "quiet": 1712,
      "......................<*>'": 1713,
      ".......................<*>'": 1714,
      ".................................<*>'": 1715,
      "dbcr": 1716,
      "................................<*>'": 1717,
      "underflow": 1718,
      "reserved": 1719,
      "Ġfpscr": 1720,
      "divide": 1721,
      "msr": 1722,
      "overflow": 1723,
      "Ġesr": 1724,
      "Ġcnvt": 1725,
      "Ġobject": 1726,
      "Ġdbsr": 1727,
      "Ġversion": 1728,
      "enabled": 1729,
      "arest": 1730,
      "............................<*>'": 1731,
      "Ġnearest": 1732,
      "aut": 1733,
      "Ġy": 1734,
      "Ġ<*>:<*>']": 1735,
      "orestart": 1736,
      "autorestart": 1737,
      "Ġse": 1738,
      "ple": 1739,
      "Ġcomple": 1740,
      "Ġcomplete": 1741,
      "fd": 1742,
      "Ġrack": 1743,
      "state": 1744,
      "jor": 1745,
      "Ġmajor": 1746,
      "ssible": 1747,
      "Ġpossible": 1748,
      "<*>:<*>'": 1749,
      "uff": 1750,
      "uffer": 1751,
      "Found": 1752,
      "Ġ\"": 1753,
      "clo": 1754,
      "ches": 1755,
      "fres": 1756,
      "oon": 1757,
      "tur": 1758,
      "write": 1759,
      "Ġsoon": 1760,
      "den": 1761,
      "Ġpages": 1762,
      "stand": 1763,
      "idden": 1764,
      "etches": 1765,
      "Ġbuffer": 1766,
      "Ġrefres": 1767,
      "Ġ<*>:<*>..................<*>'": 1768,
      "Ġprefetches": 1769,
      "Ġwrite": 1770,
      "Ġoutstand": 1771,
      "Ġhidden": 1772,
      "Ġcommit": 1773,
      "close": 1774,
      "turn": 1775,
      "Ġrefreshes": 1776,
      "Ġoutstanding": 1777,
      "cd": 1778,
      "'s": 1779,
      "can": 1780,
      "comm": 1781,
      "gct": 1782,
      "ging": 1783,
      "lag": 1784,
      "mask": 1785,
      "mis": 1786,
      "qw": 1787,
      "sym": 1788,
      "regct": 1789,
      "Ġscan": 1790,
      "Ġflag": 1791,
      "rapp": 1792,
      "Ġtrapp": 1793,
      "ten": 1794,
      ".<*>\"": 1795,
      "Ġbus": 1796,
      "chip": 1797,
      "uncorrectable": 1798,
      "Ġvalid": 1799,
      "Ġinterfa": 1800,
      "Ġwrit": 1801,
      "ĠUE": 1802,
      ".........<*>'": 1803,
      "....................................<*>'": 1804,
      "ĠEDRAMs": 1805,
      "compare": 1806,
      "Ġselect": 1807,
      "command": 1808,
      "miscompare": 1809,
      "symbol": 1810,
      "regctl": 1811,
      "Ġscancom": 1812,
      "Ġflagging": 1813,
      "Ġtrapped": 1814,
      "Ġinterface": 1815,
      "Ġwritten": 1816,
      "Ġstore": 1817,
      "used": 1818,
      "Ġcaused": 1819,
      "ĠFanModule": 1820,
      "profile": 1821,
      "his": 1822,
      "this": 1823,
      ":<*>'": 1824,
      "Ġexit": 1825,
      "VAL": 1826,
      ".............<*>'": 1827,
      "ea": 1828,
      "ae": 1829,
      "Ġset": 1830,
      "Ġfan": 1831,
      "Ġspeed": 1832,
      "Ġsetting": 1833,
      "feea": 1834,
      "map": 1835,
      "txt": 1836,
      "Ġmy": 1837,
      "fb": 1838,
      "ĠFail": 1839,
      "ĠInfo": 1840,
      "DO": 1841,
      "conne": 1842,
      "Ġdis": 1843,
      "ndTrain": 1844,
      "sendTrain": 1845,
      "connected": 1846,
      "Ġdisconnected": 1847,
      "BAL": 1848,
      "ES": 1849,
      "ERR": 1850,
      "ECK": 1851,
      "ITI": 1852,
      "OBAL": 1853,
      "PT": 1854,
      "TERR": 1855,
      "UES": 1856,
      "UPT": 1857,
      "fc": 1858,
      "mal": 1859,
      "nor": 1860,
      "ynd": 1861,
      "CHECK": 1862,
      "INITI": 1863,
      "INTERR": 1864,
      "rome": 1865,
      "GLOBAL": 1866,
      "Ġexited": 1867,
      "VALUES": 1868,
      "mally": 1869,
      "normally": 1870,
      "yndrome": 1871,
      "INITIAL": 1872,
      "INTERRUPT": 1873,
      "Ġ<*>)']": 1874,
      "Ġfailure": 1875,
      "Ġsyndrome": 1876,
      "Ġsoft": 1877,
      "ive": 1878,
      "cessive": 1879,
      "Ġexcessive": 1880,
      "Ġfailures": 1881,
      "bd": 1882,
      "NodeCard": 1883,
      "ffffff": 1884,
      "Ġcur": 1885,
      "rent": 1886,
      "ĠIDo": 1887,
      "Ġcurrent": 1888,
      "Ġcurrently": 1889,
      "aa": 1890,
      "Ġab": 1891,
      "Ġ'<*>:<*>:": 1892,
      "fefff": 1893,
      "Ġdue": 1894,
      "orted": 1895,
      "Ġabnormally": 1896,
      "+'": 1897,
      ":<*>:": 1898,
      "cf": 1899,
      "borted": 1900,
      "ĠAborted": 1901,
      "<*>:": 1902,
      "bg": 1903,
      "cli": 1904,
      "lli": 1905,
      "qlli": 1906,
      "sqlli": 1907,
      "bgdb": 1908,
      "sqllib": 1909,
      "date": 1910,
      "Ġupdate": 1911,
      ".............................<*>'": 1912,
      "ffffffe": 1913,
      "der": 1914,
      "Ġorder": 1915,
      "Ġbut": 1916,
      "byte": 1917,
      "Ġordering": 1918,
      "Expected": 1919,
      "les": 1920,
      "Ġ)": 1921,
      "ĠFound": 1922,
      "odules": 1923,
      "ĠFanModules": 1924,
      "bb": 1925,
      "bf": 1926,
      "cc": 1927,
      "Ġ.............<*>'": 1928,
      "Ġbf": 1929,
      "Ch": 1930,
      "df": 1931,
      "Ġcorrupt": 1932,
      "ffffc": 1933,
      "Ġexceeds": 1934,
      "Bgl": 1935,
      "EO": 1936,
      "Ġtable": 1937,
      "ĠIDO": 1938,
      "IdoCh": 1939,
      "Ġpackets": 1940,
      "Ġmany": 1941,
      "Ġ-<*>)']": 1942,
      "Ġ).'": 1943,
      "BglIdoCh": 1944,
      "ĠIDOs": 1945,
      "BglIdoChip": 1946,
      "dd": 1947,
      "service": 1948,
      "IDO": 1949,
      "KT": 1950,
      "MEO": 1951,
      "PKT": 1952,
      "ba": 1953,
      "link": 1954,
      "Ġconnection": 1955,
      "LERR": 1956,
      "Ġlost": 1957,
      "TIMEO": 1958,
      "Ġ'<*>:<*>:<*>'": 1959,
      "ĠBGLERR": 1960,
      "TIMEOUT": 1961,
      "cb": 1962,
      "af": 1963,
      "dc": 1964,
      "Bul": 1965,
      "Module": 1966,
      "ab": 1967,
      "end": 1968,
      "kPower": 1969,
      "vice": 1970,
      "device": 1971,
      "arget": 1972,
      "ĠVend": 1973,
      "bgldevice": 1974,
      "BulkPower": 1975,
      "ĠVendor": 1976,
      "bgldevices": 1977,
      "BulkPowerModule": 1978,
      "Ġbfd": 1979,
      "Ġbff": 1980,
      "<*>:<*>:<*>": 1981,
      "ead": 1982,
      "Ġ'<*>:<*>:<*>": 1983,
      "//": 1984,
      "://": 1985,
      "Al": 1986,
      "FF": 1987,
      "JTAG": 1988,
      "Target": 1989,
      "bc": 1990,
      "ll": 1991,
      "Ġpap": 1992,
      "parityAl": 1993,
      "parityAlignment": 1994,
      "ef": 1995,
      "Ġ(<*>)']": 1996,
      "Ġsend": 1997,
      "Ġet": 1998,
      "Ġbfe": 1999,
      "Ġethernet": 2000,
      "Rs": 2001,
      "Torus": 2002,
      "cting": 2003,
      "Ġfol": 2004,
      "Ġnon": 2005,
      "pecting": 2006,
      "verable": 2007,
      "Ġexpecting": 2008,
      "Ġinstead": 2009,
      "ĠDCRs": 2010,
      "Ġuncorrectable": 2011,
      "recoverable": 2012,
      "Ġfollow": 2013,
      "No": 2014,
      "edb": 2015,
      "Ms": 2016,
      "be": 2017,
      "Msg": 2018,
      "sor": 2019,
      "Ġsen": 2020,
      "Ġbfc": 2021,
      "......<*>']": 2022,
      "Ġsensor": 2023,
      "Ġbfb": 2024,
      "<*>:<*>:": 2025,
      "Ġsending": 2026,
      "Ġnormally": 2027,
      "Ġ'<*>']": 2028,
      "AGE": 2029,
      "ffffca": 2030,
      "cdf": 2031,
      "AD": 2032,
      "DAT": 2033,
      "IM": 2034,
      "IDAT": 2035,
      "LO": 2036,
      "eb": 2037,
      ".....<*>']": 2038,
      "CRC": 2039,
      "VALIDAT": 2040,
      "IMAGE": 2041,
      "LOAD": 2042,
      "VALIDATE": 2043,
      "BM": 2044,
      "Re": 2045,
      "Vp": 2046,
      "dRe": 2047,
      "kee": 2048,
      "nation": 2049,
      "okee": 2050,
      "vis": 2051,
      "erial": 2052,
      "Ġfa": 2053,
      "ĠCher": 2054,
      "ternation": 2055,
      "ĠPart": 2056,
      "ĠRevis": 2057,
      "ĠSerial": 2058,
      "ĠIBM": 2059,
      "ĠAssembly": 2060,
      "ĠInternation": 2061,
      "VpdRe": 2062,
      "ĠCherokee": 2063,
      "ĠRevision": 2064,
      "ĠInternational": 2065,
      "VpdReply": 2066,
      "ecf": 2067,
      "fab": 2068,
      "abd": 2069,
      "igned": 2070,
      "Ġfault": 2071,
      "bda": 2072,
      "Pll": 2073,
      "cdb": 2074,
      "clear": 2075,
      "Ġlock": 2076,
      "arsh": 2077,
      "aler": 2078,
      "Ġaligned": 2079,
      "<*>:<*>:<*>/": 2080,
      "arshaler": 2081,
      "IT": 2082,
      "Scom": 2083,
      "efe": 2084,
      "fde": 2085,
      "power": 2086,
      "...<*>']": 2087,
      "ScomError": 2088,
      "FB": 2089,
      "Jtag": 2090,
      "Ġ`": 2091,
      "Ġzero": 2092,
      "ĠAll": 2093,
      "Ġbd": 2094,
      "Ġbed": 2095,
      "Ġlow": 2096,
      ".........................<*>']": 2097,
      "Ġgood": 2098,
      "........<*>']": 2099,
      "<*>:<*>:<*>'": 2100,
      "fbd": 2101,
      "JtagId": 2102,
      "Ġzeros": 2103,
      "cfc": 2104,
      "Ġ==": 2105,
      ".............................<*>']": 2106,
      "fdf": 2107,
      "ffffffc": 2108,
      "ER": 2109,
      "PER": 2110,
      "Rec": 2111,
      "afa": 2112,
      "eac": 2113,
      "ffb": 2114,
      "IdoMsg": 2115,
      "fffff": 2116,
      "faf": 2117,
      "fabd": 2118,
      "fdc": 2119,
      "Recv": 2120,
      "De": 2121,
      "EX": 2122,
      "Nul": 2123,
      "Po": 2124,
      "Ser": 2125,
      "To": 2126,
      "bfa": 2127,
      "lPo": 2128,
      "num": 2129,
      "ot": 2130,
      "Ġ']": 2131,
      "eda": 2132,
      "ĠmCard": 2133,
      "ĠSyndrome": 2134,
      "OGRAM": 2135,
      "dbc": 2136,
      "ĠPROGRAM": 2137,
      "...........<*>']": 2138,
      "...........................<*>']": 2139,
      "interException": 2140,
      "Ġroot": 2141,
      "fae": 2142,
      "fdd": 2143,
      "ĠsendMsg": 2144,
      "ITED": 2145,
      "Debugger": 2146,
      "EXITED": 2147,
      "NullPo": 2148,
      "Sernum": 2149,
      "ToDebugger": 2150,
      "ĠmCardSernum": 2151,
      "ĠsendMsgToDebugger": 2152,
      "NullPointerException": 2153,
      "!(": 2154,
      ")']": 2155,
      "=!(": 2156,
      "FE": 2157,
      "Hdr": 2158,
      "Len": 2159,
      "Marshaler": 2160,
      "Port": 2161,
      "aed": 2162,
      "bdb": 2163,
      "cpp": 2164,
      "cca": 2165,
      "ddb": 2166,
      "iro": 2167,
      "iag": 2168,
      "marshaler": 2169,
      "nment": 2170,
      "press": 2171,
      "Ġfffff": 2172,
      "nose": 2173,
      "Ġdiag": 2174,
      "ĠRun": 2175,
      "Ġbll": 2176,
      "Ġenv": 2177,
      "ĠIdo": 2178,
      "Ġexpress": 2179,
      "ĠDB": 2180,
      "Ġhardware": 2181,
      "idomarshaler": 2182,
      "cdadc": 2183,
      "fba": 2184,
      "clearPort": 2185,
      "bdbb": 2186,
      "ironment": 2187,
      "Ġfffffe": 2188,
      "Ġdiagnose": 2189,
      "Ġenvironment": 2190,
      "ĠIdoMarshaler": 2191,
      "Ġexpression": 2192,
      "idomarshalerio": 2193,
      "Ġenvironmental": 2194,
      "SI": 2195,
      "afb": 2196,
      "bcf": 2197,
      "beda": 2198,
      "cfe": 2199,
      "dff": 2200,
      "dcc": 2201,
      "fdb": 2202,
      "set": 2203,
      "decd": 2204,
      "Ġfea": 2205,
      "Ġdf": 2206,
      "ceb": 2207,
      "adf": 2208,
      "Ġbc": 2209,
      "Ġbdf": 2210,
      "Ġbdd": 2211,
      "Ġreset": 2212,
      "Ġassertion": 2213,
      ":<*>\"": 2214,
      "=<*>)']": 2215,
      "ffd": 2216,
      "Ġbef": 2217,
      "dbe": 2218,
      "cdc": 2219,
      "aaa": 2220,
      "Ġ).']": 2221,
      "ddd": 2222,
      "Ġbffc": 2223,
      "Ġbfeb": 2224,
      "bfaa": 2225,
      "Ġresets": 2226,
      "&)']": 2227,
      "*&)']": 2228,
      "->": 2229,
      ":']": 2230,
      "AS": 2231,
      "Block": 2232,
      "Buffer": 2233,
      "EM": 2234,
      "RE": 2235,
      "Read": 2236,
      "RSI": 2237,
      "SON": 2238,
      "Size": 2239,
      "URE": 2240,
      "ait": 2241,
      "afc": 2242,
      "bcb": 2243,
      "cde": 2244,
      "da": 2245,
      "dfb": 2246,
      "dfc": 2247,
      "nMsg": 2248,
      "oid": 2249,
      "pers": 2250,
      "sion": 2251,
      "void": 2252,
      "Ġcb": 2253,
      "edf": 2254,
      "Ġserver": 2255,
      "Ġint": 2256,
      "ality": 2257,
      "ill": 2258,
      "Ġtarget": 2259,
      "add": 2260,
      "ĠMAS": 2261,
      "ĠTEM": 2262,
      "Ġstill": 2263,
      "Ġwait": 2264,
      "ĠFF": 2265,
      "version": 2266,
      "ATURE": 2267,
      "VERSI": 2268,
      "onality": 2269,
      "ffca": 2270,
      ".............<*>']": 2271,
      "Ġready": 2272,
      ".....................<*>']": 2273,
      "dbd": 2274,
      "()'": 2275,
      "fef": 2276,
      "feffff": 2277,
      "ALIT": 2278,
      "ĠBGLPER": 2279,
      "faec": 2280,
      "fabda": 2281,
      "....................<*>']": 2282,
      "eae": 2283,
      "aef": 2284,
      "Ġbfdc": 2285,
      "abdd": 2286,
      "PERATURE": 2287,
      "IdoMsgHdr": 2288,
      "fabdd": 2289,
      "RecvBuffer": 2290,
      "ĠIdoMarshalerRecvBuffer": 2291,
      "ReadBlock": 2292,
      "SONALIT": 2293,
      "nMsgLen": 2294,
      "personality": 2295,
      "Ġserverdb": 2296,
      "ĠMASK": 2297,
      "ĠTEMPERATURE": 2298,
      "Ġwaiting": 2299,
      "VERSION": 2300,
      "ĠBGLPERSONALIT": 2301,
      "ĠBGLPERSONALITY": 2302,
      "FException": 2303,
      "Operation": 2304,
      "ROL": 2305,
      "TROL": 2306,
      "Un": 2307,
      "afd": 2308,
      "bce": 2309,
      "bac": 2310,
      "bffff": 2311,
      "bfee": 2312,
      "bfc": 2313,
      "bcc": 2314,
      "dde": 2315,
      "dfe": 2316,
      "dfa": 2317,
      "dcd": 2318,
      "daa": 2319,
      "dcb": 2320,
      "dedf": 2321,
      "efff": 2322,
      "efa": 2323,
      "efb": 2324,
      "fce": 2325,
      "fca": 2326,
      "gment": 2327,
      "su": 2328,
      "eddf": 2329,
      "Ġae": 2330,
      "dea": 2331,
      "defe": 2332,
      "Ġfffffffe": 2333,
      "Ġfffffffc": 2334,
      "Ġdfa": 2335,
      "ĠCON": 2336,
      "Ġbfa": 2337,
      "Ġbfaf": 2338,
      "Ġ<*>:<*>:<*>": 2339,
      "erting": 2340,
      "Ġea": 2341,
      "Ġee": 2342,
      "ĠSegment": 2343,
      "pported": 2344,
      "ffc": 2345,
      "ffcd": 2346,
      "ffae": 2347,
      "Ġinserting": 2348,
      "eeb": 2349,
      "fffc": 2350,
      "Ġcaeeb": 2351,
      "caaa": 2352,
      "fefab": 2353,
      "fdcc": 2354,
      "fdfffff": 2355,
      "fbab": 2356,
      "Ġbfec": 2357,
      "Ġbfdea": 2358,
      "EOFException": 2359,
      "baae": 2360,
      "cbfb": 2361,
      "afdb": 2362,
      "Ġbfcb": 2363,
      "Ġbfbb": 2364,
      "Ġbfbaf": 2365,
      "fdcff": 2366,
      "OperationException": 2367,
      "Unsu": 2368,
      "fcab": 2369,
      "ĠCONTROL": 2370,
      "ĠSegmentation": 2371,
      "pportedOperationException": 2372,
      "UnsupportedOperationException": 2373,
      "Dec": 2374,
      "Io": 2375,
      "Mail": 2376,
      "Net": 2377,
      "[\"": 2378,
      "aad": 2379,
      "aac": 2380,
      "aec": 2381,
      "aae": 2382,
      "bo": 2383,
      "bde": 2384,
      "bff": 2385,
      "bfe": 2386,
      "bfea": 2387,
      "bef": 2388,
      "cfa": 2389,
      "dcf": 2390,
      "ddf": 2391,
      "efc": 2392,
      "fec": 2393,
      "lare": 2394,
      "signed": 2395,
      "virt": 2396,
      "||": 2397,
      "Ġru": 2398,
      "Ġ.............<*>']": 2399,
      "Ġ||": 2400,
      "<*>=<*>']": 2401,
      "Ġcf": 2402,
      "erist": 2403,
      "Ġfe": 2404,
      "aract": 2405,
      "Ġbfea": 2406,
      "Ġbcd": 2407,
      "ĠddrSize": 2408,
      "Ġ<*>:<*>:<*>'": 2409,
      "ics": 2410,
      "Ġef": 2411,
      "Ġempt": 2412,
      "ffaa": 2413,
      "ddrSize": 2414,
      "Ġunsigned": 2415,
      "eef": 2416,
      "fffe": 2417,
      "fffbc": 2418,
      "ServiceNet": 2419,
      "ecaf": 2420,
      "workCh": 2421,
      "caf": 2422,
      "cafc": 2423,
      "()']": 2424,
      "ulLen": 2425,
      "RunRecv": 2426,
      "feeb": 2427,
      ")...<*>']": 2428,
      "fdff": 2429,
      "cdfffe": 2430,
      "eaa": 2431,
      "eaf": 2432,
      "fbb": 2433,
      "fcb": 2434,
      "bdd": 2435,
      "bdf": 2436,
      "Ġabdb": 2437,
      "bbc": 2438,
      "Ġbfed": 2439,
      "ddc": 2440,
      "ddab": 2441,
      "cbad": 2442,
      "abdb": 2443,
      "abef": 2444,
      "Ġbfdab": 2445,
      "Ġbffe": 2446,
      "Ġbffee": 2447,
      "Ġbffcf": 2448,
      "Ġ'<*>:<*>:<*>:<*>": 2449,
      "efcd": 2450,
      "MsgHdr": 2451,
      "fdef": 2452,
      "fdead": 2453,
      "RecvMsgHdr": 2454,
      "ĠIdoMarshalerIo": 2455,
      "afbe": 2456,
      "fdbbf": 2457,
      "Ġbffcbf": 2458,
      "faecd": 2459,
      "bffffa": 2460,
      "Declare": 2461,
      "Mailbo": 2462,
      "aacc": 2463,
      "fecfc": 2464,
      "virtual": 2465,
      "Ġrun": 2466,
      "eristics": 2467,
      "aracteristics": 2468,
      "Ġempty": 2469,
      "fffbccf": 2470,
      "ServiceNetworkCh": 2471,
      "DeclareServiceNetworkCh": 2472,
      "Mailbox": 2473,
      "DeclareServiceNetworkCharacteristics": 2474,
      "&,": 2475,
      "App": 2476,
      "Add": 2477,
      "Ent": 2478,
      "Memory": 2479,
      "Monitor": 2480,
      "ZE": 2481,
      "_<*>": 2482,
      "ace": 2483,
      "aeca": 2484,
      "bnet": 2485,
      "bead": 2486,
      "bcdc": 2487,
      "cer": 2488,
      "ccf": 2489,
      "expected": 2490,
      "ebf": 2491,
      "ebda": 2492,
      "eApp": 2493,
      "mu": 2494,
      "ry": 2495,
      "vaddr": 2496,
      "Ġ%": 2497,
      "error": 2498,
      "edefb": 2499,
      "Ġaaeca": 2500,
      "deed": 2501,
      "Ġmmu": 2502,
      "Ġoption": 2503,
      "adb": 2504,
      "Ġforce": 2505,
      "Ġbee": 2506,
      "Ġsubnet": 2507,
      "ĠPAGE": 2508,
      "Ġaddresses": 2509,
      "['<*>'": 2510,
      "Ġlib": 2511,
      "ffa": 2512,
      "Ġ-<*>": 2513,
      "['<*>:": 2514,
      "['<*>:<*>": 2515,
      "quencer": 2516,
      ".................<*>']": 2517,
      "Ġunexpected": 2518,
      "ĠTLBEnt": 2519,
      "fffa": 2520,
      "..<*>']": 2521,
      "....<*>']": 2522,
      "ĠinitializeApp": 2523,
      "...............<*>']": 2524,
      "<*>:<*>']": 2525,
      "feaf": 2526,
      "................<*>']": 2527,
      "............................<*>']": 2528,
      "Ġsequencer": 2529,
      "feeaa": 2530,
      "ccbc": 2531,
      "serviceMailbox": 2532,
      "aede": 2533,
      "SIZE": 2534,
      "bffffd": 2535,
      "daabe": 2536,
      "MailboxMonitor": 2537,
      "Added": 2538,
      "Ġaaecab": 2539,
      "Ġsubnets": 2540,
      "ĠTLBEntry": 2541,
      "ĠinitializeAppMemory": 2542,
      "serviceMailboxes": 2543
    },
    "merges": [
      "* >",
      "< *>",
      "Ġ <*>",
      "o r",
      "Ġ '",
      "i n",
      "Ġ c",
      "r e",
      "e r",
      "c t",
      "i o",
      "e d",
      "Ġ s",
      "Ġ a",
      "Ġ<*> ,",
      "d e",
      "Ġ<*> '",
      "Ġ f",
      "Ġ m",
      "a r",
      "Ġ p",
      "Ġ i",
      "r or",
      "ct ed",
      "Ġc or",
      "in g",
      "s s",
      "a t",
      "Ġ er",
      "g e",
      "Ġ in",
      "c io",
      "cio d",
      "= <*>",
      "n o",
      "io n",
      "h e",
      "Ġi s",
      "i t",
      "a l",
      "Ġ o",
      "Ġer ror",
      "i l",
      "y m",
      "Ġs ym",
      "Ġcor re",
      "r a",
      "Ġcorre cted",
      "Ġ no",
      "a s",
      "Ġ d",
      "Ġ t",
      "Ġa t",
      "Ġ de",
      "o de",
      "n d",
      "l o",
      "as k",
      "C E",
      "Ġm ask",
      "r u",
      "r o",
      "c k",
      "ar d",
      "Ġc ard",
      "ct ion",
      "s t",
      "Ġ E",
      "c e",
      "t e",
      ". <*>",
      "Ġ C",
      "Ġp ro",
      "i d",
      "Ġp ar",
      "e t",
      "e s",
      "a d",
      "Ġ R",
      "te cted",
      "a c",
      "a ge",
      "ac he",
      "it y",
      "Ġpar ity",
      "Ġc ache",
      "Ġf or",
      "o l",
      "Ġde tected",
      "Ġf il",
      "r ror",
      "er at",
      "ĠE rror",
      "ru ction",
      "st ruction",
      "in struction",
      "Ġ A",
      "Ġ' <*>",
      "Ġ or",
      "Ġ b",
      "n erat",
      "Ġcor e",
      "ge nerat",
      "Ġ ra",
      "Ġo n",
      "Ġ re",
      "=<*> ,",
      "ad ing",
      "p t",
      "Ġ M",
      "i v",
      "Ġ O",
      "g ra",
      "gra m",
      "Ġpro gram",
      "Ġ L",
      "Ġno t",
      "ĠO K",
      "c h",
      "Ġa nd",
      "u n",
      "Ġ J",
      "N ode",
      "d r",
      "a n",
      "Ġ (",
      "Ġd dr",
      "a m",
      "t er",
      "Ġt o",
      "i g",
      "Ġ v",
      "i re",
      "Ġo f",
      "i ss",
      "ig n",
      "e c",
      "Ġno de",
      "Ġ :",
      "lo ck",
      "l y",
      "re ss",
      "Ġ T",
      ".<*> '",
      "ce iv",
      "Ġfil e",
      "Ġs u",
      "L E",
      "Ġa ss",
      "Ġs t",
      "l e",
      "A G",
      "T AG",
      "ĠC lock",
      "es et",
      "ĠR eset",
      "ĠJ TAG",
      "Ġ<*> .<*>",
      "ol t",
      "Ġra il",
      "Ġv olt",
      "ĠT he",
      "e ss",
      "ess age",
      "generat ing",
      "Ġm essage",
      "Ġ P",
      "u s",
      "=<*> '",
      "Ġ N",
      "Ġ lo",
      "Ġ V",
      "re am",
      "P D",
      "ĠV PD",
      "Ġst at",
      "Ġin ter",
      "ru pt",
      "Ġinter rupt",
      ": <*>",
      "ck et",
      "Ġp re",
      "ire ct",
      "or y",
      "S t",
      "ĠN o",
      "Ġ<*> :<*>",
      "u t",
      "Ġd irect",
      "Ġdirect ory",
      "o cket",
      "Ġsu ch",
      "Ġpre f",
      "Ġb it",
      "Ġs ocket",
      "i x",
      "io St",
      "Ġpref ix",
      "ioSt ream",
      ". .",
      "n t",
      "al id",
      "v alid",
      "Ġin valid",
      "iss ing",
      "Ġf u",
      "Ġm issing",
      "c r",
      "m age",
      "Ġi mage",
      "Ġlo ading",
      "Ġre ading",
      "ĠC ioStream",
      "ĠR e",
      "Ġs ign",
      "Ġsign al",
      "Ġc ode",
      "d ress",
      "d dress",
      "Ġa ddress",
      "r no",
      "Ġer rno",
      "ceiv ed",
      "ĠRe ceived",
      "i c",
      "Ġfil es",
      "Ġstat us",
      "r t",
      "Ġ generat",
      "Ġgenerat ed",
      ". '",
      "Ġ w",
      "t al",
      "p e",
      "Ġ S",
      "b ol",
      "Ġsym bol",
      "n k",
      "Ġra nk",
      "o nd",
      "ec ond",
      "econd s",
      "t o",
      "p ut",
      "Ġin put",
      "er t",
      "o u",
      "at ion",
      "ert ed",
      "Ġ e",
      "a il",
      "Ġp o",
      "Ġf ail",
      "Ġfail ed",
      "C H",
      "in t",
      "Ġpo int",
      "e nt",
      "un t",
      "m b",
      "o unt",
      "g l",
      "Ġb gl",
      "Ġbgl io",
      "to tal",
      "er m",
      "ct iv",
      "Ġ I",
      "l an",
      "Ġa ctiv",
      "Ġde ar",
      "G O",
      "O D",
      "GO OD",
      "ĠI S",
      "T I",
      "R R",
      "O R",
      "RR OR",
      "R T",
      "ĠA S",
      "p lan",
      "id plan",
      "idplan e",
      "Ġ F",
      "I C",
      "Ġm ount",
      "ĠS e",
      "f or",
      "A I",
      "un ction",
      "for m",
      "L u",
      "st re",
      "LE D",
      "ĠF AI",
      "Lu stre",
      "ĠFAI LED",
      "v er",
      "Ġf unction",
      "Ġfunction al",
      "l ly",
      "Ġfu lly",
      "Ġactiv e",
      "Ġass erted",
      "o w",
      "ĠM idplane",
      "I N",
      "A T",
      "P GOOD",
      "ĠM PGOOD",
      "V E",
      "C TI",
      "ĠA CTI",
      "ĠACTI VE",
      "ĠE RROR",
      "ĠL AT",
      "ĠLAT CH",
      "Ġ<*>:<*> ,",
      "le ct",
      "ĠA LE",
      "ĠALE RT",
      "ge t",
      "Ġa re",
      "h y",
      "ĠM ode",
      "ĠL ow",
      "ĠP hy",
      "ĠAS IC",
      "ĠSe lect",
      "ĠALERT s",
      "Ġ get",
      "e mb",
      "emb ly",
      "C an",
      "Ġin form",
      "Ġass embly",
      "Ġinform ation",
      "Ġerror s",
      "<*> )",
      "Ġ U",
      "O G",
      "ĠL OG",
      "ĠLOG IN",
      "ce ss",
      "Ġinterrupt s",
      "he ck",
      "Ġc heck",
      "it ic",
      "itic al",
      "Ġs econds",
      "Ġ ec",
      "Ġpro cess",
      "Ġprocess or",
      "Ġec id",
      "Ġs lo",
      "Ġslo t",
      "<*> '",
      "i ed",
      "Ġ<*> )",
      "Ġe x",
      "at ch",
      "Ġd o",
      "pt ion",
      "ce ption",
      "ou nd",
      "Ġ /",
      "Ġf ound",
      "Ġm atch",
      "g b",
      "Ġ( <*>)",
      "Ġo ver",
      "d cr",
      "Ġi ar",
      "Ġa l",
      "Ġex ception",
      "m ent",
      "ign ment",
      "Ġal ignment",
      "Ġexception s",
      "p p",
      "b le",
      "y pe",
      "Ġt ype",
      ".. ..",
      "n ied",
      "Ġde nied",
      "iss ion",
      "ĠP erm",
      "ĠPerm ission",
      "=<*> )",
      "Ġc h",
      "Ġt he",
      "=<*>) :",
      "un it",
      "n e",
      "h er",
      "ress ing",
      "Ġfu rt",
      "pp ressing",
      "Ġfurt her",
      "Ġw ire",
      "rt s",
      "am e",
      "n ing",
      "Ġs ame",
      "ar ning",
      "cr itical",
      "Ġw arning",
      "f ter",
      "Ġa fter",
      "Ġ<*>:<*> :",
      "Ġre ceiv",
      "m m",
      "i m",
      "at ing",
      "Ġreceiv er",
      "Ġm a",
      "o n",
      "er ne",
      "erne l",
      "at a",
      "[ '",
      "i p",
      "Ġ =",
      "d o",
      "ic ro",
      "Ġch ip",
      "Ġi p",
      "u ppressing",
      "at ed",
      "s econds",
      "Ġm icro",
      "Ġmicro seconds",
      "s uppressing",
      "k ernel",
      "Ġ kernel",
      "in ated",
      "as on",
      "Ġt erm",
      "Ġre ason",
      "Ġterm inated",
      "Ġt im",
      "or us",
      "u mm",
      "o nt",
      "Ġt orus",
      "h umm",
      "Ġd ou",
      "humm er",
      "Ġdou ble",
      "Ġstat e",
      "re e",
      "Ġt ree",
      "ro l",
      "ont rol",
      "y n",
      "lo ating",
      "Ġma p",
      "Ġcorre ct",
      "a ble",
      "<*> -",
      "' ]",
      "Ġc r",
      "i ar",
      "g er",
      "Ġf loating",
      "i pe",
      "Ġp ipe",
      "Ġ D",
      "Ġcr itical",
      "Ġ l",
      "Ġto tal",
      "f f",
      "Ġo ut",
      "s yn",
      "v ent",
      "Ġe vent",
      "syn ch",
      ".... ....",
      "p u",
      "d ata",
      "er v",
      "i ce",
      "erv ice",
      "Ġc pu",
      "u g",
      "Ġtim e",
      "C ontrol",
      "I do",
      "in e",
      "Ġin to",
      "c ation",
      "b ug",
      "Ġi do",
      "g ed",
      "an ged",
      "Ġch anged",
      "Ġb lock",
      "Ġa s",
      "m pt",
      "Ġat te",
      "mpt ing",
      "Ġatte mpting",
      "Ġ -",
      "Ġpar t",
      "b as",
      "ata bas",
      "atabas e",
      "Ġin s",
      "N e",
      "Ġd atabase",
      "Ġins erted",
      "Ne w",
      "ĠA ction",
      "ĠS ervice",
      "Ġma x",
      "Ġs pe",
      "Ġspe nt",
      "Ġsu ppressing",
      "Ġlo cation",
      "bug ger",
      "Ġde bugger",
      "D es",
      "e tected",
      "i pt",
      "l Control",
      "or s",
      "Ġp ol",
      "Ġd ied",
      "cr ipt",
      "ĠD etected",
      "Des cript",
      "lControl Descript",
      "Ġpol lControlDescript",
      "ĠpollControlDescript ors",
      "o f",
      "a nd",
      "i rt",
      "D irt",
      "Ġ #",
      "of Dirt",
      "ofDirt y",
      "ro m",
      "Ġf rom",
      "ad er",
      "e n",
      "Ġc re",
      "Ġcre ating",
      "Ġl ine",
      "A CH",
      "Ġ r",
      "Ġb ad",
      "[' <*>",
      "Ġtim ed",
      "he ader",
      "Ġ header",
      "Ġ h",
      "l er",
      "q u",
      "u mb",
      "umb er",
      "x pe",
      "xpe cted",
      "e m",
      "t r",
      "u r",
      "Ġ<*>:<*> '",
      "Ġre tr",
      "p ly",
      "qu en",
      "ĠE xpected",
      "ĠRe ply",
      "quen ce",
      "Ġre ad",
      "<*> =<*>",
      "C ioStream",
      "Ġc ontrol",
      "Ġst ream",
      "p erat",
      "Ġcorrect able",
      "de x",
      "Ġin dex",
      "s e",
      "o mm",
      "ar y",
      "b s",
      "<*> ,",
      "Ġin st",
      "Ġw as",
      "u m",
      "l s",
      "Ġc al",
      "Ġs ing",
      "Ġd ur",
      "an ce",
      "im um",
      "Ġmax imum",
      "and ler",
      "Ġr bs",
      "Ġh andler",
      "Ġinst ance",
      "Ġcal ls",
      "Ġsing le",
      "Ġdur ing",
      "u re",
      "ff ff",
      "on ne",
      "Ġsu mm",
      "Ġsumm ary",
      "onne ction",
      "in es",
      "ĠC onnection",
      "b l",
      "age s",
      "K ernel",
      "Ġin te",
      "Ġinte ger",
      "ĠD C",
      "D bl",
      "L ines",
      "W or",
      "Ġa ver",
      "ofDirty Dbl",
      "ofDirty Lines",
      "ACH E",
      "ĠDC ACHE",
      "Wor d",
      "Ġaver ages",
      "ofDirtyDbl Word",
      "ĠC omm",
      "em perat",
      "emperat ure",
      "Ġ(<*>) '",
      "d u",
      "N F",
      "y ing",
      "Ġs le",
      "ĠM ount",
      "Ġretr ying",
      "NF S",
      "Ġsle pt",
      "S R",
      "ĠP SR",
      "........ ........",
      "u al",
      "N umber",
      "e quence",
      "ct ual",
      "ĠA ctual",
      "ĠO p",
      "ĠS yn",
      "ĠComm and",
      "equence Number",
      "ĠSyn c",
      "Ġ<*>' ]",
      "H E",
      ".. .",
      "in k",
      "Ġ- -",
      "o pp",
      "Ġst opp",
      "Ġstopp ing",
      "ec ut",
      "Ġex ecut",
      "i z",
      "d dr",
      "Ġ un",
      "x ception",
      "Ġ<*>) '",
      "h t",
      "an t",
      "C K",
      "E xception",
      "a v",
      "j av",
      "Ġ jav",
      "Ġjav a",
      "Ġl r",
      "re c",
      "M ACH",
      "ĠC HE",
      "IN E",
      "MACH INE",
      "ĠCHE CK",
      "Ġs te",
      "Ġste er",
      "h ine",
      "ac hine",
      "f p",
      "fp r",
      "i st",
      "g ist",
      "gist er",
      "i s",
      "Ġl ink",
      "iz ed",
      "Ġp an",
      "Ġpan ic",
      "Ġexecut ion",
      "Ġ B",
      "L B",
      "ĠT LB",
      "X F",
      "Ġc able",
      "Ġsteer ing",
      ".. .<*>'",
      "e e",
      "rec o",
      "ĠL im",
      "ĠLim it",
      "ad dr",
      "g n",
      "Ġs ent",
      "Ġtree addr",
      "Ġun reco",
      "gn ized",
      "Ġunreco gnized",
      "ĠM essage",
      "nd ant",
      "Ġre du",
      "Ġredu ndant",
      "Ġactiv ating",
      "s pp",
      "<*> /",
      "spp m",
      "o ut",
      "Ġtime out",
      "i es",
      "Ġre gister",
      "Ġre ver",
      "Ġ-- >",
      "Ġrever se",
      "m achine",
      "n al",
      "E RT",
      "S ERT",
      "ĠAS SERT",
      "Ġ ...",
      "n able",
      "Ġb e",
      "ĠP GOOD",
      "O T",
      "ĠN OT",
      "Ġto o",
      "Ġ >",
      "Ġb ig",
      "e x",
      "ter nal",
      "ex ternal",
      "I XF",
      "ĠP IXF",
      "Ġt h",
      "O N",
      "ff f",
      "A TI",
      "E RROR",
      "M M",
      "N IC",
      "O MM",
      "U NIC",
      "ĠC OMM",
      "ATI ON",
      "UNIC ATION",
      "ĠCOMM UNICATION",
      "ĠN umber",
      "I s",
      "O k",
      "O ut",
      "S equenceNumber",
      "Ġs equenceNumber",
      "Ġf al",
      "Ġt ru",
      "ĠSe quence",
      "Ġtimed Out",
      "Ġretr ies",
      "ĠExpected SequenceNumber",
      "Is Ok",
      "ĠsequenceNumber IsOk",
      "Ġfal se",
      "Ġtru e",
      "ffff fff",
      "Ġc a",
      "Ġf fffffff",
      "ug ht",
      "Ġca ught",
      "S w",
      "it ch",
      "Sw itch",
      "Ġe nable",
      "d is",
      "dis able",
      "n et",
      "T emperature",
      "ĠO ver",
      ". .<*>'",
      "D o",
      "Ġb y",
      "p ro",
      "ĠT emperature",
      "S ervice",
      "it h",
      "Ġw ith",
      "l d",
      "St at",
      "lan g",
      "e Exception",
      "E rror",
      "er form",
      "Ġp erform",
      "Control ler",
      "o du",
      "odu le",
      "i ble",
      "c cess",
      "Ġa ccess",
      "d b",
      "a re",
      "... .<*>'",
      "p ar",
      "Ġm odule",
      "w er",
      "Ġpo wer",
      "Ġaccess ible",
      "M idplane",
      "Switch Controller",
      "Midplane SwitchController",
      "ĠA ss",
      "ert ion",
      "ig ht",
      "M icro",
      "lo ader",
      "ĠAss ertion",
      "Micro loader",
      "Ġbe ing",
      "f loating",
      "r ce",
      "ĠS ou",
      "ĠSou rce",
      "Ġp a",
      "Ġpa cket",
      "=<*>' ]",
      "................ ........",
      "il e",
      "l b",
      "N K",
      "k pt",
      "l ight",
      "ĠC NK",
      "ch kpt",
      "m ode",
      "ĠV N",
      "Ġf i",
      "U T",
      "ra in",
      "s ent",
      "Ġpre sent",
      "M issing",
      "ĠC able",
      "ĠB UT",
      "or t",
      "perat ion",
      "I l",
      "g al",
      "le gal",
      "Stat eException",
      "Il legal",
      "Illegal StateException",
      "Ġ g",
      "p are",
      "ar t",
      "h ile",
      "Ġ'<*> '",
      ".... ..<*>'",
      "Ġ Z",
      "F or",
      "P re",
      "Ġdo ne",
      "Ġth is",
      "pare For",
      "Pre pareFor",
      "PrepareFor Service",
      "us e",
      "Ġm an",
      "a ger",
      "Ġman ager",
      "in valid",
      "or e",
      ".' ]",
      "et ch",
      "<*>) ,",
      "Ġ ne",
      "Ġs ervice",
      "y st",
      "un ic",
      "yst em",
      "Ġs par",
      "Ġperform ing",
      "Ġspar ing",
      "c ache",
      "s h",
      "id o",
      "I Do",
      "x t",
      "irect IDo",
      "em ory",
      "m emory",
      "Ġg o",
      ".<*>' ]",
      "D R",
      "<*> =<*>'",
      "I O",
      "IO Exception",
      "ou ld",
      ": '",
      "u e",
      "ec a",
      "Ġb eca",
      "Ġbeca use",
      "lo cation",
      "Ġal location",
      "Ġne xt",
      "de bug",
      "Ġm ode",
      "Ġp t",
      ".... ....<*>'",
      "le ar",
      "ĠP R",
      "Ġc lear",
      "Ġt emperature",
      "Ġ- <*>,",
      "ĠPR XF",
      "ee ee",
      "Ġp lb",
      "ĠL atch",
      "E D",
      "ĠM ask",
      "ĠASSERT ED",
      "Ġfiles ystem",
      "Ġun able",
      "x y",
      "pro xy",
      "ido proxy",
      "idoproxy db",
      "Ġc omm",
      "Ġ X",
      "Ġ Y",
      "ĠC ould",
      "Ġi Do",
      "a g",
      "p l",
      "i al",
      "ĠRe gister",
      "g u",
      "ar an",
      "te ed",
      "gu aran",
      "guaran teed",
      "it ial",
      "Ġpref etch",
      "ic ache",
      "t orus",
      "Ġt rain",
      "Ġw ant",
      "Ġtrain ing",
      "Ġwant ed",
      "e ld",
      "en able",
      "Ġfi eld",
      "re sh",
      "ol d",
      "Ġth resh",
      "Ġthresh old",
      "Ġh as",
      "ĠM issing",
      "Ġfield s",
      "L ct",
      "m Lct",
      "mLct n",
      "k en",
      "ro ken",
      "ĠB roken",
      "S ocket",
      "Socket Exception",
      "t ag",
      "ĠJ tag",
      "Ġc ond",
      "it ion",
      "ĠF unction",
      "Ġh it",
      "Ġcond ition",
      "Ġc on",
      "Ġregister s",
      "w or",
      "wor k",
      "Ġ net",
      "Ġnet work",
      "u p",
      "Ġ up",
      "Ġreceiv ing",
      "u nd",
      "Ġm achine",
      "A M",
      "........................ .<*>'",
      "ro ble",
      "roble m",
      "A ction",
      "E nd",
      "Service Action",
      "Ġperform ed",
      "Ġup on",
      "End ServiceAction",
      "l i",
      "Ġ CE",
      "ĠS uppressing",
      "it or",
      "on itor",
      "o se",
      "p ose",
      "Ġp ur",
      "Ġpur pose",
      "G L",
      "ĠO peration",
      "Ġw hile",
      "Ġexecut ing",
      "c a",
      "O L",
      "ĠR AI",
      "ĠT HE",
      "ĠV OL",
      "ĠRAI L",
      "ĠVOL T",
      "Ġo peration",
      "C ard",
      "D irectIDo",
      "st art",
      "Ġbe en",
      "ro und",
      "pt ure",
      "ca pture",
      "B ad",
      "ĠL ink",
      "ĠP ort",
      "Ġwire s",
      "Ġgo ing",
      "ĠLink Card",
      "Ġ us",
      "Ġc li",
      "Ġus able",
      "Ġcli ent",
      "W hile",
      "f ig",
      "ow er",
      "P roblem",
      "unic ating",
      "Ġcomm unicating",
      "P ower",
      "Ġ'<*> :<*>",
      "........ ...<*>'",
      "Ġ Stat",
      "a ctiv",
      "Ġde activ",
      "Ġdeactiv ated",
      "par ity",
      ".... ...<*>'",
      "Ġp ort",
      "DR AM",
      "a ct",
      "r st",
      "ĠE DRAM",
      "Ġfi rst",
      "R unt",
      "im eException",
      "ĠComm unic",
      "Runt imeException",
      "ĠCommunic ation",
      "Ġ<*> :",
      ": :",
      "n umber",
      "( )",
      "lo g",
      "Ġl atch",
      "ĠL P",
      "( <*>)",
      "Ġlatch ed",
      "her net",
      "a p",
      "T rain",
      "t hernet",
      "in d",
      "Ġf ind",
      "ĠE thernet",
      "ad dress",
      "ĠEthernet Switch",
      "ĠI n",
      "Ġ- <*>)",
      "ee e",
      "eeee eee",
      "t lb",
      "st ore",
      "........................ ...<*>'",
      "i se",
      "p rec",
      "im prec",
      "imprec ise",
      "x er",
      "Ġ xer",
      "Ġst art",
      "ur ation",
      "fig uration",
      "pro gram",
      "Ġstart ed",
      "m in",
      "Ġe of",
      "ĠU ne",
      "pl us",
      "min us",
      "ĠUne xpected",
      "Ġ-<*>) '",
      "Ġgo t",
      "ad c",
      "Ġin itial",
      "Ġinitial iz",
      "Ġinitializ ing",
      "ĠI P",
      "p ert",
      "pro pert",
      "propert ies",
      "Ġa pu",
      "Ġin struction",
      "as t",
      "ro adc",
      "Ġb roadc",
      "Ġbroadc ast",
      "ĠStat us",
      "e Train",
      "re ceiv",
      "Ġi ap",
      "receiv eTrain",
      "/ <*>",
      "Ġlo ad",
      "for ce",
      "........ .......<*>'",
      "f o",
      "B GL",
      "o m",
      "s id",
      "ac ing",
      "Ġre pl",
      "Ġcon sid",
      "Ġrepl acing",
      "Ġconsid er",
      "= /<*>",
      "n in",
      "Ġc ont",
      "ĠU nin",
      "ĠD irectIDo",
      "itial ized",
      "Ġcont act",
      "ĠUnin itialized",
      "u l",
      ".... .<*>'",
      "p re",
      "m onitor",
      "f e",
      ") '",
      "s umm",
      "summ ary",
      "ul t",
      "Ġ<*> .",
      "re ad",
      "Ġm ult",
      "Ġsymbol s",
      "ĠU nable",
      "Ġal read",
      "ip le",
      "ĠD ue",
      "Ġmult iple",
      "Ġalread y",
      "c on",
      "as ter",
      "D DR",
      "Ġb an",
      "Ġban k",
      "c ore",
      "Ġcon figuration",
      "j o",
      "re ed",
      "Ġf reed",
      "ĠB lock",
      "jo b",
      "ĠRegister s",
      "w ard",
      "Ġto ward",
      "l ue",
      "................ .<*>'",
      "a x",
      "Ġ $",
      "( <*>),",
      "m ax",
      "I p",
      "T ype",
      "Ġm Ip",
      "Ġm Type",
      "(<*>) )",
      "er ver",
      "ffff ffff",
      "u x",
      "c s",
      "s erver",
      "mm cs",
      "Ġal l",
      "<*>' ]",
      "er s",
      "s ed",
      "Ġc lo",
      "Ġclo sed",
      "Ġm onitor",
      "w are",
      "ard ware",
      "f etch",
      "Ġde pt",
      "pre fetch",
      "Ġdept h",
      "r it",
      "H ardware",
      "........ ....<*>'",
      "e ue",
      "Ġ qu",
      "Ġqu eue",
      "- '",
      "Ġ number",
      "Ġcomm and",
      "re at",
      "Ġth an",
      "Ġg reat",
      "Ġgreat er",
      "<*> :<*>",
      "lo w",
      "M aster",
      "s ol",
      "BGL Master",
      "con sol",
      "consol e",
      "fe a",
      "Ġinter nal",
      "M achine",
      "f ra",
      "f low",
      "Ġc om",
      "................ ........<*>'",
      "fra ction",
      "d ow",
      "ut dow",
      "sh utdow",
      "shutdow n",
      "C R",
      "b it",
      ". /",
      "Ġ ./",
      "Ġd b",
      "db properties",
      "Ġ unit",
      "D CR",
      "Ġin fo",
      "A ddress",
      "p Address",
      "ĠI pAddress",
      "re s",
      "b gl",
      "........ ........<*>'",
      "f ile",
      "ce ed",
      "Ġex ceed",
      "c om",
      "o d",
      "Ġma y",
      "ĠB G",
      "c or",
      "re ct",
      "cor rect",
      "correct able",
      "G o",
      "I d",
      "t ing",
      "Ġ Go",
      "Ġa ction",
      "Ġre qu",
      "ire d",
      "ĠGo od",
      "Ġrequ ired",
      "A L",
      "Ġf p",
      "b lock",
      "onne ct",
      "rec onnect",
      "ĠB GL",
      "block s",
      "iz e",
      "I n",
      "in ter",
      "ĠJtag Id",
      "In valid",
      "B lue",
      "D atabase",
      "L ight",
      "io log",
      "use Database",
      "log s",
      "Blue Light",
      "s ize",
      "he s",
      "Ġ( <*>",
      "rit e",
      "Ġl ines",
      "................ ..<*>'",
      "Ġfail ing",
      "inter rupt",
      "of t",
      "R AM",
      "Ġ ro",
      "Ġb a",
      "R un",
      "ciod b",
      "Ġre start",
      "ĠS RAM",
      "Ġexceed ed",
      "Ġrestart ed",
      "e xception",
      "g round",
      "Ġd ata",
      "ck ground",
      "Ġba ckground",
      "Run ning",
      "] '",
      "l ing",
      "w s",
      "Ġ [",
      "Ġ ]'",
      "St art",
      "ĠS ystem",
      "Control ling",
      "Ġro ws",
      "Start ing",
      "ĠSystem Controller",
      "f a",
      "f ee",
      "Ġ'<*> :",
      "G e",
      "N ame",
      "f l",
      "in fo",
      "er info",
      "Ġpar am",
      "et ers",
      "us h",
      "us erinfo",
      "ĠB lue",
      "enable fl",
      "log userinfo",
      "ĠIn put",
      "Ge ne",
      "Ġparam eters",
      "ĠBlue Gene",
      "enablefl ush",
      "a ux",
      "il iar",
      "aux iliar",
      "auxiliar y",
      "l r",
      "Ġc tr",
      "b y",
      "ĠD DR",
      "i b",
      "ib m",
      "at e",
      "L in",
      "b u",
      "h omm",
      "q x",
      "Ġ ..",
      "il d",
      "pre qx",
      "Lin ux",
      "bu ild",
      "homm e",
      "Ġ.. /",
      "Ġd cache",
      "................ ....<*>'",
      "p ort",
      "s oft",
      "soft header",
      "e out",
      "t ail",
      "t im",
      "Ġde tail",
      "ĠP roblem",
      "Ġget ting",
      "Ġh w",
      "tim eout",
      "Ġdetail ed",
      "ĠProblem s",
      "m aster",
      "in it",
      "Ġbgl master",
      "fig file",
      "con figfile",
      "console ip",
      "console port",
      "z er",
      "zer o",
      "Ġc ould",
      "=<*>) '",
      "................ .....<*>'",
      "fea a",
      "n v",
      "C ore",
      "ĠC on",
      "ĠCon figuration",
      "ĠC heck",
      "ĠStat e",
      ") ...<*>'",
      "F loating",
      "a N",
      "a bl",
      "b j",
      "d iv",
      "e ct",
      "i de",
      "i et",
      "m s",
      "o int",
      "o ver",
      "s cr",
      "x act",
      "Ġ es",
      "Ġ<*> ]",
      "Ġc cr",
      "Ġc nv",
      "er flow",
      "Ġo bj",
      "Ġd bs",
      "ĠC ontrol",
      "an M",
      "Ġv ers",
      "ĠP oint",
      "ĠN aN",
      "ĠF anM",
      "erv ed",
      "ine xact",
      "en abl",
      "qu iet",
      "................ ......<*>'",
      "................ .......<*>'",
      "................ .................<*>'",
      "db cr",
      "........................ ........<*>'",
      "und erflow",
      "res erved",
      "Ġfp scr",
      "div ide",
      "ms r",
      "over flow",
      "Ġes r",
      "Ġcnv t",
      "Ġobj ect",
      "Ġdbs r",
      "Ġvers ion",
      "enabl ed",
      "are st",
      "........................ ....<*>'",
      "Ġne arest",
      "a ut",
      "Ġ y",
      "Ġ<*>:<*> ']",
      "ore start",
      "aut orestart",
      "Ġs e",
      "p le",
      "Ġcom ple",
      "Ġcomple te",
      "f d",
      "Ġra ck",
      "st ate",
      "j or",
      "Ġma jor",
      "ss ible",
      "Ġpo ssible",
      "<*>:<*> '",
      "u ff",
      "uff er",
      "F ound",
      "Ġ \"",
      "c lo",
      "c hes",
      "f res",
      "o on",
      "t ur",
      "w rite",
      "Ġs oon",
      "de n",
      "Ġp ages",
      "st and",
      "id den",
      "et ches",
      "Ġb uffer",
      "Ġre fres",
      "Ġ<*>:<*> ..................<*>'",
      "Ġpref etches",
      "Ġw rite",
      "Ġout stand",
      "Ġh idden",
      "Ġcomm it",
      "clo se",
      "tur n",
      "Ġrefres hes",
      "Ġoutstand ing",
      "c d",
      "' s",
      "c an",
      "c omm",
      "g ct",
      "g ing",
      "l ag",
      "m ask",
      "m is",
      "q w",
      "s ym",
      "re gct",
      "Ġs can",
      "Ġf lag",
      "ra pp",
      "Ġt rapp",
      "te n",
      ".<*> \"",
      "Ġb us",
      "ch ip",
      "un correctable",
      "Ġv alid",
      "Ġinter fa",
      "Ġw rit",
      "ĠU E",
      "........ .<*>'",
      "................ ....................<*>'",
      "ĠEDRAM s",
      "com pare",
      "Ġse lect",
      "comm and",
      "mis compare",
      "sym bol",
      "regct l",
      "Ġscan com",
      "Ġflag ging",
      "Ġtrapp ed",
      "Ġinterfa ce",
      "Ġwrit ten",
      "Ġst ore",
      "us ed",
      "Ġca used",
      "ĠFanM odule",
      "pro file",
      "h is",
      "t his",
      ":<*> '",
      "Ġex it",
      "V AL",
      "........ .....<*>'",
      "e a",
      "a e",
      "Ġs et",
      "Ġf an",
      "Ġspe ed",
      "Ġset ting",
      "fee a",
      "m ap",
      "t xt",
      "Ġm y",
      "f b",
      "ĠF ail",
      "ĠIn fo",
      "D O",
      "c onne",
      "Ġd is",
      "nd Train",
      "se ndTrain",
      "conne cted",
      "Ġdis connected",
      "B AL",
      "E S",
      "E RR",
      "E CK",
      "I TI",
      "O BAL",
      "P T",
      "T ERR",
      "U ES",
      "U PT",
      "f c",
      "m al",
      "n or",
      "y nd",
      "CH ECK",
      "IN ITI",
      "IN TERR",
      "rom e",
      "GL OBAL",
      "Ġexit ed",
      "VAL UES",
      "mal ly",
      "nor mally",
      "ynd rome",
      "INITI AL",
      "INTERR UPT",
      "Ġ<*>) ']",
      "Ġfail ure",
      "Ġs yndrome",
      "Ġs oft",
      "iv e",
      "cess ive",
      "Ġex cessive",
      "Ġfailure s",
      "b d",
      "Node Card",
      "ffff ff",
      "Ġc ur",
      "re nt",
      "ĠI Do",
      "Ġcur rent",
      "Ġcurrent ly",
      "a a",
      "Ġa b",
      "Ġ'<*>:<*> :",
      "fe fff",
      "Ġd ue",
      "ort ed",
      "Ġab normally",
      "+ '",
      ":<*> :",
      "c f",
      "b orted",
      "ĠA borted",
      "<*> :",
      "b g",
      "c li",
      "l li",
      "q lli",
      "s qlli",
      "bg db",
      "sqlli b",
      "d ate",
      "Ġup date",
      "........................ .....<*>'",
      "ffffff e",
      "d er",
      "Ġor der",
      "Ġb ut",
      "by te",
      "Ġorder ing",
      "E xpected",
      "l es",
      "Ġ )",
      "ĠF ound",
      "odu les",
      "ĠFanM odules",
      "b b",
      "b f",
      "c c",
      "Ġ .............<*>'",
      "Ġb f",
      "C h",
      "d f",
      "Ġcor rupt",
      "ffff c",
      "Ġexceed s",
      "B gl",
      "E O",
      "Ġt able",
      "ĠI DO",
      "Ido Ch",
      "Ġpacket s",
      "Ġman y",
      "Ġ-<*>) ']",
      "Ġ) .'",
      "Bgl IdoCh",
      "ĠIDO s",
      "BglIdoCh ip",
      "d d",
      "s ervice",
      "I DO",
      "K T",
      "M EO",
      "P KT",
      "b a",
      "l ink",
      "Ġc onnection",
      "LE RR",
      "Ġlo st",
      "TI MEO",
      "Ġ'<*>:<*> :<*>'",
      "ĠBG LERR",
      "TIMEO UT",
      "c b",
      "a f",
      "d c",
      "B ul",
      "M odule",
      "a b",
      "e nd",
      "k Power",
      "v ice",
      "de vice",
      "ar get",
      "ĠV end",
      "bgl device",
      "Bul kPower",
      "ĠVend or",
      "bgldevice s",
      "BulkPower Module",
      "Ġb fd",
      "Ġb ff",
      "<*>:<*> :<*>",
      "e ad",
      "Ġ'<*>:<*> :<*>",
      "/ /",
      ": //",
      "A l",
      "F F",
      "J TAG",
      "T arget",
      "b c",
      "l l",
      "Ġpa p",
      "parity Al",
      "parityAl ignment",
      "e f",
      "Ġ(<*>) ']",
      "Ġse nd",
      "Ġ et",
      "Ġb fe",
      "Ġet hernet",
      "R s",
      "T orus",
      "ct ing",
      "Ġf ol",
      "Ġno n",
      "pe cting",
      "ver able",
      "Ġex pecting",
      "Ġinst ead",
      "ĠDC Rs",
      "Ġun correctable",
      "reco verable",
      "Ġfol low",
      "N o",
      "ed b",
      "M s",
      "b e",
      "Ms g",
      "s or",
      "Ġs en",
      "Ġb fc",
      "......<*>' ]",
      "Ġsen sor",
      "Ġb fb",
      "<*>:<*> :",
      "Ġsend ing",
      "Ġ normally",
      "Ġ'<*> ']",
      "AG E",
      "ffff ca",
      "cd f",
      "A D",
      "D AT",
      "I M",
      "I DAT",
      "L O",
      "e b",
      ".... .<*>']",
      "CR C",
      "VAL IDAT",
      "IM AGE",
      "LO AD",
      "VALIDAT E",
      "B M",
      "R e",
      "V p",
      "d Re",
      "k ee",
      "n ation",
      "o kee",
      "v is",
      "er ial",
      "Ġf a",
      "ĠC her",
      "ter nation",
      "ĠP art",
      "ĠRe vis",
      "ĠS erial",
      "ĠI BM",
      "ĠAss embly",
      "ĠIn ternation",
      "Vp dRe",
      "ĠCher okee",
      "ĠRevis ion",
      "ĠInternation al",
      "VpdRe ply",
      "ec f",
      "fa b",
      "a bd",
      "ign ed",
      "Ġfa ult",
      "bd a",
      "P ll",
      "c db",
      "c lear",
      "Ġ lock",
      "ar sh",
      "al er",
      "Ġal igned",
      "<*>:<*>:<*> /",
      "arsh aler",
      "I T",
      "S com",
      "e fe",
      "f de",
      "p ower",
      "...<*>' ]",
      "Scom Error",
      "F B",
      "J tag",
      "Ġ `",
      "Ġ zero",
      "ĠA ll",
      "Ġb d",
      "Ġb ed",
      "Ġlo w",
      "........................ .<*>']",
      "Ġgo od",
      "........<*>' ]",
      "<*>:<*> :<*>'",
      "fb d",
      "Jtag Id",
      "Ġzero s",
      "c fc",
      "Ġ= =",
      "........................ .....<*>']",
      "fd f",
      "ffffff c",
      "E R",
      "P ER",
      "R ec",
      "a fa",
      "e ac",
      "ff b",
      "Ido Msg",
      "ffff f",
      "fa f",
      "fa bd",
      "fd c",
      "Rec v",
      "D e",
      "E X",
      "N ul",
      "P o",
      "S er",
      "T o",
      "b fa",
      "l Po",
      "n um",
      "o t",
      "Ġ' ]",
      "ed a",
      "Ġm Card",
      "ĠS yndrome",
      "OG RAM",
      "db c",
      "ĠPR OGRAM",
      "...........<*>' ]",
      "...........................<*>' ]",
      "inter Exception",
      "Ġro ot",
      "fa e",
      "fd d",
      "Ġsend Msg",
      "IT ED",
      "De bugger",
      "EX ITED",
      "Nul lPo",
      "Ser num",
      "To Debugger",
      "ĠmCard Sernum",
      "ĠsendMsg ToDebugger",
      "NullPo interException",
      "! (",
      ") ']",
      "= !(",
      "F E",
      "H dr",
      "L en",
      "M arshaler",
      "P ort",
      "a ed",
      "b db",
      "c pp",
      "c ca",
      "d db",
      "i ro",
      "i ag",
      "m arshaler",
      "n ment",
      "p ress",
      "Ġf ffff",
      "no se",
      "Ġd iag",
      "ĠR un",
      "Ġb ll",
      "Ġe nv",
      "ĠI do",
      "Ġex press",
      "ĠD B",
      "Ġh ardware",
      "ido marshaler",
      "cd adc",
      "fb a",
      "clear Port",
      "bdb b",
      "iro nment",
      "Ġfffff e",
      "Ġdiag nose",
      "Ġenv ironment",
      "ĠIdo Marshaler",
      "Ġexpress ion",
      "idomarshaler io",
      "Ġenvironment al",
      "S I",
      "a fb",
      "b cf",
      "b eda",
      "c fe",
      "d ff",
      "d cc",
      "f db",
      "s et",
      "de cd",
      "Ġf ea",
      "Ġd f",
      "ce b",
      "ad f",
      "Ġb c",
      "Ġb df",
      "Ġb dd",
      "Ġre set",
      "Ġass ertion",
      ":<*> \"",
      "=<*>) ']",
      "ff d",
      "Ġbe f",
      "db e",
      "cd c",
      "aa a",
      "Ġ) .']",
      "dd d",
      "Ġbff c",
      "Ġbfe b",
      "bfa a",
      "Ġreset s",
      "& )']",
      "* &)']",
      "- >",
      ": ']",
      "A S",
      "B lock",
      "B uffer",
      "E M",
      "R E",
      "R ead",
      "R SI",
      "S ON",
      "S ize",
      "U RE",
      "a it",
      "a fc",
      "b cb",
      "c de",
      "d a",
      "d fb",
      "d fc",
      "n Msg",
      "o id",
      "p ers",
      "s ion",
      "v oid",
      "Ġc b",
      "ed f",
      "Ġs erver",
      "Ġin t",
      "al ity",
      "il l",
      "Ġt arget",
      "ad d",
      "ĠM AS",
      "ĠT EM",
      "Ġst ill",
      "Ġw ait",
      "ĠF F",
      "ver sion",
      "AT URE",
      "VE RSI",
      "on ality",
      "ff ca",
      "........ .....<*>']",
      "Ġread y",
      "................ .....<*>']",
      "db d",
      "() '",
      "fe f",
      "fe ffff",
      "AL IT",
      "ĠBGL PER",
      "fa ec",
      "fa bda",
      "....................<*>' ]",
      "ea e",
      "ae f",
      "Ġbfd c",
      "abd d",
      "PER ATURE",
      "IdoMsg Hdr",
      "fabd d",
      "Recv Buffer",
      "ĠIdoMarshaler RecvBuffer",
      "Read Block",
      "SON ALIT",
      "nMsg Len",
      "pers onality",
      "Ġserver db",
      "ĠMAS K",
      "ĠTEM PERATURE",
      "Ġwait ing",
      "VERSI ON",
      "ĠBGLPER SONALIT",
      "ĠBGLPERSONALIT Y",
      "F Exception",
      "O peration",
      "R OL",
      "T ROL",
      "U n",
      "a fd",
      "b ce",
      "b ac",
      "b ffff",
      "b fee",
      "b fc",
      "b cc",
      "d de",
      "d fe",
      "d fa",
      "d cd",
      "d aa",
      "d cb",
      "d edf",
      "e fff",
      "e fa",
      "e fb",
      "f ce",
      "f ca",
      "g ment",
      "s u",
      "ed df",
      "Ġa e",
      "de a",
      "de fe",
      "Ġf ffffffe",
      "Ġf ffffffc",
      "Ġd fa",
      "ĠC ON",
      "Ġb fa",
      "Ġb faf",
      "Ġ<*>:<*> :<*>",
      "ert ing",
      "Ġe a",
      "Ġe e",
      "ĠSe gment",
      "pp orted",
      "ff c",
      "ff cd",
      "ff ae",
      "Ġins erting",
      "ee b",
      "fff c",
      "Ġca eeb",
      "ca aa",
      "fe fab",
      "fd cc",
      "fd fffff",
      "fb ab",
      "Ġbf ec",
      "Ġbf dea",
      "EO FException",
      "ba ae",
      "cb fb",
      "af db",
      "Ġbfc b",
      "Ġbfb b",
      "Ġbfb af",
      "fdc ff",
      "Operation Exception",
      "Un su",
      "fca b",
      "ĠCON TROL",
      "ĠSegment ation",
      "pported OperationException",
      "Unsu pportedOperationException",
      "D ec",
      "I o",
      "M ail",
      "N et",
      "[ \"",
      "a ad",
      "a ac",
      "a ec",
      "a ae",
      "b o",
      "b de",
      "b ff",
      "b fe",
      "b fea",
      "b ef",
      "c fa",
      "d cf",
      "d df",
      "e fc",
      "f ec",
      "l are",
      "s igned",
      "v irt",
      "| |",
      "Ġ ru",
      "Ġ .............<*>']",
      "Ġ ||",
      "<*> =<*>']",
      "Ġc f",
      "er ist",
      "Ġf e",
      "ar act",
      "Ġb fea",
      "Ġb cd",
      "Ġddr Size",
      "Ġ<*>:<*> :<*>'",
      "ic s",
      "Ġe f",
      "Ġe mpt",
      "ff aa",
      "ddr Size",
      "Ġun signed",
      "ee f",
      "fff e",
      "fff bc",
      "Service Net",
      "eca f",
      "work Ch",
      "ca f",
      "ca fc",
      "() ']",
      "ul Len",
      "Run Recv",
      "fee b",
      ")...<*>' ]",
      "fd ff",
      "cd fffe",
      "ea a",
      "ea f",
      "fb b",
      "fc b",
      "bd d",
      "bd f",
      "Ġab db",
      "bb c",
      "Ġbf ed",
      "dd c",
      "dd ab",
      "cb ad",
      "ab db",
      "ab ef",
      "Ġbfd ab",
      "Ġbff e",
      "Ġbff ee",
      "Ġbff cf",
      "Ġ'<*>:<*>:<*> :<*>",
      "ef cd",
      "Msg Hdr",
      "fde f",
      "fde ad",
      "Recv MsgHdr",
      "ĠIdoMarshaler Io",
      "afb e",
      "fdb bf",
      "Ġbffc bf",
      "faec d",
      "bffff a",
      "Dec lare",
      "Mail bo",
      "aac c",
      "fec fc",
      "virt ual",
      "Ġru n",
      "erist ics",
      "aract eristics",
      "Ġempt y",
      "fffbc cf",
      "ServiceNet workCh",
      "Declare ServiceNetworkCh",
      "Mailbo x",
      "DeclareServiceNetworkCh aracteristics",
      "& ,",
      "A pp",
      "A dd",
      "E nt",
      "M emory",
      "M onitor",
      "Z E",
      "_ <*>",
      "a ce",
      "a eca",
      "b net",
      "b ead",
      "b cdc",
      "c er",
      "c cf",
      "e xpected",
      "e bf",
      "e bda",
      "e App",
      "m u",
      "r y",
      "v addr",
      "Ġ %",
      "er ror",
      "ed efb",
      "Ġa aeca",
      "de ed",
      "Ġm mu",
      "Ġo ption",
      "ad b",
      "Ġfor ce",
      "Ġb ee",
      "Ġsu bnet",
      "ĠP AGE",
      "Ġaddress es",
      "[' <*>'",
      "Ġl ib",
      "ff a",
      "Ġ- <*>",
      "['<*> :",
      "['<*> :<*>",
      "quen cer",
      "................ .<*>']",
      "Ġun expected",
      "ĠTLB Ent",
      "fff a",
      "..<*>' ]",
      "....<*>' ]",
      "Ġinitializ eApp",
      "...............<*>' ]",
      "<*>:<*> ']",
      "fea f",
      "................<*>' ]",
      "............................<*>' ]",
      "Ġse quencer",
      "feea a",
      "cc bc",
      "service Mailbox",
      "aed e",
      "SI ZE",
      "bffff d",
      "daa be",
      "Mailbox Monitor",
      "Add ed",
      "Ġaaeca b",
      "Ġsubnet s",
      "ĠTLBEnt ry",
      "ĠinitializeApp Memory",
      "serviceMailbox es"
    ]
  }
}