{
  "version": "1.0",
  "truncation": null,
  "padding": null,
  "added_tokens": [
    {
      "id": 0,
      "content": "<s>",
      "single_word": false,
      "lstrip": false,
      "rstrip": false,
      "normalized": true,
      "special": true
    },
    {
      "id": 1,
      "content": "<pad>",
      "single_word": false,
      "lstrip": false,
      "rstrip": false,
      "normalized": true,
      "special": true
    },
    {
      "id": 2,
      "content": "</s>",
      "single_word": false,
      "lstrip": false,
      "rstrip": false,
      "normalized": true,
      "special": true
    },
    {
      "id": 3,
      "content": "<unk>",
      "single_word": false,
      "lstrip": false,
      "rstrip": false,
      "normalized": true,
      "special": true
    },
    {
      "id": 4,
      "content": "<mask>",
      "single_word": false,
      "lstrip": true,
      "rstrip": false,
      "normalized": true,
      "special": true
    }
  ],
  "normalizer": null,
  "pre_tokenizer": {
    "type": "ByteLevel",
    "add_prefix_space": false,
    "trim_offsets": true,
    "use_regex": true
  },
  "post_processor": {
    "type": "RobertaProcessing",
    "sep": [
      "</s>",
      2
    ],
    "cls": [
      "<s>",
      0
    ],
    "trim_offsets": true,
    "add_prefix_space": false
  },
  "decoder": {
    "type": "ByteLevel",
    "add_prefix_space": true,
    "trim_offsets": true,
    "use_regex": true
  },
  "model": {
    "type": "BPE",
    "dropout": null,
    "unk_token": null,
    "continuing_subword_prefix": "",
    "end_of_word_suffix": "",
    "fuse_unk": false,
    "byte_fallback": false,
    "vocab": {
      "<s>": 0,
      "<pad>": 1,
      "</s>": 2,
      "<unk>": 3,
      "<mask>": 4,
      "!": 5,
      "\"": 6,
      "#": 7,
      "$": 8,
      "%": 9,
      "&": 10,
      "'": 11,
      "(": 12,
      ")": 13,
      "*": 14,
      "+": 15,
      ",": 16,
      "-": 17,
      ".": 18,
      "/": 19,
      "0": 20,
      "1": 21,
      "2": 22,
      "3": 23,
      "4": 24,
      "5": 25,
      "6": 26,
      "7": 27,
      "8": 28,
      "9": 29,
      ":": 30,
      ";": 31,
      "<": 32,
      "=": 33,
      ">": 34,
      "?": 35,
      "@": 36,
      "A": 37,
      "B": 38,
      "C": 39,
      "D": 40,
      "E": 41,
      "F": 42,
      "G": 43,
      "H": 44,
      "I": 45,
      "J": 46,
      "K": 47,
      "L": 48,
      "M": 49,
      "N": 50,
      "O": 51,
      "P": 52,
      "Q": 53,
      "R": 54,
      "S": 55,
      "T": 56,
      "U": 57,
      "V": 58,
      "W": 59,
      "X": 60,
      "Y": 61,
      "Z": 62,
      "[": 63,
      "\\": 64,
      "]": 65,
      "^": 66,
      "_": 67,
      "`": 68,
      "a": 69,
      "b": 70,
      "c": 71,
      "d": 72,
      "e": 73,
      "f": 74,
      "g": 75,
      "h": 76,
      "i": 77,
      "j": 78,
      "k": 79,
      "l": 80,
      "m": 81,
      "n": 82,
      "o": 83,
      "p": 84,
      "q": 85,
      "r": 86,
      "s": 87,
      "t": 88,
      "u": 89,
      "v": 90,
      "w": 91,
      "x": 92,
      "y": 93,
      "z": 94,
      "{": 95,
      "|": 96,
      "}": 97,
      "~": 98,
      "¡": 99,
      "¢": 100,
      "£": 101,
      "¤": 102,
      "¥": 103,
      "¦": 104,
      "§": 105,
      "¨": 106,
      "©": 107,
      "ª": 108,
      "«": 109,
      "¬": 110,
      "®": 111,
      "¯": 112,
      "°": 113,
      "±": 114,
      "²": 115,
      "³": 116,
      "´": 117,
      "µ": 118,
      "¶": 119,
      "·": 120,
      "¸": 121,
      "¹": 122,
      "º": 123,
      "»": 124,
      "¼": 125,
      "½": 126,
      "¾": 127,
      "¿": 128,
      "À": 129,
      "Á": 130,
      "Â": 131,
      "Ã": 132,
      "Ä": 133,
      "Å": 134,
      "Æ": 135,
      "Ç": 136,
      "È": 137,
      "É": 138,
      "Ê": 139,
      "Ë": 140,
      "Ì": 141,
      "Í": 142,
      "Î": 143,
      "Ï": 144,
      "Ð": 145,
      "Ñ": 146,
      "Ò": 147,
      "Ó": 148,
      "Ô": 149,
      "Õ": 150,
      "Ö": 151,
      "×": 152,
      "Ø": 153,
      "Ù": 154,
      "Ú": 155,
      "Û": 156,
      "Ü": 157,
      "Ý": 158,
      "Þ": 159,
      "ß": 160,
      "à": 161,
      "á": 162,
      "â": 163,
      "ã": 164,
      "ä": 165,
      "å": 166,
      "æ": 167,
      "ç": 168,
      "è": 169,
      "é": 170,
      "ê": 171,
      "ë": 172,
      "ì": 173,
      "í": 174,
      "î": 175,
      "ï": 176,
      "ð": 177,
      "ñ": 178,
      "ò": 179,
      "ó": 180,
      "ô": 181,
      "õ": 182,
      "ö": 183,
      "÷": 184,
      "ø": 185,
      "ù": 186,
      "ú": 187,
      "û": 188,
      "ü": 189,
      "ý": 190,
      "þ": 191,
      "ÿ": 192,
      "Ā": 193,
      "ā": 194,
      "Ă": 195,
      "ă": 196,
      "Ą": 197,
      "ą": 198,
      "Ć": 199,
      "ć": 200,
      "Ĉ": 201,
      "ĉ": 202,
      "Ċ": 203,
      "ċ": 204,
      "Č": 205,
      "č": 206,
      "Ď": 207,
      "ď": 208,
      "Đ": 209,
      "đ": 210,
      "Ē": 211,
      "ē": 212,
      "Ĕ": 213,
      "ĕ": 214,
      "Ė": 215,
      "ė": 216,
      "Ę": 217,
      "ę": 218,
      "Ě": 219,
      "ě": 220,
      "Ĝ": 221,
      "ĝ": 222,
      "Ğ": 223,
      "ğ": 224,
      "Ġ": 225,
      "ġ": 226,
      "Ģ": 227,
      "ģ": 228,
      "Ĥ": 229,
      "ĥ": 230,
      "Ħ": 231,
      "ħ": 232,
      "Ĩ": 233,
      "ĩ": 234,
      "Ī": 235,
      "ī": 236,
      "Ĭ": 237,
      "ĭ": 238,
      "Į": 239,
      "į": 240,
      "İ": 241,
      "ı": 242,
      "Ĳ": 243,
      "ĳ": 244,
      "Ĵ": 245,
      "ĵ": 246,
      "Ķ": 247,
      "ķ": 248,
      "ĸ": 249,
      "Ĺ": 250,
      "ĺ": 251,
      "Ļ": 252,
      "ļ": 253,
      "Ľ": 254,
      "ľ": 255,
      "Ŀ": 256,
      "ŀ": 257,
      "Ł": 258,
      "ł": 259,
      "Ń": 260,
      "*>": 261,
      "<*>": 262,
      "Ġ<*>": 263,
      "er": 264,
      "at": 265,
      "st": 266,
      "Ġ'": 267,
      "or": 268,
      "in": 269,
      "<*>]": 270,
      "re": 271,
      "<*>]:": 272,
      "ad": 273,
      "Ġf": 274,
      ".<*>": 275,
      "ro": 276,
      "ib": 277,
      "en": 278,
      "[<*>]:": 279,
      "an": 280,
      "em": 281,
      "ata": 282,
      "Ġ<*>,": 283,
      "ot": 284,
      "Ġd": 285,
      "Ġ(": 286,
      "ce": 287,
      "on": 288,
      "ap": 289,
      "ed": 290,
      "el": 291,
      "Ġ<*>'": 292,
      "-<*>": 293,
      "ps": 294,
      "Ġdata": 295,
      "Ġan": 296,
      "al": 297,
      "Ġn": 298,
      "Ġt": 299,
      "Ġs": 300,
      "ĠT": 301,
      "il": 302,
      "mad": 303,
      "rom": 304,
      "Ġfrom": 305,
      "sm": 306,
      "<*>_": 307,
      "ur": 308,
      "ss": 309,
      "is": 310,
      "ĠC": 311,
      "ent": 312,
      "emp": 313,
      "ĠTemp": 314,
      "ens": 315,
      "ensor": 316,
      "co": 317,
      "atu": 318,
      "str": 319,
      "ail": 320,
      "Ġp": 321,
      "sy": 322,
      ".<*>.<*>": 323,
      "<*>/": 324,
      "ion": 325,
      "-<*>.<*>.<*>": 326,
      "apps": 327,
      "ailed": 328,
      "stem": 329,
      "sw": 330,
      "vi": 331,
      "ver": 332,
      "ern": 333,
      "ernel": 334,
      "kernel": 335,
      "ĠS": 336,
      "ation": 337,
      "eratu": 338,
      "ĠTemperatu": 339,
      "ĠTemperature": 340,
      "Ġsensor": 341,
      "et": 342,
      "Ġ[": 343,
      "us": 344,
      "ĠI": 345,
      "ts": 346,
      "de": 347,
      "li": 348,
      "Ġto": 349,
      "ang": 350,
      "th": 351,
      "bin": 352,
      "system": 353,
      "gm": 354,
      "sbin": 355,
      "our": 356,
      "etad": 357,
      "gmetad": 358,
      "Ġnot": 359,
      "<*>_<*>/": 360,
      "gang": 361,
      "-<*>.<*>.<*>/": 362,
      "lia": 363,
      "ganglia": 364,
      "read": 365,
      "Ġ'/": 366,
      "ource": 367,
      "Ġg": 368,
      "source": 369,
      "()": 370,
      "Ġansw": 371,
      "Ġanswer": 372,
      "Ġgot": 373,
      "Ġany": 374,
      "Ġdatasource": 375,
      "thread": 376,
      "ĠF": 377,
      "ĠD": 378,
      "ĠIn": 379,
      "oc": 380,
      "vice": 381,
      "ass": 382,
      "ini": 383,
      "ĠE": 384,
      "ĠDe": 385,
      "):": 386,
      "ror": 387,
      "pd": 388,
      "ĠA": 389,
      "ue": 390,
      "Ġv": 391,
      "alue": 392,
      "Ġvalue": 393,
      "nt": 394,
      "um": 395,
      "dis": 396,
      "ort": 397,
      "Ġport": 398,
      "ost": 399,
      "Ġst": 400,
      "ate": 401,
      ")'": 402,
      "rc": 403,
      "pin": 404,
      ":<*>]:": 405,
      "Ġre": 406,
      "Ġstate": 407,
      "to": 408,
      "Ġfailed": 409,
      "pro": 410,
      "pspin": 411,
      "src": 412,
      "topspin": 413,
      "][": 414,
      "ic": 415,
      "Ġfor": 416,
      "Ġa": 417,
      "Ġret": 418,
      "ch": 419,
      "ĠFailed": 420,
      "cover": 421,
      "urn": 422,
      "Ġreturn": 423,
      "Ġl": 424,
      "dm": 425,
      "es": 426,
      "si": 427,
      "Ġon": 428,
      "elsi": 429,
      "ĠCelsi": 430,
      "ĠCelsius": 431,
      "ĠG": 432,
      "sn": 433,
      "ID": 434,
      "Ġ<*>.<*>": 435,
      "erver": 436,
      "rap": 437,
      "ator": 438,
      "strator": 439,
      "inistrator": 440,
      "dministrator": 441,
      "ĠAdministrator": 442,
      "Ġtrap": 443,
      "mpd": 444,
      "snmpd": 445,
      "ĠSer": 446,
      "vent": 447,
      "ument": 448,
      "strument": 449,
      "ĠInstrument": 450,
      "ĠEvent": 451,
      "ĠService": 452,
      "ĠInstrumentation": 453,
      "ĠEventID": 454,
      "Server": 455,
      "Ġloc": 456,
      "eer": 457,
      "Ġpeer": 458,
      "ĠCh": 459,
      "Ġ<*>.<*>'": 460,
      "Ġfd": 461,
      "assis": 462,
      "ĠChassis": 463,
      "gre": 464,
      "ĠDegre": 465,
      "ĠDegrees": 466,
      "Ġlocation": 467,
      "ĠGot": 468,
      "Ġco": 469,
      "Ġer": 470,
      "Ġerror": 471,
      "Ġcode": 472,
      "pat": 473,
      "Ġno": 474,
      "Ġnode": 475,
      "covery": 476,
      "discovery": 477,
      "am": 478,
      "cl": 479,
      "ec": 480,
      "Ġin": 481,
      "<*>)": 482,
      "host": 483,
      "ter": 484,
      "ing": 485,
      "ER": 486,
      "Ġ(<*>)": 487,
      "sys": 488,
      "om": 489,
      "ocal": 490,
      "Ġ=": 491,
      "id": 492,
      "class": 493,
      "ĠDevice": 494,
      "hel": 495,
      "rop": 496,
      "op": 497,
      "cess": 498,
      "<*>):": 499,
      "EL": 500,
      "ob": 501,
      "ar": 502,
      "Host": 503,
      "Ġ<*>)'": 504,
      "Local": 505,
      "rhel": 506,
      "amd": 507,
      "(<*>):": 508,
      "ust": 509,
      "HH": 510,
      "ĠTHH": 511,
      "fil": 512,
      "jec": 513,
      "filter": 514,
      "cust": 515,
      "custom": 516,
      "-<*>.<*>.<*>-<*>": 517,
      "mnt": 518,
      "projec": 519,
      "sysapps": 520,
      "obj": 521,
      "-<*>.<*>.<*>-<*>/": 522,
      "projects": 523,
      "fini": 524,
      "finiHost": 525,
      "TA": 526,
      "IB": 527,
      "ĠInfiniHost": 528,
      "ng": 529,
      "hic": 530,
      "ĠFA": 531,
      "TAL": 532,
      "ĠFATAL": 533,
      "rror": 534,
      "ĠError": 535,
      "process": 536,
      "Ġ-<*>": 537,
      "atal": 538,
      "))'": 539,
      "Fatal": 540,
      "strop": 541,
      "atastrop": 542,
      "ĠCatastrop": 543,
      "ĠCatastrophic": 544,
      ":<*>]": 545,
      "][/": 546,
      "KER": 547,
      "NEL": 548,
      "PN": 549,
      "QPN": 550,
      "ĠQPN": 551,
      "api": 552,
      "dispat": 553,
      "Ġaid": 554,
      "KERNEL": 555,
      "dispatch": 556,
      "ĠP": 557,
      "ri": 558,
      "as": 559,
      "ĠM": 560,
      "Ġw": 561,
      "ĠN": 562,
      "ning": 563,
      "ĠB": 564,
      "ain": 565,
      "arning": 566,
      "ee": 567,
      "Ġwas": 568,
      "ystem": 569,
      "ĠSystem": 570,
      "rit": 571,
      "orm": 572,
      "ical": 573,
      "Warning": 574,
      "ous": 575,
      "Ġreturned": 576,
      "revi": 577,
      "revious": 578,
      "ĠPrevious": 579,
      "ĠMain": 580,
      "bi": 581,
      "ormal": 582,
      "MC": 583,
      "ĠSensor": 584,
      "ĠBMC": 585,
      "ritical": 586,
      "Ġnormal": 587,
      "Critical": 588,
      "mbi": 589,
      "ĠAmbi": 590,
      "ĠNon": 591,
      "ĠAmbient": 592,
      "eep": 593,
      "ron": 594,
      "sweep": 595,
      "ntpd": 596,
      "iz": 597,
      "Ġsy": 598,
      "Ġsyn": 599,
      "ized": 600,
      "chron": 601,
      "Ġsynchron": 602,
      "Ġstr": 603,
      "atum": 604,
      "Ġsynchronized": 605,
      "Ġstratum": 606,
      "Ġ-": 607,
      "ct": 608,
      "Ġdi": 609,
      "Ġh": 610,
      "rect": 611,
      "Ġdirect": 612,
      "est": 613,
      "unt": 614,
      "Ġdis": 615,
      "Ġdiscover": 616,
      "count": 617,
      "Ġhop": 618,
      "path": 619,
      "num": 620,
      "Ġtest": 621,
      "Ġ'<*>": 622,
      "Ġus": 623,
      "Ġse": 624,
      "Ġb": 625,
      "ssion": 626,
      "Ġuser": 627,
      "Ġsession": 628,
      "Ġby": 629,
      "Ġop": 630,
      "<*>'": 631,
      "Ġopen": 632,
      "Ġopened": 633,
      "hd": 634,
      "sshd": 635,
      "sh": 636,
      "Ġssh": 637,
      "=<*>": 638,
      "Ġu": 639,
      "root": 640,
      ":<*>": 641,
      "ĠIB": 642,
      "CP": 643,
      "ĠIN": 644,
      "IT": 645,
      "ĠINIT": 646,
      "art": 647,
      "ay": 648,
      "Ġun": 649,
      "=<*>,": 650,
      "up": 651,
      "ow": 652,
      "le": 653,
      "sen": 654,
      "dmail": 655,
      "sendmail": 656,
      "hc": 657,
      "dhc": 658,
      "eth": 659,
      "dhcpd": 660,
      "Ġeth": 661,
      "Ġm": 662,
      "Ġvi": 663,
      "Ġvia": 664,
      "Ġc": 665,
      "own": 666,
      "Ġcl": 667,
      ".'": 668,
      "Ġsu": 669,
      "os": 670,
      "Ġclos": 671,
      "Ġclosed": 672,
      "og": 673,
      "ile": 674,
      "fi": 675,
      "ame": 676,
      "Ġname": 677,
      "lay": 678,
      "HCP": 679,
      "ĠDHCP": 680,
      "cce": 681,
      "ab": 682,
      ":<*>:<*>": 683,
      "<*>:": 684,
      "log": 685,
      "ick": 686,
      "cron": 687,
      "MD": 688,
      "crond": 689,
      "Ġfile": 690,
      "ĠCMD": 691,
      "im": 692,
      "CPI": 693,
      "ĠACPI": 694,
      "tion": 695,
      "eas": 696,
      "qu": 697,
      "ger": 698,
      "able": 699,
      "eded": 700,
      "Ġsucce": 701,
      "Ġsucceeded": 702,
      "Ġleas": 703,
      "onn": 704,
      "onnec": 705,
      "logger": 706,
      "Ġtim": 707,
      "start": 708,
      "ĠK": 709,
      "elay": 710,
      "ickstart": 711,
      "ĠKickstart": 712,
      "Ġ[<*>]": 713,
      "kn": 714,
      "Ġrelay": 715,
      "=<*>:<*>:<*>": 716,
      "=<*>:<*>:<*>,": 717,
      "ali": 718,
      "quali": 719,
      "ctl": 720,
      "known": 721,
      "['": 722,
      "onnection": 723,
      "Ġunknown": 724,
      "CI": 725,
      "IS": 726,
      "OV": 727,
      "ĠPCI": 728,
      "DIS": 729,
      "ĠL": 730,
      "wor": 731,
      "COV": 732,
      "ĠDHCPDIS": 733,
      "COVER": 734,
      "ĠDHCPDISCOVER": 735,
      "ĠR": 736,
      "all": 737,
      "Ġunable": 738,
      "it": 739,
      "xin": 740,
      "etd": 741,
      "xinetd": 742,
      "#<*>": 743,
      "work": 744,
      "etwork": 745,
      "da": 746,
      "ig": 747,
      "Ġinter": 748,
      "Ġsh": 749,
      "stall": 750,
      "#<*>#": 751,
      "post": 752,
      "Ġpri": 753,
      "Ġfre": 754,
      "Ġtime": 755,
      "pdate": 756,
      "Ġch": 757,
      "Ġ/": 758,
      "Ġstart": 759,
      "ĠInstall": 760,
      "ĠU": 761,
      "Ġ--": 762,
      "Ġ->": 763,
      "Ġleases": 764,
      "Ġnetwork": 765,
      "Ġusing": 766,
      "Ġfree": 767,
      "dr": 768,
      "[<*>]": 769,
      "ĠConnection": 770,
      "dev": 771,
      "ST": 772,
      "Ġchang": 773,
      "fs": 774,
      "artd": 775,
      "ub": 776,
      "RE": 777,
      "#<*>#@": 778,
      "ast": 779,
      "Ġor": 780,
      "ist": 781,
      "fix": 782,
      "used": 783,
      "Ġo": 784,
      "addr": 785,
      "smartd": 786,
      "']": 787,
      "EST": 788,
      "QU": 789,
      "ĠDHCPRE": 790,
      "QUEST": 791,
      "ĠDHCPREQUEST": 792,
      "ach": 793,
      "local": 794,
      "red": 795,
      ".<*>.<*>,": 796,
      "omain": 797,
      "Ġlast": 798,
      "mo": 799,
      "ry": 800,
      "Ġstartup": 801,
      "ping": 802,
      "ize": 803,
      "Ġsize": 804,
      "ory": 805,
      "ond": 806,
      "Ġdelay": 807,
      "sda": 808,
      "port": 809,
      "fer": 810,
      "SI": 811,
      "Ġup": 812,
      "RQ": 813,
      "Ġhost": 814,
      "onfi": 815,
      "onfig": 816,
      "Ġ[<*>]'": 817,
      ".<*>:": 818,
      "Ġde": 819,
      "fied": 820,
      "ft": 821,
      "ĠMy": 822,
      "<*>),": 823,
      "ck": 824,
      "eeping": 825,
      "ut": 826,
      "Ġsl": 827,
      "Ġretry": 828,
      "Ġunquali": 829,
      "Ġsleeping": 830,
      "Ġunqualified": 831,
      "Ġclass": 832,
      "pts": 833,
      "=#<*>#@": 834,
      "Ġnrc": 835,
      "localhost": 836,
      "Ġnrcpts": 837,
      "Ġstat": 838,
      "ĠRe": 839,
      "relay": 840,
      "ailer": 841,
      "Ġmailer": 842,
      "=[<*>]": 843,
      "De": 844,
      "delay": 845,
      "fused": 846,
      "xdelay": 847,
      "Ġctl": 848,
      "Ġxdelay": 849,
      "Ġdsn": 850,
      "Ġ(<*>/": 851,
      "Ġrefused": 852,
      "=<*>.<*>.<*>,": 853,
      "Ġ[<*>],": 854,
      "ferred": 855,
      "Deferred": 856,
      "Ġctladdr": 857,
      "Ġ(<*>/<*>),": 858,
      "Ġshort": 859,
      "sysctl": 860,
      "fy": 861,
      "Ġmy": 862,
      "Ġown": 863,
      "Ġquali": 864,
      "Ġdomain": 865,
      "Ġqualify": 866,
      "Ġne": 867,
      "rup": 868,
      "rupt": 869,
      "Ġof": 870,
      "fa": 871,
      "vc": 872,
      "Ġr": 873,
      "ud": 874,
      "init": 875,
      "un": 876,
      "Ġlo": 877,
      "Ġdevice": 878,
      "user": 879,
      "=<*>'": 880,
      "ĠNo": 881,
      "lic": 882,
      "Ġ<*>.'": 883,
      "ex": 884,
      "Ġset": 885,
      "ublic": 886,
      "Ġlease": 887,
      "Ġat": 888,
      "Ġpublic": 889,
      "Ġ<*>:<*>:<*>": 890,
      "rent": 891,
      "urrent": 892,
      "Ġcurrent": 893,
      "Ġino": 894,
      "Ġi": 895,
      "river": 896,
      "ied": 897,
      "enied": 898,
      "Ġdenied": 899,
      "ine": 900,
      "Ġsec": 901,
      "Ġkernel": 902,
      "Ġ{": 903,
      "Ġavc": 904,
      "Ġchanged": 905,
      "uration": 906,
      "onfiguration": 907,
      "ring": 908,
      "mov": 909,
      "Ġremov": 910,
      "Ġupdate": 911,
      "ok": 912,
      "Ġwarning": 913,
      "Ġlook": 914,
      "Ġdirectory": 915,
      "Ġsuch": 916,
      "lim": 917,
      "drop": 918,
      "pick": 919,
      "postfix": 920,
      "postdrop": 921,
      "pickup": 922,
      "..": 923,
      "igh": 924,
      "Ġ<*>']": 925,
      "vel": 926,
      "face": 927,
      "ĠIRQ": 928,
      "Ġreport": 929,
      "ince": 930,
      "Ġsince": 931,
      "level": 932,
      "Ġmo": 933,
      "Ġis": 934,
      "ĠPro": 935,
      "ated": 936,
      "Ġinterface": 937,
      "pt": 938,
      "Ġlow": 939,
      "ĠGSI": 940,
      "Ġdriver": 941,
      "Ġ\"": 942,
      "Ġinterrupt": 943,
      "amp": 944,
      "estamp": 945,
      "ign": 946,
      "per": 947,
      "ringup": 948,
      "Ġsc": 949,
      "bringup": 950,
      "ges": 951,
      "ccept": 952,
      "helper": 953,
      "userhelper": 954,
      "Ġconfiguration": 955,
      "Ġ<*>-<*>": 956,
      "ached": 957,
      "limit": 958,
      "bor": 959,
      "Ġneigh": 960,
      "Ġneighbor": 961,
      "FS": 962,
      "Ġinit": 963,
      "Ġsecond": 964,
      "<*>]'": 965,
      "ĠRead": 966,
      "Ġaccept": 967,
      "IO": 968,
      "Ġrun": 969,
      "FO": 970,
      "clud": 971,
      "cluded": 972,
      "=<*>]'": 973,
      "line": 974,
      "Ġincluded": 975,
      "ĠReading": 976,
      "Ġ}": 977,
      "Ġpid": 978,
      "Ġremoving": 979,
      "abl": 980,
      "ith": 981,
      "Ġwith": 982,
      "Ġrunning": 983,
      "VFS": 984,
      "ep": 985,
      "Ġstep": 986,
      "Ġpro": 987,
      "ext": 988,
      "ial": 989,
      "<*>,": 990,
      "ge": 991,
      "vile": 992,
      "Ġprivile": 993,
      "Ġprivileges": 994,
      "ax": 995,
      "lient": 996,
      "RD": 997,
      "Ġsda": 998,
      "ux": 999,
      "fsck": 1000,
      "gist": 1001,
      "gister": 1002,
      "Ġshut": 1003,
      "ĠUs": 1004,
      "down": 1005,
      "Ġsync": 1006,
      "max": 1007,
      "Ġlimit": 1008,
      "Ġreached": 1009,
      "IOS": 1010,
      "/<*>": 1011,
      "IN": 1012,
      "Ġshutdown": 1013,
      "]:": 1014,
      "ening": 1015,
      "MI": 1016,
      "['/": 1017,
      "Ġclient": 1018,
      "PU": 1019,
      "ĠCPU": 1020,
      "ĠBIOS": 1021,
      "assign": 1022,
      "ache": 1023,
      "INFO": 1024,
      "update": 1025,
      "ĠList": 1026,
      "ĠListening": 1027,
      "Ġ<*>)": 1028,
      "gmond": 1029,
      "Ġk": 1030,
      "Ġconnection": 1031,
      "<*>-": 1032,
      "ram": 1033,
      "ul": 1034,
      "ĠRRD": 1035,
      "Ġ<*>.<*>.<*>": 1036,
      "Ġinitial": 1037,
      "Ġbus": 1038,
      "tions": 1039,
      "Ġoptions": 1040,
      "Ġcom": 1041,
      "sion": 1042,
      "Ġcache": 1043,
      "ont": 1044,
      "gram": 1045,
      "ĠProgram": 1046,
      "Ġsetup": 1047,
      "ener": 1048,
      "Ġro": 1049,
      "Ġdo": 1050,
      "Ġdoes": 1051,
      "Ġtft": 1052,
      "Ġtftp": 1053,
      "tft": 1054,
      "tftpd": 1055,
      "ink": 1056,
      "MP": 1057,
      "pdated": 1058,
      "Ġtimestamp": 1059,
      "Ġbe": 1060,
      "rq": 1061,
      "ted": 1062,
      "IC": 1063,
      "Ġchange": 1064,
      "Ġpre": 1065,
      "Ġscsi": 1066,
      "XT": 1067,
      "nal": 1068,
      "ournal": 1069,
      "journal": 1070,
      "Ġroot": 1071,
      "ock": 1072,
      "age": 1073,
      "Ġinitialized": 1074,
      "Ġwh": 1075,
      "Ġatt": 1076,
      "tim": 1077,
      "ĠEXT": 1078,
      "inux": 1079,
      "date": 1080,
      "Ġnew": 1081,
      "gistered": 1082,
      "Ġone": 1083,
      "empt": 1084,
      "gal": 1085,
      "mini": 1086,
      "mum": 1087,
      "Ġil": 1088,
      "legal": 1089,
      "Ġwhen": 1090,
      "Ġattempt": 1091,
      "minimum": 1092,
      "Ġillegal": 1093,
      "Ġver": 1094,
      "Ġversion": 1095,
      "Ġmount": 1096,
      "ĠSet": 1097,
      "ĠInter": 1098,
      "'\"": 1099,
      "Ġ<*>/<*>": 1100,
      "uth": 1101,
      "entic": 1102,
      "uthentic": 1103,
      "rip": 1104,
      "ĠUS": 1105,
      "Ġread": 1106,
      "<*>.<*>": 1107,
      "hal": 1108,
      "Ġhub": 1109,
      ":<*>.<*>:": 1110,
      "Ġ<*>-<*>:<*>.<*>:": 1111,
      "ET": 1112,
      "usr": 1113,
      "Ġbehal": 1114,
      "Ġbehalf": 1115,
      "Ġpam": 1116,
      "Ġupdated": 1117,
      "timestamp": 1118,
      "ĠDO": 1119,
      "cy": 1120,
      "ĠID": 1121,
      "WN": 1122,
      "ĠDOWN": 1123,
      "abled": 1124,
      "Ġ;": 1125,
      "ĠLink": 1126,
      "Ġsw": 1127,
      "ting": 1128,
      "Ġfilesystem": 1129,
      "ĠLID": 1130,
      "Ġide": 1131,
      "ack": 1132,
      "PIC": 1133,
      "emory": 1134,
      "ĠV": 1135,
      "Ġprocess": 1136,
      "ision": 1137,
      "ĠSM": 1138,
      "sysinit": 1139,
      "ĠGID": 1140,
      "ĠGener": 1141,
      "ĠGenerate": 1142,
      "tt": 1143,
      "ency": 1144,
      ":'": 1145,
      "udit": 1146,
      "anfs": 1147,
      "NMP": 1148,
      "sp": 1149,
      "Ġ@": 1150,
      "ĠDEL": 1151,
      "ĠDELL": 1152,
      "no": 1153,
      "ĠPE": 1154,
      "Ġaudit": 1155,
      "connec": 1156,
      "Ġdisconnec": 1157,
      "Ġdisconnected": 1158,
      ":<*>'": 1159,
      "Ġsub": 1160,
      "ĠH": 1161,
      "IRQ": 1162,
      "ĠInterrupt": 1163,
      "IRQs": 1164,
      "ĠUsing": 1165,
      "du": 1166,
      "dule": 1167,
      "ity": 1168,
      "Ġassign": 1169,
      "Ġassigned": 1170,
      "ĠInt": 1171,
      "Ġ(<*>": 1172,
      "Ġmemory": 1173,
      "Ġrip": 1174,
      "Ġrsp": 1175,
      "ana": 1176,
      "ult": 1177,
      "...'": 1178,
      "ĠMo": 1179,
      "...": 1180,
      "<*>.<*>:": 1181,
      "ontext": 1182,
      "(<*>.<*>:": 1183,
      "(<*>.<*>:<*>):": 1184,
      "Ġmode": 1185,
      "aus": 1186,
      "ause": 1187,
      "ĠUser": 1188,
      "Ġscontext": 1189,
      "ecause": 1190,
      "Ġbecause": 1191,
      "FT": 1192,
      "KC": 1193,
      "SFT": 1194,
      "ĠMSFT": 1195,
      "ĠBKC": 1196,
      "nox": 1197,
      "ash": 1198,
      "ey": 1199,
      "ĠSNMP": 1200,
      "ĠUpdate": 1201,
      "Ġe": 1202,
      "Ġstarting": 1203,
      "bing": 1204,
      "Ġent": 1205,
      "ries": 1206,
      "Ġentries": 1207,
      "Ġex": 1208,
      "ug": 1209,
      "ĠFor": 1210,
      "ĠNET": 1211,
      "ĠIntel": 1212,
      "logd": 1213,
      "hy": 1214,
      "ĠO": 1215,
      "Ġauthentic": 1216,
      "Ġtimer": 1217,
      "ĠProbing": 1218,
      "Ġli": 1219,
      "Ġjournal": 1220,
      "net": 1221,
      "ĠUSB": 1222,
      "Ġgmond": 1223,
      "tpd": 1224,
      "Ġntpd": 1225,
      "ĠUn": 1226,
      "ĠSetting": 1227,
      "ll": 1228,
      "Ġsubnet": 1229,
      "var": 1230,
      "ly": 1231,
      "gfa": 1232,
      "Ġsegfa": 1233,
      "Ġsegfault": 1234,
      "so": 1235,
      "CSI": 1236,
      "lock": 1237,
      "pe": 1238,
      "Ġfe": 1239,
      "Ġline": 1240,
      "ĠForce": 1241,
      "ĠSCSI": 1242,
      "ve": 1243,
      "ackage": 1244,
      "king": 1245,
      "thh": 1246,
      "['<*>": 1247,
      "tes": 1248,
      "ating": 1249,
      "Ġlost": 1250,
      "<*>[<*>]:": 1251,
      "Ġcoming": 1252,
      "Ġauthenticated": 1253,
      "ĠNow": 1254,
      "Ġkey": 1255,
      "Ġall": 1256,
      "Ġprefix": 1257,
      "ĠLocal": 1258,
      ".'\"": 1259,
      "=<*>)": 1260,
      "Connection": 1261,
      "Ġhash": 1262,
      "Ġtable": 1263,
      "<*>...'": 1264,
      "ĠIDE": 1265,
      "Ġfam": 1266,
      "ily": 1267,
      "col": 1268,
      "tocol": 1269,
      "ĠRegistered": 1270,
      "Ġprotocol": 1271,
      "Ġfamily": 1272,
      "ĠMana": 1273,
      "hys": 1274,
      "Ġirq": 1275,
      "Ġrole": 1276,
      "Ġsweep": 1277,
      "bas": 1278,
      "mm": 1279,
      "ac": 1280,
      "Ġphys": 1281,
      "Ġlid": 1282,
      "Ġ*": 1283,
      "Ġaccepted": 1284,
      "Out": 1285,
      "Ġremoved": 1286,
      "Ġ:": 1287,
      "ĠServer": 1288,
      "ore": 1289,
      "panfs": 1290,
      "ell": 1291,
      "Ġfil": 1292,
      "Ġfiles": 1293,
      "ips": 1294,
      "word": 1295,
      "Ġbytes": 1296,
      "upport": 1297,
      "Ġseconds": 1298,
      "ann": 1299,
      "Ġblock": 1300,
      "Hz": 1301,
      "ra": 1302,
      "onso": 1303,
      "onsole": 1304,
      "irq": 1305,
      "der": 1306,
      "ĠSt": 1307,
      "ĠStart": 1308,
      "vision": 1309,
      "PS": 1310,
      "ables": 1311,
      "sts": 1312,
      "Ġchann": 1313,
      "Ġchannel": 1314,
      "eg": 1315,
      "roll": 1316,
      "ontroll": 1317,
      "ontroller": 1318,
      "comm": 1319,
      "Ġmd": 1320,
      "ĠHost": 1321,
      "ĠController": 1322,
      "Ġlat": 1323,
      "ĠConfiguration": 1324,
      "Ġsource": 1325,
      "Ġlatency": 1326,
      "Ġstarted": 1327,
      "insts": 1328,
      "drv": 1329,
      "vcdrv": 1330,
      "instsvcdrv": 1331,
      "rite": 1332,
      "DT": 1333,
      "Ġaddr": 1334,
      "cd": 1335,
      "cdbas": 1336,
      "Ġdcdbas": 1337,
      "atch": 1338,
      "mount": 1339,
      "lug": 1340,
      "Ġusec": 1341,
      "Ġ(<*>)'": 1342,
      "ĠMon": 1343,
      "APIC": 1344,
      "Ġen": 1345,
      "UID": 1346,
      "ĠAn": 1347,
      "ĠGUID": 1348,
      "isting": 1349,
      "Ġexisting": 1350,
      "ber": 1351,
      "Ġsm": 1352,
      "urity": 1353,
      "sec": 1354,
      "::": 1355,
      "SMI": 1356,
      "pr": 1357,
      "erpr": 1358,
      "ises": 1359,
      "enterpr": 1360,
      ".<*>.<*>.<*>": 1361,
      "ĠSNMPv": 1362,
      "enterprises": 1363,
      "oun": 1364,
      "Ġand": 1365,
      "Ġsystem": 1366,
      "Ġlog": 1367,
      "pi": 1368,
      "ĠLAPIC": 1369,
      "acpi": 1370,
      "Ġregistered": 1371,
      "[<*>])'": 1372,
      "pre": 1373,
      "linux": 1374,
      "sc": 1375,
      "ĠPackage": 1376,
      "lib": 1377,
      "ages": 1378,
      "vert": 1379,
      "dri": 1380,
      "ntp": 1381,
      "drift": 1382,
      "Ġmodule": 1383,
      "ca": 1384,
      "ĠAPIC": 1385,
      "Ġhigh": 1386,
      "Ġ#<*>#@": 1387,
      "ĠLog": 1388,
      "its": 1389,
      "limits": 1390,
      "int": 1391,
      "NMI": 1392,
      "Ġed": 1393,
      "Ġlint": 1394,
      "Ġedge": 1395,
      "Ġnum": 1396,
      "Ġnumber": 1397,
      "tty": 1398,
      "race": 1399,
      "Ġ$": 1400,
      "RO": 1401,
      "#<*>#/": 1402,
      "<*>.": 1403,
      "eleas": 1404,
      "Ġserver": 1405,
      "elease": 1406,
      "Ġid": 1407,
      "Ġdiscovered": 1408,
      "Ġdown": 1409,
      "ype": 1410,
      "Ġconsole": 1411,
      "zon": 1412,
      "Ġzon": 1413,
      "etfilter": 1414,
      "bus": 1415,
      "/#<*>#/": 1416,
      "Ġenabled": 1417,
      "ĠRA": 1418,
      "Ġblocks": 1419,
      "Ġdivert": 1420,
      "ĠCom": 1421,
      "Ġ...": 1422,
      "iting": 1423,
      "ecking": 1424,
      "Ġcore": 1425,
      "Ġcomp": 1426,
      "ĠStarting": 1427,
      "val": 1428,
      "mit": 1429,
      "Ġorder": 1430,
      "Ġinterval": 1431,
      "journald": 1432,
      "Ġmounted": 1433,
      "ĠCommit": 1434,
      "Ġordered": 1435,
      "tern": 1436,
      "ĠFS": 1437,
      "Ġintern": 1438,
      "Ġinternal": 1439,
      "),": 1440,
      "ase": 1441,
      "eam": 1442,
      "tables": 1443,
      "Ġteam": 1444,
      "ĠNetfilter": 1445,
      "ean": 1446,
      "onf": 1447,
      "Ġqu": 1448,
      "Ġfs": 1449,
      "wa": 1450,
      "ACPI": 1451,
      "Ġclean": 1452,
      "uting": 1453,
      "ware": 1454,
      "Ġ[/": 1455,
      "Ġkjournald": 1456,
      "Ġfsck": 1457,
      "pam": 1458,
      "aused": 1459,
      "Ġcaused": 1460,
      "Ġip": 1461,
      "rd": 1462,
      "Ġwrite": 1463,
      "Ġrouting": 1464,
      "ĠEx": 1465,
      "pc": 1466,
      "ntpdate": 1467,
      "ht": 1468,
      "cision": 1469,
      "Ġprecision": 1470,
      "ĠEDT": 1471,
      "<*>.<*>-": 1472,
      "ĠOct": 1473,
      "Ġ#<*>#@<*>.<*>-": 1474,
      "quency": 1475,
      "Ġfrequency": 1476,
      "fset": 1477,
      "Ġoffset": 1478,
      "PM": 1479,
      "conf": 1480,
      "ĠPPM": 1481,
      "syslogd": 1482,
      "Ġpass": 1483,
      "Ġconfig": 1484,
      "Ġconfigu": 1485,
      "mod": 1486,
      "Ġpan": 1487,
      "Ġlocal": 1488,
      "Ġrestart": 1489,
      "Ġ<*>.<*>.<*>:": 1490,
      "ĠPlug": 1491,
      "Ġfoun": 1492,
      "Ġfound": 1493,
      "gem": 1494,
      "ĠManagem": 1495,
      "ĠManagement": 1496,
      "ress": 1497,
      "ĠSystems": 1498,
      "Ġdue": 1499,
      "ish": 1500,
      "dress": 1501,
      "ops": 1502,
      "ished": 1503,
      "ĠDE": 1504,
      "ĠWarning": 1505,
      "ĠModule": 1506,
      "sg": 1507,
      "Ġsign": 1508,
      "Ġsignal": 1509,
      "proc": 1510,
      "msg": 1511,
      "etc": 1512,
      "kmsg": 1513,
      "Ġ<*>.<*>.<*>,": 1514,
      "Ġklogd": 1515,
      "domain": 1516,
      "be": 1517,
      "ml": 1518,
      "Ġ<*>:<*>": 1519,
      "AU": 1520,
      "FAU": 1521,
      "LT": 1522,
      "Ġprocessing": 1523,
      "ĠDEFAU": 1524,
      "ĠDEFAULT": 1525,
      "prefix": 1526,
      "izing": 1527,
      "ĠUnable": 1528,
      "hh": 1529,
      "ird": 1530,
      "part": 1531,
      "xhh": 1532,
      "Ġmnt": 1533,
      "thca": 1534,
      "third": 1535,
      "mlxhh": 1536,
      "party": 1537,
      "Ġdisabled": 1538,
      "Ġ#<*>": 1539,
      "Ġ#<*>#": 1540,
      "Ġalloc": 1541,
      "ĠTrace": 1542,
      "Ġuops": 1543,
      "oMI": 1544,
      "Ġnon": 1545,
      "Ġpages": 1546,
      "ĠBog": 1547,
      "oMIPS": 1548,
      "ĠBogoMIPS": 1549,
      "ELinux": 1550,
      "and": 1551,
      "Ġ*<*>,": 1552,
      "ĠNetwork": 1553,
      "MA": 1554,
      "LB": 1555,
      "Ġfilesystems": 1556,
      "=<*>)'": 1557,
      "ĠUSER": 1558,
      "sud": 1559,
      "sudo": 1560,
      "IFO": 1561,
      "Ġbatch": 1562,
      "ĠLIFO": 1563,
      "Ġzone": 1564,
      "Ġgener": 1565,
      "form": 1566,
      "otal": 1567,
      "Ġlun": 1568,
      "ttached": 1569,
      "Ġrevision": 1570,
      "uil": 1571,
      "ĠPRO": 1572,
      "rig": 1573,
      "ete": 1574,
      "lete": 1575,
      "ernet": 1576,
      "Ġcomplete": 1577,
      "cti": 1578,
      "lease": 1579,
      "ĠDriver": 1580,
      "ĠCle": 1581,
      "unting": 1582,
      "aid": 1583,
      "araid": 1584,
      "egaraid": 1585,
      "Ġbin": 1586,
      "ced": 1587,
      "ĠSA": 1588,
      "sources": 1589,
      "Ġresources": 1590,
      "Ġforced": 1591,
      "ĠClean": 1592,
      "Ġbind": 1593,
      "network": 1594,
      "ĠAttached": 1595,
      "Ġpar": 1596,
      "ĠSELinux": 1597,
      "Ġregister": 1598,
      "ĠBring": 1599,
      "ĠBringing": 1600,
      "config": 1601,
      "ol": 1602,
      "oot": 1603,
      "Ġad": 1604,
      "ccess": 1605,
      "Ġmegaraid": 1606,
      "Ġrecover": 1607,
      "Ġrecovering": 1608,
      "Ġpanfs": 1609,
      "Ġerr": 1610,
      "Ġmet": 1611,
      "te": 1612,
      "ff": 1613,
      "-<*>'": 1614,
      "TP": 1615,
      "hob": 1616,
      "Ġmi": 1617,
      "accept": 1618,
      "Ġpassword": 1619,
      "authentic": 1620,
      "Ġign": 1621,
      "ored": 1622,
      "esc": 1623,
      "Ġkeyword": 1624,
      "Ġconfigure": 1625,
      "authenticate": 1626,
      "Ġignored": 1627,
      "right": 1628,
      "yright": 1629,
      "ĠTo": 1630,
      "WA": 1631,
      "Ġ,": 1632,
      "Ġap": 1633,
      "Ġ<*>:<*>'": 1634,
      "Ġdesc": 1635,
      "smux": 1636,
      "ĠMIB": 1637,
      "Ġoid": 1638,
      "ĠManager": 1639,
      "Ġsmux": 1640,
      ".<*>.<*>.<*>,": 1641,
      "Ġdescr": 1642,
      "cessor": 1643,
      "security": 1644,
      "<*>.<*>.<*>": 1645,
      "opyright": 1646,
      "=/": 1647,
      "ĠX": 1648,
      "Ġlocalhost": 1649,
      "ĠCopyright": 1650,
      "exiting": 1651,
      "ility": 1652,
      "Ġaddress": 1653,
      "Ġinstall": 1654,
      "RM": 1655,
      "Ġinstallation": 1656,
      "BI": 1657,
      "IRM": 1658,
      "Yast": 1659,
      "inished": 1660,
      "ĠTBI": 1661,
      "ĠFIRM": 1662,
      "ĠFinished": 1663,
      "ĠDell": 1664,
      "localdomain": 1665,
      "WARE": 1666,
      "ĠTBIRD": 1667,
      "ĠFIRMWARE": 1668,
      "ĠNTP": 1669,
      "devel": 1670,
      "ĠSMP": 1671,
      "Ġas": 1672,
      "ply": 1673,
      "ĠDis": 1674,
      "Ġbu": 1675,
      "Ġupdates": 1676,
      "Ġapply": 1677,
      "ĠProcessor": 1678,
      "Ġav": 1679,
      "Ġavail": 1680,
      "!'": 1681,
      "que": 1682,
      "Ġload": 1683,
      "itial": 1684,
      "itializing": 1685,
      "itch": 1686,
      "Ġswitch": 1687,
      "Ġcomm": 1688,
      "Ġ<*>:": 1689,
      "io": 1690,
      "erio": 1691,
      "ath": 1692,
      "Ġpath": 1693,
      "ersion": 1694,
      "ĠVersion": 1695,
      "link": 1696,
      "ĠSupport": 1697,
      "ĠIO": 1698,
      "Ġprocessor": 1699,
      "Dell": 1700,
      "package": 1701,
      "sps": 1702,
      "support": 1703,
      "etup": 1704,
      "ĠDesc": 1705,
      "ĠRelease": 1706,
      "updatepackage": 1707,
      "ription": 1708,
      "spsetup": 1709,
      "ĠDescription": 1710,
      "Ġth": 1711,
      "bl": 1712,
      "Ġallocating": 1713,
      "blk": 1714,
      "_<*>_": 1715,
      "Ġrhel": 1716,
      "release": 1717,
      "lp": 1718,
      "rating": 1719,
      "ibrating": 1720,
      "alibrating": 1721,
      "Ġloop": 1722,
      "lpj": 1723,
      "GHz": 1724,
      "TM": 1725,
      "eon": 1726,
      "Ġstepping": 1727,
      "ĠXeon": 1728,
      "Ġsock": 1729,
      "Ġsocket": 1730,
      "ttyS": 1731,
      "ard": 1732,
      "TLB": 1733,
      "Ġtype": 1734,
      "ĠIP": 1735,
      "ĠMHz": 1736,
      "ke": 1737,
      "apab": 1738,
      "end": 1739,
      "LO": 1740,
      "Ġavailable": 1741,
      "RA": 1742,
      "inal": 1743,
      "Ġdisk": 1744,
      "<*>,<*>": 1745,
      "RC": 1746,
      "SRC": 1747,
      "lob": 1748,
      "Ġglob": 1749,
      "ĠINT": 1750,
      "OVR": 1751,
      "Ġglobal": 1752,
      "PET": 1753,
      "ĠHPET": 1754,
      "ĠRAM": 1755,
      "Ġback": 1756,
      "Ġal": 1757,
      "ready": 1758,
      "ary": 1759,
      "ethernet": 1760,
      "fixup": 1761,
      "Ġsecondary": 1762,
      "apability": 1763,
      "Ġalready": 1764,
      "Ġso": 1765,
      "Ġdevices": 1766,
      "olog": 1767,
      "ology": 1768,
      "NSI": 1769,
      "ĠANSI": 1770,
      "ftware": 1771,
      "Ġsoftware": 1772,
      "by": 1773,
      "del": 1774,
      "roug": 1775,
      "Ġ<*>,<*>": 1776,
      "Ġsg": 1777,
      "ĠPB": 1778,
      "ĠRev": 1779,
      "ĠModel": 1780,
      "Ġsmartd": 1781,
      "Ġgeneric": 1782,
      "endor": 1783,
      "Ġnet": 1784,
      "Ġ*<*>'": 1785,
      "Ġnetlink": 1786,
      "<*>/<*>": 1787,
      "probe": 1788,
      "ĠNMI": 1789,
      "ĠCPUs": 1790,
      "ĠAd": 1791,
      "uild": 1792,
      "nil": 1793,
      "iginal": 1794,
      "Ġchanging": 1795,
      "Ġoriginal": 1796,
      "Ġdri": 1797,
      "uming": 1798,
      "Ġpage": 1799,
      ".<*>.<*>.<*>'": 1800,
      "ind": 1801,
      "Ġqui": 1802,
      "av": 1803,
      "<*>.<*>'": 1804,
      "ĠPri": 1805,
      "ĠHat": 1806,
      "Ġchecking": 1807,
      "RT": 1808,
      "Ġspe": 1809,
      "Ġmice": 1810,
      "Ġspeed": 1811,
      "PI": 1812,
      "Ġ<*>-": 1813,
      "ĠInitializing": 1814,
      "Ġcf": 1815,
      "Ġ<*>.<*>.<*>-": 1816,
      "ĠMounting": 1817,
      "Ġclock": 1818,
      "build": 1819,
      "otas": 1820,
      "Ġquotas": 1821,
      "ctive": 1822,
      "Release": 1823,
      "aRA": 1824,
      "anning": 1825,
      "ĠDate": 1826,
      "ĠMeg": 1827,
      "Ġscanning": 1828,
      "aRAID": 1829,
      "ĠMegaRAID": 1830,
      "gb": 1831,
      "hgb": 1832,
      "reating": 1833,
      "Ġtsc": 1834,
      "Ġrhgb": 1835,
      "Ġquiet": 1836,
      "ĠBoot": 1837,
      "ĠLinux": 1838,
      "#<*>#@#<*>#": 1839,
      "ĠCalibrating": 1840,
      "ĠUni": 1841,
      "Ġib": 1842,
      "Ġ<*>!'": 1843,
      "ĠTotal": 1844,
      "ĠType": 1845,
      "Ġserio": 1846,
      "ĠMST": 1847,
      "ĠVendor": 1848,
      "ĠChecking": 1849,
      "ers": 1850,
      "eters": 1851,
      "ameters": 1852,
      "Ġparameters": 1853,
      "ved": 1854,
      "cache": 1855,
      "ĠIPS": 1856,
      "ĠEST": 1857,
      "Ġbindcache": 1858,
      "ful": 1859,
      "Ġsuccess": 1860,
      "Ġsuccessful": 1861,
      "Ġsuccessfully": 1862,
      "ĠTop": 1863,
      "ĠTopology": 1864,
      "Ġrecovery": 1865,
      "rpc": 1866,
      "<<*>": 1867,
      "Ġhard": 1868,
      "Ġhardware": 1869,
      ":/": 1870,
      "get": 1871,
      "pan": 1872,
      "CPU": 1873,
      "://#<*>#/": 1874,
      "loc": 1875,
      "ĠSTA": 1876,
      "Re": 1877,
      ":<*>:": 1878,
      "Ġdev": 1879,
      "idm": 1880,
      "apd": 1881,
      "idmapd": 1882,
      "MM": 1883,
      "job": 1884,
      "Ġjob": 1885,
      "ĠUpdated": 1886,
      "Ġ<*>-<*>-<*>'": 1887,
      "anacron": 1888,
      "etec": 1889,
      "mr": 1890,
      "ĠActive": 1891,
      "ome": 1892,
      "only": 1893,
      "Ġman": 1894,
      "Ġmany": 1895,
      "ustre": 1896,
      "ser": 1897,
      "quest": 1898,
      "out": 1899,
      "Ġopening": 1900,
      "ĠToo": 1901,
      "Ġreser": 1902,
      "Ġreserved": 1903,
      "Ġtimeout": 1904,
      "tor": 1905,
      "Ġsector": 1906,
      "<*>.<*>.<*>'": 1907,
      "ip": 1908,
      "ĠAll": 1909,
      "Ġwe": 1910,
      "syslog": 1911,
      "lve": 1912,
      "Ġreso": 1913,
      "Ġresolve": 1914,
      "Ġtimes": 1915,
      "Ġhtt": 1916,
      "ĠUnknown": 1917,
      "Ġhttp": 1918,
      "etected": 1919,
      "ERM": 1920,
      "ffer": 1921,
      "Th": 1922,
      "Ġsetting": 1923,
      "ĠPID": 1924,
      "Se": 1925,
      "ĠCli": 1926,
      "ssionTh": 1927,
      "SessionTh": 1928,
      "ĠCliSessionTh": 1929,
      "ĠCliSessionThread": 1930,
      "<<*>>": 1931,
      "Ġpo": 1932,
      "ric": 1933,
      "Ġmeta": 1934,
      "Ġmetric": 1935,
      "Ġdetected": 1936,
      "ide": 1937,
      "ded": 1938,
      "In": 1939,
      "NA": 1940,
      "ired": 1941,
      "Ġrequ": 1942,
      "Ġrequired": 1943,
      "Ġbuffer": 1944,
      "ĠW": 1945,
      "Ġtain": 1946,
      "ĠVol": 1947,
      "ty": 1948,
      "Ġtty": 1949,
      "por": 1950,
      "Ġprobe": 1951,
      "SM": 1952,
      "gn": 1953,
      "ĠNFS": 1954,
      "Ġdecl": 1955,
      "kip": 1956,
      "ull": 1957,
      "Ġy": 1958,
      "Ġover": 1959,
      "Ġ<*>.<*>.<*>'": 1960,
      "TERM": 1961,
      "register": 1962,
      "SNMP": 1963,
      "sl": 1964,
      "py": 1965,
      "plug": 1966,
      "otplug": 1967,
      "hotplug": 1968,
      "lop": 1969,
      "loppy": 1970,
      "cre": 1971,
      "orun": 1972,
      "Ġaut": 1973,
      "Ġautorun": 1974,
      "Ġsys": 1975,
      "ride": 1976,
      "Ġ<*>.<*>.<*>-<*>": 1977,
      "Ġoverride": 1978,
      ").'": 1979,
      "eds": 1980,
      "Ġwa": 1981,
      "keup": 1982,
      "Ġwakeup": 1983,
      "cro": 1984,
      "uto": 1985,
      "Ġaddresses": 1986,
      "base": 1987,
      "DP": 1988,
      "rr": 1989,
      "ĠBad": 1990,
      "ons": 1991,
      "Ġ...'": 1992,
      "Ġlist": 1993,
      "establ": 1994,
      "Ġsel": 1995,
      "map": 1996,
      "ĠExiting": 1997,
      "Ġcommand": 1998,
      "tl": 1999,
      "octl": 2000,
      "Ġlogical": 2001,
      "ĠRAID": 2002,
      "SB": 2003,
      "Ġper": 2004,
      "ask": 2005,
      "ĠJ": 2006,
      "Ġ<*>/": 2007,
      "Ġuse": 2008,
      "ĠKernel": 2009,
      "floppy": 2010,
      "ĠMA": 2011,
      "ime": 2012,
      "Ġmpt": 2013,
      "Ġif": 2014,
      "Ġexce": 2015,
      "PR": 2016,
      "Pl": 2017,
      "md": 2018,
      "MDIS": 2019,
      "MDISK": 2020,
      "ew": 2021,
      "een": 2022,
      "ioctl": 2023,
      "ween": 2024,
      "etween": 2025,
      "Ġbetween": 2026,
      "Ġim": 2027,
      "ĠTh": 2028,
      "ĠPA": 2029,
      "ĠMemory": 2030,
      "time": 2031,
      "Ġimage": 2032,
      "Ġskip": 2033,
      "established": 2034,
      "wrap": 2035,
      "Ġxinetd": 2036,
      "rote": 2037,
      "ibwrap": 2038,
      "iled": 2039,
      "Ġlibwrap": 2040,
      "Ġcompiled": 2041,
      "Ġloadav": 2042,
      "ĠWrote": 2043,
      "Ġloadavg": 2044,
      "bps": 2045,
      "ding": 2046,
      "dog": 2047,
      "watch": 2048,
      "orts": 2049,
      "orpor": 2050,
      "ĠCorpor": 2051,
      "ĠFull": 2052,
      "ĠDup": 2053,
      "ĠMbps": 2054,
      "ĠNIC": 2055,
      "lex": 2056,
      "ĠLSI": 2057,
      "ĠUp": 2058,
      "watchdog": 2059,
      "ĠCorporation": 2060,
      "ĠDuplex": 2061,
      "Kernel": 2062,
      "ph": 2063,
      "aring": 2064,
      "ization": 2065,
      "sal": 2066,
      "orking": 2067,
      "Ġag": 2068,
      "Ġworking": 2069,
      "ĠStarted": 2070,
      "fst": 2071,
      "ia": 2072,
      "nc": 2073,
      "ints": 2074,
      "sync": 2075,
      "Ġmap": 2076,
      "Ġgenerated": 2077,
      "Ġpoints": 2078,
      "fstab": 2079,
      "data": 2080,
      "Ġrequest": 2081,
      "Ġnow": 2082,
      "bios": 2083,
      "Ġ::": 2084,
      ":[": 2085,
      "sent": 2086,
      "Ġpresent": 2087,
      "Red": 2088,
      "SDP": 2089,
      "cc": 2090,
      "gcc": 2091,
      "pages": 2092,
      "Ġ)": 2093,
      "atd": 2094,
      "statd": 2095,
      "ree": 2096,
      "Ġtotal": 2097,
      "ĠTue": 2098,
      "vided": 2099,
      "provided": 2100,
      "Ġinform": 2101,
      "ĠLustre": 2102,
      "ĠRSDP": 2103,
      "Ġok": 2104,
      "Ġphysical": 2105,
      "command": 2106,
      "Ġconfigured": 2107,
      "Ġmptable": 2108,
      "Ġtotalpages": 2109,
      "Ġinformation": 2110,
      "tu": 2111,
      "ves": 2112,
      "Ġtask": 2113,
      "ĠDisabled": 2114,
      "new": 2115,
      "Ġtables": 2116,
      "ĠDa": 2117,
      "Ġbase": 2118,
      "Ġmodes": 2119,
      "MADT": 2120,
      "SW": 2121,
      "elist": 2122,
      "Ġzonelist": 2123,
      "uilt": 2124,
      "Ġzonelists": 2125,
      "GA": 2126,
      "SC": 2127,
      "lour": 2128,
      "rame": 2129,
      "Ġ<*><*>'": 2130,
      "ere": 2131,
      "Ġframe": 2132,
      "ĠTLB": 2133,
      "ĠCreating": 2134,
      "ĠSca": 2135,
      "Ġcolour": 2136,
      "ecurity": 2137,
      "))']": 2138,
      "ĠPS": 2139,
      "ĠBind": 2140,
      "Ġsynchronization": 2141,
      "Ġcapability": 2142,
      "ĠLSM": 2143,
      "ĠRegister": 2144,
      "Ġsecurity": 2145,
      "Ġswap": 2146,
      "ĠVGA": 2147,
      "acing": 2148,
      "old": 2149,
      "ffold": 2150,
      "ĠTopspin": 2151,
      "Ġthroug": 2152,
      "ĠAddress": 2153,
      "Ġdrive": 2154,
      "Ġlistening": 2155,
      "Ġframework": 2156,
      "ĠScaffold": 2157,
      "ĠRegistering": 2158,
      "Ġthrough": 2159,
      "ration": 2160,
      "Ġext": 2161,
      "Ġdec": 2162,
      "lice": 2163,
      "Ġmig": 2164,
      "Ġmsec": 2165,
      "Ġcuto": 2166,
      "Ġusecs": 2167,
      "Ġtimeslice": 2168,
      "Ġdecay": 2169,
      "Ġmigration": 2170,
      "Ġmsecs": 2171,
      "Ġcutoff": 2172,
      "DE": 2173,
      "HI": 2174,
      "KS": 2175,
      "Kby": 2176,
      "MHz": 2177,
      "PV": 2178,
      "VS": 2179,
      "dw": 2180,
      "gart": 2181,
      "pgart": 2182,
      "uge": 2183,
      "vated": 2184,
      "xx": 2185,
      "ze": 2186,
      "atform": 2187,
      "Ġ(<*>.<*>": 2188,
      "ones": 2189,
      "edul": 2190,
      "alph": 2191,
      "Ġsch": 2192,
      "ĠTCP": 2193,
      "ĠTime": 2194,
      "ssuming": 2195,
      "ĠClock": 2196,
      "Ġports": 2197,
      "ets": 2198,
      "ĠAssuming": 2199,
      "Ġacti": 2200,
      "size": 2201,
      "IDE": 2202,
      "Ġ<*>.<*>.": 2203,
      "ĠPIO": 2204,
      "ĠPIC": 2205,
      "ĠMB": 2206,
      "ĠMD": 2207,
      "ĠMult": 2208,
      "ĠBP": 2209,
      "ouse": 2210,
      "Ġhdw": 2211,
      "Ġunused": 2212,
      "Ġmouse": 2213,
      "DISKS": 2214,
      "ĠRem": 2215,
      "Ġsharing": 2216,
      "Ġfreed": 2217,
      "ckets": 2218,
      "ĠRevision": 2219,
      "Ġio": 2220,
      "Ġidebus": 2221,
      "ĠVPR": 2222,
      "Ġsubsystem": 2223,
      "ĠHash": 2224,
      "ĠHuge": 2225,
      "Ġblocksize": 2226,
      "ĠLogic": 2227,
      "Ġallocated": 2228,
      "Ġbuckets": 2229,
      "Ġcommon": 2230,
      "Ġprocessors": 2231,
      "ĠIPsec": 2232,
      "Ġdisks": 2233,
      "byte": 2234,
      "ĠPBLO": 2235,
      "ĠPBHI": 2236,
      "Ġcfq": 2237,
      "Revision": 2238,
      "Ġsectors": 2239,
      "ĠJones": 2240,
      "ĠMAX": 2241,
      "Platform": 2242,
      "ĠPALO": 2243,
      "Ġagpgart": 2244,
      "reeing": 2245,
      "newide": 2246,
      "ĠDave": 2247,
      "DEVS": 2248,
      "Kbytes": 2249,
      "eduler": 2250,
      "alpha": 2251,
      "Ġscheduler": 2252,
      "Ġactivated": 2253,
      "ĠPICH": 2254,
      "ĠMulti": 2255,
      "Ġhdwr": 2256,
      "ĠHugeTLB": 2257,
      ".<<*>>": 2258,
      ":-<*>": 2259,
      "CRO": 2260,
      "DMA": 2261,
      "Id": 2262,
      "UP": 2263,
      "_<*>.<*>.<*>'": 2264,
      "grap": 2265,
      "pto": 2266,
      "rand": 2267,
      "trr": 2268,
      "Ġem": 2269,
      "ority": 2270,
      "Ġdqu": 2271,
      "-<*>)": 2272,
      "-<*>-<*>)": 2273,
      "ised": 2274,
      "ĠCry": 2275,
      "ĠCore": 2276,
      "ents": 2277,
      "<*>/<*>/<*>": 2278,
      "ĠAPI": 2279,
      "disabled": 2280,
      "Ġak": 2281,
      "Ġboun": 2282,
      "IOTLB": 2283,
      "ulation": 2284,
      "Ġinitializing": 2285,
      "Ġinitialised": 2286,
      "<*>.<*>)'": 2287,
      "ĠHot": 2288,
      "Ġ(<*>-<*>-<*>)": 2289,
      "Ġ$'": 2290,
      "ĠExp": 2291,
      "pci": 2292,
      "ĠDisk": 2293,
      "ĠPriority": 2294,
      "RTUP": 2295,
      "ĠSTARTUP": 2296,
      "Ġbuffering": 2297,
      "mapper": 2298,
      "Ġ<*>/<*>/<*>": 2299,
      "SWIOTLB": 2300,
      "Ġextents": 2301,
      "CRON": 2302,
      "graphic": 2303,
      "ptographic": 2304,
      "random": 2305,
      "Ġemulation": 2306,
      "Ġdquot": 2307,
      "ĠCryptographic": 2308,
      "Ġbounce": 2309,
      "ĠTSC": 2310,
      "ĠSub": 2311,
      "Ġacro": 2312,
      "Ġinitram": 2313,
      "Ġpassed": 2314,
      "rought": 2315,
      "ĠSubsystem": 2316,
      "Ġacross": 2317,
      "Ġinitramfs": 2318,
      "cf": 2319,
      ".<*>'": 2320,
      "ĠInterpre": 2321,
      "ĠInterpreter": 2322,
      "Ġ>": 2323,
      "PG": 2324,
      "ĠGPG": 2325,
      "ĠAdding": 2326,
      "ive": 2327,
      "arget": 2328,
      "alm": 2329,
      "Ġass": 2330,
      "Ġassuming": 2331,
      "))": 2332,
      "write": 2333,
      ".<*>))": 2334,
      "Ġ(#<*>#@#<*>#": 2335,
      "ĠOn": 2336,
      "ĠBootdata": 2337,
      "Ġ<*>.<*>.<*>-<*>.<*>))": 2338,
      "Ġ(#<*>#@#<*>#)": 2339,
      "Phy": 2340,
      "fun": 2341,
      "rtu": 2342,
      "Ġbios": 2343,
      "Ġ<*>]": 2344,
      "Ġfw": 2345,
      "ions": 2346,
      "virtu": 2347,
      "Ġhw": 2348,
      "ĠLD": 2349,
      "Ġ<*>:<*>:<*>:<*>:": 2350,
      "raid": 2351,
      "Ġasking": 2352,
      "Ġdrives": 2353,
      "slot": 2354,
      "func": 2355,
      "virtual": 2356,
      "ĠDMI": 2357,
      "ĠRemo": 2358,
      "acy": 2359,
      "tens": 2360,
      "vacy": 2361,
      "Ġsupport": 2362,
      "versal": 2363,
      "ĠBuilt": 2364,
      "ĠInterface": 2365,
      "ĠExtens": 2366,
      "ĠPrivacy": 2367,
      "ĠUniversal": 2368,
      "ĠExtensions": 2369,
      "lacing": 2370,
      "order": 2371,
      "ĠConsole": 2372,
      "ĠCapability": 2373,
      "entry": 2374,
      "ĠSecurity": 2375,
      "ĠDentry": 2376,
      "ĠPlacing": 2377,
      "Ġselinux": 2378,
      "ĠThere": 2379,
      "ĠRemounting": 2380,
      "licens": 2381,
      "ĠBooting": 2382,
      "hat": 2383,
      "ru": 2384,
      "Ġ<": 2385,
      "<*>_<*>-": 2386,
      "ĠBru": 2387,
      "ĠRed": 2388,
      "redhat": 2389,
      "ĠAllen": 2390,
      "gnu": 2391,
      "Ġ>'": 2392,
      "ĠBruce": 2393,
      "pen": 2394,
      "sed": 2395,
      "Ġlicens": 2396,
      "Ġmtrr": 2397,
      "ĠHome": 2398,
      "ĠOpen": 2399,
      "Ġparsed": 2400,
      "://#<*>#/'": 2401,
      "Ġtaints": 2402,
      "ĠttyS": 2403,
      "Ġlicense": 2404,
      "ĠOpened": 2405,
      "Ġit": 2406,
      "Ġfind": 2407,
      "ĠFreeing": 2408,
      "ume": 2409,
      "ĠSerial": 2410,
      "ĠBrought": 2411,
      "Ġusb": 2412,
      "localtime": 2413,
      "ĠReal": 2414,
      "Ġ<*>-<*>:": 2415,
      "Ġsystems": 2416,
      "ĠLogical": 2417,
      "ĠRAMDISK": 2418,
      "ĠUniform": 2419,
      "NAPI": 2420,
      "ĠVolume": 2421,
      "-#<*>#@#<*>#": 2422,
      "HCI": 2423,
      "May": 2424,
      "ĠVFS": 2425,
      "emon": 2426,
      "Ġdm": 2427,
      "Ġdur": 2428,
      "Ġtarget": 2429,
      "ĠIA": 2430,
      "ĠEHCI": 2431,
      "Ġ<*>.<*>,": 2432,
      "send": 2433,
      "hcd": 2434,
      "hci": 2435,
      "Ġehci": 2436,
      "Ġcfg": 2437,
      "cfg": 2438,
      "Ġsupported": 2439,
      "-#<*>#@#<*>#'": 2440,
      "Ġduring": 2441,
      "nabl": 2442,
      "ering": 2443,
      "ĠEnt": 2444,
      "ĠEnabl": 2445,
      "Ġrunlevel": 2446,
      "ĠEntering": 2447,
      "ĠEnabling": 2448,
      "ĠInc": 2449,
      "aemon": 2450,
      "Ġdaemon": 2451,
      "ium": 2452,
      "ĠCons": 2453,
      "ortium": 2454,
      "ĠInternet": 2455,
      "ĠConsortium": 2456,
      "Ġsuit": 2457,
      "Ġsuitable": 2458,
      "EC": 2459,
      "fn": 2460,
      "ox": 2461,
      "udev": 2462,
      "<*>\"": 2463,
      "anox": 2464,
      "ĠTav": 2465,
      "ĠMell": 2466,
      "Ġudev": 2467,
      "Ġcreating": 2468,
      "Ġdevfn": 2469,
      "InfiniHost": 2470,
      "udevsend": 2471,
      "ĠTavor": 2472,
      "ĠMellanox": 2473,
      "Ġudevd": 2474,
      ").": 2475,
      "irect": 2476,
      "ou": 2477,
      "ĠDirect": 2478,
      "Ġremovable": 2479,
      "ĠDirective": 2480,
      "SMA": 2481,
      "ĠIEC": 2482,
      "ĠMar": 2483,
      "Ġcmm": 2484,
      "SMART": 2485,
      "ĠON": 2486,
      "Ġaccess": 2487,
      "Ġreadonly": 2488,
      "realm": 2489,
      "Ġske": 2490,
      "Ġrejec": 2491,
      "Ġyou": 2492,
      "Ġexceeds": 2493,
      "Ġskew": 2494,
      "Ġrejected": 2495,
      "IP": 2496,
      "Ġloaded": 2497,
      "Int": 2498,
      "Intel": 2499,
      "ped": 2500,
      "uid": 2501,
      "Ġrpc": 2502,
      "rpcidmapd": 2503,
      "Ġreal": 2504,
      "KL": 2505,
      "key": 2506,
      "ĠVIP": 2507,
      "create": 2508,
      "keys": 2509,
      "ĠVIPKL": 2510,
      "ĠPan": 2511,
      "<*>:<*>": 2512,
      "Ġdrop": 2513,
      "if": 2514,
      "TS": 2515,
      "Ġplease": 2516,
      "ĠSTATS": 2517,
      "Ġdropped": 2518,
      "ĠPanFS": 2519,
      "'t": 2520,
      "boot": 2521,
      "Ġguid": 2522,
      ":(": 2523,
      "())": 2524,
      "Ġ<*>:<*>:(": 2525,
      "Ġtrace": 2526,
      "<*>']": 2527,
      "Ġdecls": 2528,
      "Ġthe": 2529,
      "ERT": 2530,
      "Ġcan": 2531,
      "ited": 2532,
      "Ġexited": 2533,
      "common": 2534,
      "Ġturn": 2535,
      "Ġturned": 2536,
      "tage": 2537,
      "uine": 2538,
      "enuine": 2539,
      "Ġab": 2540,
      "ĠGenuine": 2541,
      "ĠGenuineIntel": 2542,
      "Ġauthentication": 2543,
      "LERT": 2544,
      "normal": 2545,
      "tate": 2546,
      "rotate": 2547,
      "ĠALERT": 2548,
      "logrotate": 2549,
      "Ġabnormal": 2550,
      "Ġabnormally": 2551,
      "EMP": 2552,
      "TEMP": 2553,
      "ĠExit": 2554,
      "Reboot": 2555,
      "ĠIf": 2556,
      "cmd": 2557,
      "cmdif": 2558,
      "smatch": 2559,
      "Ġmismatch": 2560,
      "Ġsp": 2561,
      "min": 2562,
      "Ġused": 2563,
      "ess": 2564,
      "Ġmess": 2565,
      "Ġmax": 2566,
      "PA": 2567,
      "ĠAF": 2568,
      "Ġexiting": 2569,
      "]'": 2570,
      "home": 2571,
      "aration": 2572,
      "Ġ**": 2573,
      "Ġdeclaration": 2574,
      "fo": 2575,
      "Ġshutting": 2576,
      "soc": 2577,
      "last": 2578,
      "client": 2579,
      "knal": 2580,
      "socknal": 2581,
      "Ġ<*>>": 2582,
      "Ġle": 2583,
      "Ġ#<*>#@#<*>#": 2584,
      "/'": 2585,
      "hts": 2586,
      "Ġrig": 2587,
      "Ġ<<*>": 2588,
      "isit": 2589,
      "Ġvisit": 2590,
      "Ġinfo": 2591,
      "dhcp": 2592,
      "Ġrights": 2593,
      "request": 2594,
      "Ġreading": 2595,
      "Ġend": 2596,
      "Ġsettings": 2597,
      "No": 2598,
      "put": 2599,
      "admin": 2600,
      "Pro": 2601,
      "lustre": 2602,
      "Ġrepe": 2603,
      "Ġmessage": 2604,
      "Ġrepeated": 2605,
      "ĠPublic": 2606,
      "ĠAuthentic": 2607,
      "ĠRO": 2608,
      "uld": 2609,
      "queue": 2610,
      "Ġget": 2611,
      "Ġmay": 2612,
      "ived": 2613,
      "ceived": 2614,
      "ĠReceived": 2615,
      "BIOS": 2616,
      "Error": 2617,
      "ĠLustreError": 2618,
      "ace": 2619,
      "asas": 2620,
      "(<*>)": 2621,
      "Ġgo": 2622,
      "Ġspace": 2623,
      "ould": 2624,
      "achable": 2625,
      "AS": 2626,
      "ange": 2627,
      "\")'": 2628,
      "GIN": 2629,
      "SAS": 2630,
      "kmod": 2631,
      "Ġfac": 2632,
      "Ġ(\"": 2633,
      "Ġsubdev": 2634,
      "NASAS": 2635,
      "PANASAS": 2636,
      "Ġfacility": 2637,
      "module": 2638,
      "erber": 2639,
      "ĠKerber": 2640,
      "ĠKerberos": 2641,
      "bird": 2642,
      "Ġma": 2643,
      "GT": 2644,
      "ĠTGT": 2645,
      "lict": 2646,
      "Ġconf": 2647,
      "Ġ#<*>#@#<*>#.'": 2648,
      "Ġconflict": 2649,
      "tbird": 2650,
      "Ġbut": 2651,
      "Ġ<<*>>": 2652,
      "Ġdel": 2653,
      "=<*>/": 2654,
      "OGIN": 2655,
      "eted": 2656,
      "ĠLOGIN": 2657,
      "=<*>/<*>,": 2658,
      "nam": 2659,
      "ynam": 2660,
      "Ġdynam": 2661,
      "Ġdeleted": 2662,
      "Ġdynamic": 2663,
      "Nov": 2664,
      "ĠClient": 2665,
      "Ġpanasas": 2666,
      "Ġpoll": 2667,
      "MB": 2668,
      "ead": 2669,
      "head": 2670,
      "kB": 2671,
      "uct": 2672,
      "struct": 2673,
      "jor": 2674,
      "yte": 2675,
      "Ġlocking": 2676,
      "ĠByte": 2677,
      "Ġrange": 2678,
      "Ġmajor": 2679,
      "AMD": 2680,
      "IX": 2681,
      "NIX": 2682,
      "UNIX": 2683,
      "atter": 2684,
      "ĠAhead": 2685,
      "Ġvol": 2686,
      "ĠBatter": 2687,
      "ĠDiscre": 2688,
      "Ġloading": 2689,
      "Ġtainted": 2690,
      "ĠVoltage": 2691,
      "Ġlevel": 2692,
      "ĠAuthenticAMD": 2693,
      "ĠROMB": 2694,
      "Ġvoltage": 2695,
      "ĠBattery": 2696,
      "ĠDiscrete": 2697,
      "trace": 2698,
      "Ġreachable": 2699,
      "Ġshould": 2700,
      "Ġservers": 2701,
      "Ġadded": 2702,
      "Ġare": 2703,
      "Ġoops": 2704,
      "NET": 2705,
      "ure": 2706,
      "ailure": 2707,
      "Ġactive": 2708,
      "Ġfailure": 2709,
      "=<*>:": 2710,
      "EXT": 2711,
      "ken": 2712,
      "Ġ'-": 2713,
      "hich": 2714,
      "Ġwhich": 2715,
      "ute": 2716,
      "oring": 2717,
      "roken": 2718,
      "cho": 2719,
      "Ġfl": 2720,
      "serio": 2721,
      "Ġreop": 2722,
      "Ġbroken": 2723,
      "<*>:<*>),": 2724,
      "INET": 2725,
      "Probing": 2726,
      "Ġreopening": 2727,
      "IL": 2728,
      "ill": 2729,
      "Ġyour": 2730,
      "OP": 2731,
      "ant": 2732,
      "Ġdhc": 2733,
      "ĠIgn": 2734,
      "gment": 2735,
      "Ġreque": 2736,
      "Ġ(<*>).'": 2737,
      "Ġwant": 2738,
      "Ġsegment": 2739,
      "shut": 2740,
      "Ġaccepting": 2741,
      "Ġconnections": 2742,
      "Ġwhat": 2743,
      "Ġattached": 2744,
      "Ġthis": 2745,
      "<*>:<*>.": 2746,
      "Ġ**'": 2747,
      "Ġdhcpd": 2748,
      "ĠIgnoring": 2749,
      "Ġrequests": 2750,
      "shutdown": 2751,
      "PCI": 2752,
      "Initializing": 2753,
      "conn": 2754,
      "iate": 2755,
      "ksocknal": 2756,
      "Ġ!'": 2757,
      "route": 2758,
      "ociate": 2759,
      "associate": 2760,
      "obd": 2761,
      "locked": 2762,
      "TOP": 2763,
      "<*>)'": 2764,
      "ĠTERM": 2765,
      "ĠSTOP": 2766,
      "Ġ'--": 2767,
      "ait": 2768,
      "fore": 2769,
      "-<*>.<*>.<*>.": 2770,
      "Ġbefore": 2771,
      "Ġready": 2772,
      "ĠWait": 2773,
      "ran": 2774,
      "annot": 2775,
      "assword": 2776,
      "atus": 2777,
      "Ġqueue": 2778,
      "usb": 2779,
      "ĠPassword": 2780,
      "ports": 2781,
      "Ġstatus": 2782,
      "SELinux": 2783,
      "call": 2784,
      "sup": 2785,
      "Ġ#<*>#'": 2786,
      "supports": 2787,
      "OT": 2788,
      "ql": 2789,
      "sql": 2790,
      "ĠTran": 2791,
      "ON": 2792,
      "core": 2793,
      "EM": 2794,
      "NG": 2795,
      "fct": 2796,
      "my": 2797,
      "-<*>.<*>.<*>-": 2798,
      "ĠPhys": 2799,
      "perfct": 2800,
      "Ġ<*>-<*>'": 2801,
      "mysql": 2802,
      "ĠPhysical": 2803,
      "perfctr": 2804,
      "AEM": 2805,
      "DAEM": 2806,
      "echo": 2807,
      "mqueue": 2808,
      "ool": 2809,
      "Ġ+": 2810,
      "als": 2811,
      "Ġneeds": 2812,
      "spool": 2813,
      "SMTP": 2814,
      "clientmqueue": 2815,
      "DAEMON": 2816,
      "Ġcannot": 2817,
      "BU": 2818,
      "di": 2819,
      "sad": 2820,
      "Ġtput": 2821,
      "omsad": 2822,
      "bo": 2823,
      "login": 2824,
      "Ġisa": 2825,
      "divert": 2826,
      "board": 2827,
      "Ġresp": 2828,
      "gid": 2829,
      "Ġnlink": 2830,
      "ĠAT": 2831,
      "Ġkeyboard": 2832,
      "slated": 2833,
      "Ġleft": 2834,
      "ĠTranslated": 2835,
      "Ġbringup": 2836,
      "Us": 2837,
      "ĠRNG": 2838,
      "ĠOK": 2839,
      "usbcore": 2840,
      "Using": 2841,
      "#<*>'": 2842,
      "Boot": 2843,
      "Calibrating": 2844,
      "Failed": 2845,
      "SER": 2846,
      "YSER": 2847,
      "od": 2848,
      "ood": 2849,
      "apic": 2850,
      "ĠCritical": 2851,
      "-<*>.<*>.<*>-<*>.<*>.<*>.": 2852,
      "ĠSYSER": 2853,
      "Ġlapic": 2854,
      "ĠGood": 2855,
      "Ġspec": 2856,
      "Processor": 2857,
      "ĠSYSERR": 2858,
      "Normal": 2859,
      "Ġtry": 2860,
      "Ġinput": 2861,
      "ĠBY": 2862,
      "bug": 2863,
      "ffff": 2864,
      "PC": 2865,
      "*<*>": 2866,
      "BD": 2867,
      "hut": 2868,
      "Ġ<*>*<*>": 2869,
      "smp": 2870,
      "ĠSkip": 2871,
      "ĠShut": 2872,
      "debug": 2873,
      "portals": 2874,
      "ĠOBD": 2875,
      "Ġ#<*>#[<*>]:": 2876,
      "ĠShutting": 2877,
      "kill": 2878,
      "killall": 2879,
      "nfs": 2880,
      "Ġpack": 2881,
      "mounting": 2882,
      "Ġpacket": 2883,
      "TH": 2884,
      "VPA": 2885,
      "aug": 2886,
      "kjournald": 2887,
      "null": 2888,
      "pology": 2889,
      "ale": 2890,
      "ĠCaug": 2891,
      "Ġtopology": 2892,
      "Ġstale": 2893,
      "ĠDEVPA": 2894,
      "registering": 2895,
      "onse": 2896,
      "Ġresponse": 2897,
      "ĠCaught": 2898,
      "ĠDEVPATH": 2899,
      "Attached": 2900,
      "RN": 2901,
      "megaraid": 2902,
      "scsi": 2903,
      "WARN": 2904,
      "Ġexceeded": 2905,
      "mi": 2906,
      "ĠAC": 2907,
      "Ġstack": 2908,
      "Ġ#<*>#@#<*>#'": 2909,
      "onding": 2910,
      "Ġmad": 2911,
      "usted": 2912,
      "Ġbring": 2913,
      "Ġsyslog": 2914,
      "IV": 2915,
      "TIV": 2916,
      "ified": 2917,
      "outing": 2918,
      "Ġgsi": 2919,
      "file": 2920,
      "Ġcmd": 2921,
      "Ġinitrd": 2922,
      "IOAPIC": 2923,
      "Ġapic": 2924,
      "ĠIOAPIC": 2925,
      "Booting": 2926,
      "ĠACTIV": 2927,
      "ĠACTIVE": 2928,
      "ĠWARN": 2929,
      "ING": 2930,
      "Ġspecified": 2931,
      "ĠWARNING": 2932,
      "pec": 2933,
      "pected": 2934,
      "->": 2935,
      "audit": 2936,
      "Ġhas": 2937,
      "Ġmessages": 2938,
      "LID": 2939,
      "Ġstill": 2940,
      "ermin": 2941,
      "Ġsim": 2942,
      "ilar": 2943,
      "Ġprevious": 2944,
      "Ġrelease": 2945,
      "clean": 2946,
      "ĠUnmounting": 2947,
      "Ġskipped": 2948,
      "Ġsimilar": 2949,
      "Ġpreviously": 2950,
      "cleanup": 2951,
      "ĠDetec": 2952,
      "ĠDetect": 2953,
      "QL": 2954,
      "SQL": 2955,
      "db": 2956,
      "dle": 2957,
      "Ġ<*>;": 2958,
      "install": 2959,
      "Ġtermin": 2960,
      "ĠIdle": 2961,
      "ĠMySQL": 2962,
      "ĠAuthentication": 2963,
      "ĠROOT": 2964,
      "Ġterminating": 2965,
      "Ġping": 2966,
      "Ġexpected": 2967,
      "Ġtrying": 2968,
      ")[<*>]:": 2969,
      "LA": 2970,
      "eco": 2971,
      "ix": 2972,
      "osen": 2973,
      "urnt": 2974,
      "Ġreturnt": 2975,
      "ect": 2976,
      "upcall": 2977,
      "ĠLBU": 2978,
      "unix": 2979,
      "Ġselect": 2980,
      "osender": 2981,
      "Ġreturntosender": 2982,
      "ĠLBUG": 2983,
      "resp": 2984,
      "ĠCA": 2985,
      "Ġeuid": 2986,
      "Ġ<*>.<*>.<*>-<*>.": 2987,
      "responding": 2988,
      "Ġtick": 2989,
      "Ġsome": 2990,
      "ntab": 2991,
      "crontab": 2992,
      "ifup": 2993,
      "Ġticks": 2994,
      "OR": 2995,
      "SCSI": 2996,
      "Type": 2997,
      "Vendor": 2998,
      "ir": 2999,
      "ook": 3000,
      "Ġfloppy": 3001,
      "Ġnetfilter": 3002,
      "Ġhook": 3003,
      "Ġcap": 3004,
      "buildir": 3005,
      "ILD": 3006,
      "BUILD": 3007,
      "Ġhooks": 3008,
      "ĠRPC": 3009,
      "iti": 3010,
      "Ġioc": 3011,
      "ED": 3012,
      "Linux": 3013,
      "NE": 3014,
      "Total": 3015,
      "detec": 3016,
      "justed": 3017,
      "oad": 3018,
      "oib": 3019,
      "sur": 3020,
      "uffer": 3021,
      "xt": 3022,
      "Ġnfs": 3023,
      "Ġpast": 3024,
      "etting": 3025,
      "ĠFOR": 3026,
      "ĠAuto": 3027,
      "Ġarr": 3028,
      "esetting": 3029,
      "eck": 3030,
      "ĠBuffer": 3031,
      "ays": 3032,
      "logsur": 3033,
      "ĠResetting": 3034,
      "Ġcheck": 3035,
      "Ġnext": 3036,
      "ĠDONE": 3037,
      "Ġadjusted": 3038,
      "RAMDISK": 3039,
      "ipoib": 3040,
      "Ġpermi": 3041,
      "detecting": 3042,
      "ĠAutodetecting": 3043,
      "Ġarrays": 3044,
      "logsurfer": 3045,
      "AL": 3046,
      "BEL": 3047,
      "GE": 3048,
      "IA": 3049,
      "IMA": 3050,
      "OOT": 3051,
      "af": 3052,
      "cff": 3053,
      "uz": 3054,
      "vml": 3055,
      "Ġ)'": 3056,
      "inuz": 3057,
      "Ġfast": 3058,
      "Ġdadmin": 3059,
      "ĠFRO": 3060,
      "checking": 3061,
      "Ġlustre": 3062,
      "ĠFAIL": 3063,
      "ĠNAL": 3064,
      "ĠBOOT": 3065,
      "Ġmem": 3066,
      "imum": 3067,
      "ĠRouting": 3068,
      "initrd": 3069,
      "Ġmaximum": 3070,
      "mysqld": 3071,
      "nfsd": 3072,
      "LABEL": 3073,
      "IMAGE": 3074,
      "afb": 3075,
      "vmlinuz": 3076,
      "Ġfastboot": 3077,
      "ĠFROM": 3078,
      "ĠFAILED": 3079,
      "back": 3080,
      ")']": 3081,
      "mon": 3082,
      "device": 3083,
      "ĠMount": 3084,
      "try": 3085,
      "retry": 3086,
      "ĠCould": 3087,
      "Ġmore": 3088,
      "netfs": 3089,
      "LIN": 3090,
      "TNET": 3091,
      "reachable": 3092,
      "Ġanswers": 3093,
      "ĠFrom": 3094,
      "Ġunreachable": 3095,
      "ĠRTNET": 3096,
      "ĠUDP": 3097,
      "Ġ#<*>#:<*>'": 3098,
      "LINK": 3099,
      "ĠRTNETLINK": 3100,
      "rg": 3101,
      "ĠSO": 3102,
      "disall": 3103,
      "Ġrealm": 3104,
      "Ġarg": 3105,
      "ese": 3106,
      "Ġthese": 3107,
      "ĠThis": 3108,
      "ĠPanasas": 3109,
      "lastlog": 3110,
      "callback": 3111,
      "disallow": 3112,
      "=-<*>": 3113,
      "CK": 3114,
      "RPC": 3115,
      "[[": 3116,
      "]]'": 3117,
      "context": 3118,
      "set": 3119,
      "reate": 3120,
      "Ġfp": 3121,
      "Ġtclass": 3122,
      "Ġtcontext": 3123,
      "ump": 3124,
      "objec": 3125,
      "Ġcreate": 3126,
      "Ġqueueup": 3127,
      "->[[": 3128,
      "ĠSOCK": 3129,
      "=-<*>,": 3130,
      "object": 3131,
      "Ġout": 3132,
      "ĠNode": 3133,
      ":<*>):": 3134,
      "act": 3135,
      "ging": 3136,
      "tr": 3137,
      "{<*>": 3138,
      "ĠY": 3139,
      "<*>(": 3140,
      "attr": 3141,
      "inas": 3142,
      "chr": 3143,
      "ĠPow": 3144,
      "Ġseem": 3145,
      "Ġthread": 3146,
      "salinas": 3147,
      "Ġgetattr": 3148,
      "Ġoutput": 3149,
      "{<*>}": 3150,
      "ĠPower": 3151,
      "KIL": 3152,
      "kd": 3153,
      "ication": 3154,
      "Ġlockd": 3155,
      "ification": 3156,
      "nfslock": 3157,
      "KILL": 3158,
      "!!'": 3159,
      "USB": 3160,
      "gent": 3161,
      "ment": 3162,
      "ward": 3163,
      "Ġunt": 3164,
      "input": 3165,
      "ote": 3166,
      "ssed": 3167,
      "viron": 3168,
      "ĠAgent": 3169,
      "Ġforward": 3170,
      "change": 3171,
      "ested": 3172,
      "rootsmp": 3173,
      "Ġunex": 3174,
      "owing": 3175,
      ".']": 3176,
      "Ġmounting": 3177,
      "Ġexchange": 3178,
      "Ġenviron": 3179,
      "ĠIPv": 3180,
      "Ġuntested": 3181,
      "Ġforwarding": 3182,
      "Ġenvironment": 3183,
      "stable": 3184,
      "ĠCall": 3185,
      "Ġlon": 3186,
      ",/": 3187,
      ",<*>'": 3188,
      "-#<*>#/": 3189,
      "NO": 3190,
      "SS": 3191,
      "dump": 3192,
      "failed": 3193,
      "fcount": 3194,
      "ffa": 3195,
      "kport": 3196,
      "run": 3197,
      "ued": 3198,
      "vok": 3199,
      "ertion": 3200,
      "stack": 3201,
      "refcount": 3202,
      "Ġfffff": 3203,
      ".<*>.<*>/": 3204,
      "ername": 3205,
      "decho": 3206,
      "ĠInvok": 3207,
      "assertion": 3208,
      "ĠASS": 3209,
      "Ġportals": 3210,
      "Ġlctl": 3211,
      "Ġ==": 3212,
      "obdecho": 3213,
      "Ġusername": 3214,
      "Ġbad": 3215,
      "Ġshowing": 3216,
      "Ġupcall": 3217,
      "ION": 3218,
      "fff": 3219,
      "queued": 3220,
      "ERTION": 3221,
      "NOTLB": 3222,
      "dumpstack": 3223,
      "kportal": 3224,
      "Ġffffffff": 3225,
      "ĠInvoked": 3226,
      "ĠASSERTION": 3227,
      "ify": 3228,
      "verify": 3229,
      "osing": 3230,
      "und": 3231,
      "Ġverification": 3232,
      "biosverify": 3233,
      "Ad": 3234,
      "Copyright": 3235,
      "DIT": 3236,
      "FF": 3237,
      "Freeing": 3238,
      "Load": 3239,
      "PW": 3240,
      "RF": 3241,
      "Ser": 3242,
      "TCP": 3243,
      "Un": 3244,
      "hw": 3245,
      "iform": 3246,
      "nel": 3247,
      "pyright": 3248,
      "ton": 3249,
      "Ġbi": 3250,
      "Ġkn": 3251,
      "err": 3252,
      "inser": 3253,
      "Ġtun": 3254,
      "copyright": 3255,
      "swb": 3256,
      "anging": 3257,
      "ĠEDIT": 3258,
      "ortIn": 3259,
      "ĠChanging": 3260,
      "Ġinstable": 3261,
      "ĠPortIn": 3262,
      "ĠNS": 3263,
      "ĠBut": 3264,
      "Ġhog": 3265,
      "untime": 3266,
      "ssions": 3267,
      "upts": 3268,
      "Ġcontroller": 3269,
      "ĠKey": 3270,
      "Ġinterupts": 3271,
      "stalling": 3272,
      "fsd": 3273,
      "Ġruntime": 3274,
      "Ġkeyring": 3275,
      "pressed": 3276,
      "Real": 3277,
      "Installing": 3278,
      "Ġ<*>/<*>'": 3279,
      ":[<*>": 3280,
      "IPv": 3281,
      "Ġgoing": 3282,
      "Ġspecial": 3283,
      "mice": 3284,
      "Ġpermissions": 3285,
      "monad": 3286,
      "Ġseems": 3287,
      "Adding": 3288,
      "Loading": 3289,
      "PWRF": 3290,
      "Serial": 3291,
      "Uniform": 3292,
      "neling": 3293,
      "Ġknfsd": 3294,
      "inserting": 3295,
      "Ġtunneling": 3296,
      "ĠPortInfo": 3297,
      "ĠButton": 3298,
      "Ġhogging": 3299,
      "Ġcontrollers": 3300,
      ".\"": 3301,
      "Sing": 3302,
      "ĠLosing": 3303,
      "Ġroute": 3304,
      "Ġbit": 3305,
      "Single": 3306,
      ");": 3307,
      "-.": 3308,
      ".#<*>#": 3309,
      "Built": 3310,
      "Brought": 3311,
      "Ch": 3312,
      "Console": 3313,
      "Capability": 3314,
      "Detected": 3315,
      "Memory": 3316,
      "OS": 3317,
      "On": 3318,
      "Routing": 3319,
      "Security": 3320,
      "TIN": 3321,
      "UMA": 3322,
      "ag": 3323,
      "arent": 3324,
      "car": 3325,
      "driver": 3326,
      "fdis": 3327,
      "final": 3328,
      "gic": 3329,
      "hid": 3330,
      "keeping": 3331,
      "load": 3332,
      "mailed": 3333,
      "mtrr": 3334,
      "nation": 3335,
      "rid": 3336,
      "rusted": 3337,
      "sel": 3338,
      "tal": 3339,
      "task": 3340,
      "ertu": 3341,
      "reset": 3342,
      "Ġ(#<*>#@": 3343,
      "-<*>-": 3344,
      "-<*>[<*>]:": 3345,
      "Ġtrusted": 3346,
      "ssive": 3347,
      "ĠCent": 3348,
      "ĠCannot": 3349,
      ".<*>.<*>.": 3350,
      "using": 3351,
      "ĠDetected": 3352,
      "ĠESM": 3353,
      "ĠEcho": 3354,
      "Ġves": 3355,
      "Ġ<*>.<*>']": 3356,
      "Ġincar": 3357,
      "<*>))": 3358,
      "Ġ-<*>'": 3359,
      "ĠPDT": 3360,
      "ased": 3361,
      "Ġwrit": 3362,
      "ĠNUMA": 3363,
      "ĠBuild": 3364,
      "Ġhad": 3365,
      "Ġbrid": 3366,
      "Ġbased": 3367,
      "Ġunload": 3368,
      "Ġmwa": 3369,
      "Ġcpi": 3370,
      "ogin": 3371,
      "ISTIN": 3372,
      "Ġtimekeeping": 3373,
      "porting": 3374,
      "Ġlooks": 3375,
      "Ġisn": 3376,
      "Ġ<*>.<*>.<*>-<*>.<*>.<*>.": 3377,
      "sparent": 3378,
      "ĠHID": 3379,
      "Ġlike": 3380,
      "Ġidle": 3381,
      "ĠCompressed": 3382,
      "Ġ#<*>#-<*>-": 3383,
      "acceptor": 3384,
      "Ġapertu": 3385,
      "There": 3386,
      "ĠJun": 3387,
      "ĠMAIL": 3388,
      "PRISTIN": 3389,
      "Placing": 3390,
      "vesafb": 3391,
      "cfc": 3392,
      "(<*>){<*>}": 3393,
      "Ġmagic": 3394,
      "Ġflag": 3395,
      "ĠTransparent": 3396,
      "Bootdata": 3397,
      "ffffda": 3398,
      "Ġpermissive": 3399,
      "cffc": 3400,
      "cffcfc": 3401,
      "ĠMounted": 3402,
      "ĠYour": 3403,
      "Ġthreads": 3404,
      "Ġunexporting": 3405,
      ".#<*>#.": 3406,
      "Checking": 3407,
      "drivers": 3408,
      "fdisk": 3409,
      "selinux": 3410,
      "talogin": 3411,
      "ĠCentOS": 3412,
      "Ġvesafb": 3413,
      "Ġincarnation": 3414,
      "Ġwriting": 3415,
      "Ġbridge": 3416,
      "Ġunloaded": 3417,
      "Ġmwait": 3418,
      "Ġcpio": 3419,
      "Ġaperture": 3420,
      "PRISTINE": 3421,
      "Ġflags": 3422,
      "sock": 3423,
      "ĠSee": 3424,
      "Ġcommands": 3425,
      "\".'": 3426,
      "ANG": 3427,
      "LIA": 3428,
      "NS": 3429,
      "pping": 3430,
      "Ġgmetad": 3431,
      "ĠSto": 3432,
      "Ġ['": 3433,
      "ĠDNS": 3434,
      "ĠGANG": 3435,
      "arp": 3436,
      "Ġ<*>)']": 3437,
      "Ġcall": 3438,
      "#<*>#\".'": 3439,
      "Ġinode": 3440,
      "Ġlookup": 3441,
      "Ġ\"#<*>#\".'": 3442,
      "Ġevent": 3443,
      "ĠStopping": 3444,
      "ĠGANGLIA": 3445,
      "IMM": 3446,
      "gg": 3447,
      "her": 3448,
      "man": 3449,
      "oss": 3450,
      "oid": 3451,
      "Ġestabl": 3452,
      "Ġestablished": 3453,
      "sted": 3454,
      "orage": 3455,
      "address": 3456,
      "ible": 3457,
      "other": 3458,
      "Ġdet": 3459,
      "elow": 3460,
      "Ġanother": 3461,
      "Ġsend": 3462,
      "ails": 3463,
      "listed": 3464,
      "ĠDIMM": 3465,
      "Ġstorage": 3466,
      "icate": 3467,
      "Ġcould": 3468,
      "ĠPoss": 3469,
      "ript": 3470,
      "ests": 3471,
      "Ġbelow": 3472,
      "Ġcause": 3473,
      "Ġsugg": 3474,
      "Ġsucceed": 3475,
      "ĠUmounting": 3476,
      "unicate": 3477,
      "Ġinterfaces": 3478,
      "cluding": 3479,
      "Ġbeen": 3480,
      "Ġexcluded": 3481,
      "ĠExcluding": 3482,
      "Ġ#<*>#:<*>": 3483,
      "Ġavoid": 3484,
      "Ġcommunicate": 3485,
      "Ġthat": 3486,
      "Ġresponding": 3487,
      "Ġlong": 3488,
      "Ġestablish": 3489,
      "Ġdetails": 3490,
      "Ġsends": 3491,
      "Ġcouldn": 3492,
      "ĠPossible": 3493,
      "Ġsuggests": 3494,
      "ART": 3495,
      "bff": 3496,
      "name": 3497,
      "su": 3498,
      "trip": 3499,
      "endm": 3500,
      "Ġsendm": 3501,
      "ĠATA": 3502,
      "Ġportmap": 3503,
      "Ġ-<*>).'": 3504,
      "Ġuid": 3505,
      "Ġcont": 3506,
      "itor": 3507,
      "itoring": 3508,
      "portmap": 3509,
      "Ġnear": 3510,
      "Ġrhost": 3511,
      "Ġruser": 3512,
      "ĠSMART": 3513,
      "acity": 3514,
      "ĠMonitoring": 3515,
      "Ġlogname": 3516,
      "LOGIN": 3517,
      "ĠPAM": 3518,
      "ĠRemote": 3519,
      "Ġcapable": 3520,
      "Ġcapacity": 3521,
      "monitor": 3522,
      "errno": 3523,
      "Ġsendmsg": 3524,
      "Ġcontact": 3525,
      "&<*>)'": 3526,
      "={": 3527,
      "PT": 3528,
      "Target": 3529,
      "VOT": 3530,
      "fm": 3531,
      "gro": 3532,
      "wRe": 3533,
      "}'": 3534,
      "Ġdon": 3535,
      "Ġ(/": 3536,
      "Ġ(#<*>#": 3537,
      "iliti": 3538,
      "ĠCapab": 3539,
      "usion": 3540,
      "ĠFwRe": 3541,
      "ĠFusion": 3542,
      "ĠIniti": 3543,
      "Ġfork": 3544,
      "Ġinto": 3545,
      "ĠPorts": 3546,
      "ĠMax": 3547,
      "ĠMPT": 3548,
      "ĠNew": 3549,
      "=<*>.'": 3550,
      "Ġrate": 3551,
      "script": 3552,
      "escing": 3553,
      "Ġbackgro": 3554,
      "Ġquiescing": 3555,
      "Initi": 3556,
      "Ġmptbase": 3557,
      "Ġ<*>>&<*>)'": 3558,
      "ĠRPCs": 3559,
      "VOTD": 3560,
      "Ġdone": 3561,
      "Ġ(#<*>#)": 3562,
      "ilities": 3563,
      "ĠCapabilities": 3564,
      "ĠFwRev": 3565,
      "ĠInitiating": 3566,
      "ĠMaxQ": 3567,
      "Ġbackground": 3568,
      "Initiator": 3569,
      ")\"": 3570,
      "arc": 3571,
      "active": 3572,
      "cap": 3573,
      "rub": 3574,
      "sact": 3575,
      "Ġcustom": 3576,
      "aned": 3577,
      "cell": 3578,
      "Ġgid": 3579,
      "Ġinactive": 3580,
      "ĠRE": 3581,
      "Ġorph": 3582,
      "Ġscrub": 3583,
      "Ġ#<*>#.'": 3584,
      "ĠClearing": 3585,
      "Ġcancell": 3586,
      "ransact": 3587,
      "Ġcaps": 3588,
      "arch": 3589,
      "Ġorphaned": 3590,
      "Ġcancelled": 3591,
      "ransaction": 3592,
      "TY": 3593,
      "ĠTTY": 3594,
      "'\"]": 3595,
      "SH": 3596,
      "aon": 3597,
      "dia": 3598,
      "ient": 3599,
      "mote": 3600,
      "Ġsaon": 3601,
      "<*>/<*>'": 3602,
      "ĠSSH": 3603,
      "Ġreset": 3604,
      "Ġremote": 3605,
      "icient": 3606,
      "omdia": 3607,
      "Ġcritical": 3608,
      "Ġconnec": 3609,
      "Ġ<*>.']": 3610,
      "Ġlater": 3611,
      "fficient": 3612,
      "Insu": 3613,
      "Ġagain": 3614,
      "omdiag": 3615,
      "Ġconnecting": 3616,
      "Insufficient": 3617,
      "[]:": 3618,
      "aim": 3619,
      "tec": 3620,
      "recl": 3621,
      "Ġmin": 3622,
      "unrecl": 3623,
      "Ġprotec": 3624,
      "anned": 3625,
      "scanned": 3626,
      "aimable": 3627,
      "unreclaimable": 3628,
      "Ġprotections": 3629,
      "/<*>/<*>'": 3630,
      "='": 3631,
      "CE": 3632,
      "Key": 3633,
      "LI": 3634,
      "PLA": 3635,
      "bf": 3636,
      "cn": 3637,
      "ipe": 3638,
      "lin": 3639,
      "pack": 3640,
      "sul": 3641,
      "sarp": 3642,
      "rewrite": 3643,
      "ancy": 3644,
      "Ġtransaction": 3645,
      "ĠCLI": 3646,
      "Ġpipe": 3647,
      "Ġresul": 3648,
      "<*>){<*>}": 3649,
      "customize": 3650,
      "ĠBroken": 3651,
      "Ġsearch": 3652,
      ":<*>\"": 3653,
      ":<*>:<*>:<*>\"": 3654,
      "Ġ<*>:<*>:<*>:<*>:<*>:<*>\"": 3655,
      "Ġioctl": 3656,
      "ulp": 3657,
      ".'\"]": 3658,
      "ROR": 3659,
      "ĠYou": 3660,
      "Ġlonger": 3661,
      "undancy": 3662,
      "ĠREPLA": 3663,
      "bfca": 3664,
      "cnf": 3665,
      "linpack": 3666,
      "Ġresulted": 3667,
      "ĠREPLACE": 3668,
      "Ġadd": 3669,
      "/#<*>#": 3670,
      "Mem": 3671,
      "ND": 3672,
      "from": 3673,
      "Ġ]'": 3674,
      "Ġfatal": 3675,
      "Ġdump": 3676,
      "ceive": 3677,
      "Ġts": 3678,
      "ĠFree": 3679,
      "ĠInval": 3680,
      "Ġauth": 3681,
      "ERROR": 3682,
      "upply": 3683,
      "Ġdelaying": 3684,
      "ighMem": 3685,
      "Ġ<*>).'": 3686,
      "Ġinitialization": 3687,
      "Ġsubprocess": 3688,
      "ĠHighMem": 3689,
      "Ġlogging": 3690,
      "ĠRedundancy": 3691,
      "PAM": 3692,
      "Ġunexpected": 3693,
      "ĠInvalid": 3694,
      "Ġauths": 3695,
      "[\"": 3696,
      "ared": 3697,
      "critical": 3698,
      "Administrator": 3699,
      "Authentic": 3700,
      "CR": 3701,
      "HO": 3702,
      "MMA": 3703,
      "OMMA": 3704,
      "PON": 3705,
      "SE": 3706,
      "SPON": 3707,
      "WD": 3708,
      "__": 3709,
      "_#<*>#": 3710,
      "ak": 3711,
      "bd": 3712,
      "bre": 3713,
      "earch": 3714,
      "for": 3715,
      "kbd": 3716,
      "mup": 3717,
      "password": 3718,
      "test": 3719,
      "transaction": 3720,
      "uter": 3721,
      "ving": 3722,
      "war": 3723,
      "Ġ.": 3724,
      "Ġ.'": 3725,
      "Ġ__": 3726,
      "atkbd": 3727,
      "stress": 3728,
      "Ġ'#<*>#": 3729,
      "Ġfull": 3730,
      "ence": 3731,
      "ench": 3732,
      "isation": 3733,
      "ĠCOMMA": 3734,
      "entification": 3735,
      "ĠSupply": 3736,
      "ĠSearch": 3737,
      "Ġtoo": 3738,
      "ĠDid": 3739,
      "orted": 3740,
      "Ġstop": 3741,
      "Ġrefer": 3742,
      "Ġreports": 3743,
      "Ġreceive": 3744,
      "ĠPWD": 3745,
      "ĠNO": 3746,
      "Ġsynchronisation": 3747,
      "Ġstring": 3748,
      "Ġusers": 3749,
      "Ġoption": 3750,
      "=<*>:'": 3751,
      "ows": 3752,
      "Ġcd": 3753,
      "Ġrouter": 3754,
      "Ġpressed": 3755,
      "connect": 3756,
      "ĠHCR": 3757,
      "ĠOSC": 3758,
      "Ġkeys": 3759,
      "Ġidentification": 3760,
      "Ġcleanup": 3761,
      "Ġbusy": 3762,
      "indows": 3763,
      "://#<*>#": 3764,
      "ĠWindows": 3765,
      "ĠJournal": 3766,
      "Ġrequested": 3767,
      "ĠDaemon": 3768,
      "ECHO": 3769,
      "Ġaborted": 3770,
      "mysqladmin": 3771,
      "ĠSkipping": 3772,
      "Ġargument": 3773,
      "ĠKeyboard": 3774,
      "Ġcustomization": 3775,
      "ĠRESPON": 3776,
      "Authentication": 3777,
      "_#<*>#_": 3778,
      "akfix": 3779,
      "breakfix": 3780,
      "force": 3781,
      "testing": 3782,
      "warmup": 3783,
      "Ġ'#<*>#[<*>]:": 3784,
      "ences": 3785,
      "ĠCOMMAND": 3786,
      "ĠSearching": 3787,
      "Ġreferences": 3788,
      "Ġrouters": 3789,
      "://#<*>#'": 3790,
      "ĠRESPONSE": 3791,
      "+<*>'": 3792,
      ":']": 3793,
      "aget": 3794,
      "cp": 3795,
      "rty": 3796,
      "wap": 3797,
      "Ġempt": 3798,
      "Ġ<*>+<*>'": 3799,
      "Ġpaget": 3800,
      "ĠSwap": 3801,
      "Ġdirty": 3802,
      "Ġunstable": 3803,
      "Ġshared": 3804,
      "Ġslab": 3805,
      "Ġrace": 3806,
      "Ġwriteback": 3807,
      "Ġ<*>:<*>,": 3808,
      "Ġ<*>/<*>,": 3809,
      "Ġmapped": 3810,
      "Ġdelete": 3811,
      "Ġ#<*>#:<*>\"": 3812,
      "cpu": 3813,
      "Ġempty": 3814,
      "Ġpagetables": 3815,
      "\"]": 3816,
      "+<*>/<*>'": 3817,
      ":\"": 3818,
      "=<<*>>": 3819,
      "AT": 3820,
      "BS": 3821,
      "CO": 3822,
      "CMD": 3823,
      "Dis": 3824,
      "DCO": 3825,
      "EAS": 3826,
      "EMB": 3827,
      "Failure": 3828,
      "GUID": 3829,
      "HE": 3830,
      "HW": 3831,
      "IF": 3832,
      "Im": 3833,
      "ILB": 3834,
      "Losing": 3835,
      "LEAS": 3836,
      "Net": 3837,
      "OX": 3838,
      "ORD": 3839,
      "RROR": 3840,
      "SSW": 3841,
      "UT": 3842,
      "VOR": 3843,
      "XHH": 3844,
      "Your": 3845,
      "ave": 3846,
      "bench": 3847,
      "cv": 3848,
      "cast": 3849,
      "do": 3850,
      "dcdbas": 3851,
      "dundancy": 3852,
      "fter": 3853,
      "iving": 3854,
      "ks": 3855,
      "lace": 3856,
      "leted": 3857,
      "mar": 3858,
      "mand": 3859,
      "ode": 3860,
      "oll": 3861,
      "pm": 3862,
      "plic": 3863,
      "pared": 3864,
      "qpm": 3865,
      "rint": 3866,
      "rply": 3867,
      "server": 3868,
      "tting": 3869,
      "ual": 3870,
      "warning": 3871,
      "wall": 3872,
      "ying": 3873,
      "Ġ`": 3874,
      "Ġhel": 3875,
      "Ġob": 3876,
      "Ġright": 3877,
      "ines": 3878,
      "inode": 3879,
      "resen": 3880,
      "remov": 3881,
      "adcast": 3882,
      "Ġfoll": 3883,
      "routing": 3884,
      "roadcast": 3885,
      "ems": 3886,
      "Ġ(<*>,": 3887,
      "elem": 3888,
      "Ġdatabase": 3889,
      "Ġnam": 3890,
      "Ġtbird": 3891,
      "Ġspin": 3892,
      "Ġsup": 3893,
      "Ġsupply": 3894,
      "ĠTO": 3895,
      "ĠTermin": 3896,
      "ĠTHE": 3897,
      "ssue": 3898,
      "ĠCan": 3899,
      "Ġplace": 3900,
      "Ġprint": 3901,
      "ĠSET": 3902,
      "litting": 3903,
      "Ġtoken": 3904,
      "Ġgiving": 3905,
      "ĠFailure": 3906,
      "ĠFill": 3907,
      "ĠEND": 3908,
      "ĠERROR": 3909,
      "ĠARM": 3910,
      "atest": 3911,
      "Ġreceived": 3912,
      "Ġrecv": 3913,
      "Ġredundancy": 3914,
      "Ġafter": 3915,
      "Ġlink": 3916,
      "Ġlines": 3917,
      "Ġlatest": 3918,
      "Ġcopy": 3919,
      "ecified": 3920,
      "Ġinstruct": 3921,
      "Ġ(<*>),": 3922,
      "opt": 3923,
      "ars": 3924,
      "files": 3925,
      "TAVOR": 3926,
      "ĠPlease": 3927,
      "ĠPLEAS": 3928,
      "ĠPresen": 3929,
      "Ġwall": 3930,
      "ĠSystemIm": 3931,
      "Ġhome": 3932,
      "Ġhave": 3933,
      "Ġboot": 3934,
      "Ġbench": 3935,
      "Ġbroadcast": 3936,
      "Ġunit": 3937,
      "ĠKill": 3938,
      "Ġ[<*>]']": 3939,
      "ĠREM": 3940,
      "itted": 3941,
      "Ġchassis": 3942,
      "Ġchdi": 3943,
      "Ġchars": 3944,
      "ĠInstalling": 3945,
      "Ġfreeing": 3946,
      "ftirq": 3947,
      "ĠReceive": 3948,
      "Ġmysql": 3949,
      "unsp": 3950,
      "exit": 3951,
      "Ġsetsock": 3952,
      "Ġissue": 3953,
      "Ġdrivers": 3954,
      "Ġscript": 3955,
      "Ġprobl": 3956,
      "Ġ<*>.<*>.<*>']": 3957,
      "Ġcommit": 3958,
      "Ġtftpboot": 3959,
      "MPT": 3960,
      "MPAT": 3961,
      "Ġprepared": 3962,
      "ageGUID": 3963,
      "ĠOut": 3964,
      "ĠOUT": 3965,
      "solete": 3966,
      "softirq": 3967,
      "ĠStatus": 3968,
      "committed": 3969,
      "ĠCommand": 3970,
      "Ġcompleted": 3971,
      "Ġapplic": 3972,
      "Ġinstalling": 3973,
      "ĠDisconnect": 3974,
      "Ġbuying": 3975,
      "Ġthen": 3976,
      "Ġmanual": 3977,
      "Ġweb": 3978,
      "Ġhttps": 3979,
      "ĠMAILB": 3980,
      "ĠThe": 3981,
      "ĠPASSW": 3982,
      "ĠRemoving": 3983,
      "licenses": 3984,
      "Ġabout": 3985,
      "Ġsplitting": 3986,
      "mysqlbug": 3987,
      "Ġcallback": 3988,
      "/#<*>#:": 3989,
      "BSDCO": 3990,
      "Disconnect": 3991,
      "EMBER": 3992,
      "marks": 3993,
      "Ġhelp": 3994,
      "Ġobsolete": 3995,
      "remove": 3996,
      "Ġfollowing": 3997,
      "Ġ(<*>,<*>),": 3998,
      "Ġspine": 3999,
      "Ġsuppressed": 4000,
      "ĠTerminated": 4001,
      "Ġprintk": 4002,
      "ĠARMED": 4003,
      "Ġinstructions": 4004,
      "ĠPLEASE": 4005,
      "ĠPresence": 4006,
      "ĠSystemImageGUID": 4007,
      "Ġbenchmarks": 4008,
      "Ġbroadcasted": 4009,
      "ĠKilled": 4010,
      "ĠREMEMBER": 4011,
      "Ġchdir": 4012,
      "Ġmysqld": 4013,
      "unspecified": 4014,
      "Ġsetsockopt": 4015,
      "Ġproblems": 4016,
      "Ġapplication": 4017,
      "ĠMAILBOX": 4018,
      "ĠPASSWORD": 4019,
      "BSDCOMPAT": 4020,
      "--": 4021,
      "osi": 4022,
      "Ġ<*>.": 4023,
      "ĠTim": 4024,
      "Ġhotplug": 4025,
      ":<*>,": 4026,
      "['--": 4027,
      "ĠRebas": 4028,
      "=<*>']": 4029,
      "hald": 4030,
      "...']": 4031,
      "Ġallocation": 4032,
      "Ġallocate": 4033,
      "Ġwaiting": 4034,
      "\")']": 4035,
      "Ġbiosi": 4036,
      "ĠTimed": 4037,
      "ĠRebasing": 4038,
      "Ġbiosie": 4039
    },
    "merges": [
      "* >",
      "< *>",
      "Ġ <*>",
      "e r",
      "a t",
      "s t",
      "Ġ '",
      "o r",
      "i n",
      "<*> ]",
      "r e",
      "<*>] :",
      "a d",
      "Ġ f",
      ". <*>",
      "r o",
      "i b",
      "e n",
      "[ <*>]:",
      "a n",
      "e m",
      "at a",
      "Ġ<*> ,",
      "o t",
      "Ġ d",
      "Ġ (",
      "c e",
      "o n",
      "a p",
      "e d",
      "e l",
      "Ġ<*> '",
      "- <*>",
      "p s",
      "Ġd ata",
      "Ġ an",
      "a l",
      "Ġ n",
      "Ġ t",
      "Ġ s",
      "Ġ T",
      "i l",
      "m ad",
      "ro m",
      "Ġf rom",
      "s m",
      "<*> _",
      "u r",
      "s s",
      "i s",
      "Ġ C",
      "en t",
      "em p",
      "ĠT emp",
      "en s",
      "ens or",
      "c o",
      "at u",
      "st r",
      "a il",
      "Ġ p",
      "s y",
      ".<*> .<*>",
      "<*> /",
      "i on",
      "-<*> .<*>.<*>",
      "ap ps",
      "ail ed",
      "st em",
      "s w",
      "v i",
      "v er",
      "er n",
      "ern el",
      "k ernel",
      "Ġ S",
      "at ion",
      "er atu",
      "ĠTemp eratu",
      "ĠTemperatu re",
      "Ġs ensor",
      "e t",
      "Ġ [",
      "u s",
      "Ġ I",
      "t s",
      "d e",
      "l i",
      "Ġt o",
      "an g",
      "t h",
      "b in",
      "sy stem",
      "g m",
      "s bin",
      "o ur",
      "et ad",
      "gm etad",
      "Ġn ot",
      "<*>_ <*>/",
      "g ang",
      "-<*>.<*>.<*> /",
      "li a",
      "gang lia",
      "re ad",
      "Ġ' /",
      "our ce",
      "Ġ g",
      "s ource",
      "( )",
      "Ġan sw",
      "Ġansw er",
      "Ġg ot",
      "Ġan y",
      "Ġdata source",
      "th read",
      "Ġ F",
      "Ġ D",
      "ĠI n",
      "o c",
      "vi ce",
      "a ss",
      "in i",
      "Ġ E",
      "ĠD e",
      ") :",
      "r or",
      "p d",
      "Ġ A",
      "u e",
      "Ġ v",
      "al ue",
      "Ġv alue",
      "n t",
      "u m",
      "d is",
      "or t",
      "Ġp ort",
      "o st",
      "Ġ st",
      "at e",
      ") '",
      "r c",
      "p in",
      ": <*>]:",
      "Ġ re",
      "Ġst ate",
      "t o",
      "Ġf ailed",
      "p ro",
      "ps pin",
      "s rc",
      "to pspin",
      "] [",
      "i c",
      "Ġf or",
      "Ġ a",
      "Ġre t",
      "c h",
      "ĠF ailed",
      "co ver",
      "ur n",
      "Ġret urn",
      "Ġ l",
      "d m",
      "e s",
      "s i",
      "Ġ on",
      "el si",
      "ĠC elsi",
      "ĠCelsi us",
      "Ġ G",
      "s n",
      "I D",
      "Ġ<*> .<*>",
      "er ver",
      "r ap",
      "at or",
      "str ator",
      "ini strator",
      "dm inistrator",
      "ĠA dministrator",
      "Ġt rap",
      "m pd",
      "sn mpd",
      "ĠS er",
      "v ent",
      "um ent",
      "str ument",
      "ĠIn strument",
      "ĠE vent",
      "ĠSer vice",
      "ĠInstrument ation",
      "ĠEvent ID",
      "S erver",
      "Ġl oc",
      "e er",
      "Ġp eer",
      "ĠC h",
      "Ġ<*>.<*> '",
      "Ġf d",
      "ass is",
      "ĠCh assis",
      "g re",
      "ĠDe gre",
      "ĠDegre es",
      "Ġloc ation",
      "ĠG ot",
      "Ġ co",
      "Ġ er",
      "Ġer ror",
      "Ġco de",
      "p at",
      "Ġn o",
      "Ġno de",
      "cover y",
      "dis covery",
      "a m",
      "c l",
      "e c",
      "Ġ in",
      "<*> )",
      "h ost",
      "t er",
      "in g",
      "E R",
      "Ġ( <*>)",
      "sy s",
      "o m",
      "oc al",
      "Ġ =",
      "i d",
      "cl ass",
      "ĠDe vice",
      "h el",
      "ro p",
      "o p",
      "ce ss",
      "<*> ):",
      "E L",
      "o b",
      "a r",
      "H ost",
      "Ġ<*> )'",
      "L ocal",
      "r hel",
      "am d",
      "( <*>):",
      "u st",
      "H H",
      "ĠT HH",
      "f il",
      "j ec",
      "fil ter",
      "c ust",
      "cust om",
      "-<*>.<*>.<*> -<*>",
      "m nt",
      "pro jec",
      "sys apps",
      "ob j",
      "-<*>.<*>.<*>-<*> /",
      "projec ts",
      "f ini",
      "fini Host",
      "T A",
      "I B",
      "ĠIn finiHost",
      "n g",
      "h ic",
      "ĠF A",
      "TA L",
      "ĠFA TAL",
      "r ror",
      "ĠE rror",
      "pro cess",
      "Ġ -<*>",
      "ata l",
      ") )'",
      "F atal",
      "st rop",
      "ata strop",
      "ĠC atastrop",
      "ĠCatastrop hic",
      ": <*>]",
      "][ /",
      "K ER",
      "N EL",
      "P N",
      "Q PN",
      "Ġ QPN",
      "ap i",
      "dis pat",
      "Ġa id",
      "KER NEL",
      "dispat ch",
      "Ġ P",
      "r i",
      "a s",
      "Ġ M",
      "Ġ w",
      "Ġ N",
      "n ing",
      "Ġ B",
      "a in",
      "ar ning",
      "e e",
      "Ġw as",
      "y stem",
      "ĠS ystem",
      "ri t",
      "or m",
      "ic al",
      "W arning",
      "o us",
      "Ġreturn ed",
      "re vi",
      "revi ous",
      "ĠP revious",
      "ĠM ain",
      "b i",
      "orm al",
      "M C",
      "ĠS ensor",
      "ĠB MC",
      "rit ical",
      "Ġn ormal",
      "C ritical",
      "m bi",
      "ĠA mbi",
      "ĠN on",
      "ĠAmbi ent",
      "ee p",
      "ro n",
      "sw eep",
      "nt pd",
      "i z",
      "Ġs y",
      "Ġsy n",
      "iz ed",
      "ch ron",
      "Ġsyn chron",
      "Ġ str",
      "atu m",
      "Ġsynchron ized",
      "Ġstr atum",
      "Ġ -",
      "c t",
      "Ġd i",
      "Ġ h",
      "re ct",
      "Ġdi rect",
      "e st",
      "u nt",
      "Ġd is",
      "Ġdis cover",
      "co unt",
      "Ġh op",
      "pat h",
      "n um",
      "Ġt est",
      "Ġ' <*>",
      "Ġ us",
      "Ġs e",
      "Ġ b",
      "ss ion",
      "Ġus er",
      "Ġse ssion",
      "Ġb y",
      "Ġ op",
      "<*> '",
      "Ġop en",
      "Ġopen ed",
      "h d",
      "ss hd",
      "s h",
      "Ġs sh",
      "= <*>",
      "Ġ u",
      "ro ot",
      ": <*>",
      "ĠI B",
      "C P",
      "ĠI N",
      "I T",
      "ĠIN IT",
      "ar t",
      "a y",
      "Ġu n",
      "=<*> ,",
      "u p",
      "o w",
      "l e",
      "s en",
      "dm ail",
      "sen dmail",
      "h c",
      "d hc",
      "et h",
      "dhc pd",
      "Ġ eth",
      "Ġ m",
      "Ġ vi",
      "Ġvi a",
      "Ġ c",
      "ow n",
      "Ġ cl",
      ". '",
      "Ġs u",
      "o s",
      "Ġcl os",
      "Ġclos ed",
      "o g",
      "il e",
      "f i",
      "am e",
      "Ġn ame",
      "l ay",
      "H CP",
      "ĠD HCP",
      "c ce",
      "a b",
      ":<*> :<*>",
      "<*> :",
      "l og",
      "ic k",
      "c ron",
      "M D",
      "cron d",
      "Ġf ile",
      "ĠC MD",
      "i m",
      "CP I",
      "ĠA CPI",
      "t ion",
      "e as",
      "q u",
      "g er",
      "ab le",
      "ed ed",
      "Ġsu cce",
      "Ġsucce eded",
      "Ġl eas",
      "on n",
      "onn ec",
      "log ger",
      "Ġt im",
      "st art",
      "Ġ K",
      "el ay",
      "ick start",
      "ĠK ickstart",
      "Ġ[ <*>]",
      "k n",
      "Ġre lay",
      "=<*> :<*>:<*>",
      "=<*>:<*>:<*> ,",
      "al i",
      "qu ali",
      "ct l",
      "kn own",
      "[ '",
      "onnec tion",
      "Ġun known",
      "C I",
      "I S",
      "O V",
      "ĠP CI",
      "D IS",
      "Ġ L",
      "w or",
      "C OV",
      "ĠDHCP DIS",
      "COV ER",
      "ĠDHCPDIS COVER",
      "Ġ R",
      "al l",
      "Ġun able",
      "i t",
      "x in",
      "et d",
      "xin etd",
      "# <*>",
      "wor k",
      "et work",
      "d a",
      "i g",
      "Ġin ter",
      "Ġs h",
      "st all",
      "#<*> #",
      "p ost",
      "Ġp ri",
      "Ġf re",
      "Ġtim e",
      "pd ate",
      "Ġ ch",
      "Ġ /",
      "Ġst art",
      "ĠIn stall",
      "Ġ U",
      "Ġ- -",
      "Ġ- >",
      "Ġleas es",
      "Ġn etwork",
      "Ġus ing",
      "Ġfre e",
      "d r",
      "[ <*>]",
      "ĠC onnection",
      "de v",
      "S T",
      "Ġch ang",
      "f s",
      "art d",
      "u b",
      "R E",
      "#<*># @",
      "a st",
      "Ġ or",
      "i st",
      "fi x",
      "us ed",
      "Ġ o",
      "ad dr",
      "sm artd",
      "' ]",
      "E ST",
      "Q U",
      "ĠDHCP RE",
      "QU EST",
      "ĠDHCPRE QUEST",
      "a ch",
      "l ocal",
      "re d",
      ".<*>.<*> ,",
      "om ain",
      "Ġl ast",
      "m o",
      "r y",
      "Ġstart up",
      "pin g",
      "iz e",
      "Ġs ize",
      "or y",
      "on d",
      "Ġd elay",
      "s da",
      "p ort",
      "f er",
      "S I",
      "Ġu p",
      "R Q",
      "Ġ host",
      "on fi",
      "onfi g",
      "Ġ[<*>] '",
      ".<*> :",
      "Ġd e",
      "fi ed",
      "f t",
      "ĠM y",
      "<*>) ,",
      "c k",
      "ee ping",
      "u t",
      "Ġs l",
      "Ġret ry",
      "Ġun quali",
      "Ġsl eeping",
      "Ġunquali fied",
      "Ġ class",
      "p ts",
      "= #<*>#@",
      "Ġn rc",
      "local host",
      "Ġnrc pts",
      "Ġst at",
      "ĠR e",
      "re lay",
      "ail er",
      "Ġm ailer",
      "= [<*>]",
      "D e",
      "d elay",
      "f used",
      "x delay",
      "Ġ ctl",
      "Ġ xdelay",
      "Ġd sn",
      "Ġ( <*>/",
      "Ġre fused",
      "=<*> .<*>.<*>,",
      "Ġ[<*>] ,",
      "fer red",
      "De ferred",
      "Ġctl addr",
      "Ġ(<*>/ <*>),",
      "Ġsh ort",
      "sys ctl",
      "f y",
      "Ġm y",
      "Ġ own",
      "Ġ quali",
      "Ġd omain",
      "Ġquali fy",
      "Ġn e",
      "r up",
      "rup t",
      "Ġo f",
      "f a",
      "v c",
      "Ġ r",
      "u d",
      "ini t",
      "u n",
      "Ġl o",
      "Ġde vice",
      "us er",
      "= <*>'",
      "ĠN o",
      "li c",
      "Ġ<*> .'",
      "e x",
      "Ġs et",
      "ub lic",
      "Ġleas e",
      "Ġ at",
      "Ġp ublic",
      "Ġ<*> :<*>:<*>",
      "re nt",
      "ur rent",
      "Ġc urrent",
      "Ġin o",
      "Ġ i",
      "ri ver",
      "i ed",
      "en ied",
      "Ġd enied",
      "in e",
      "Ġs ec",
      "Ġ kernel",
      "Ġ {",
      "Ġa vc",
      "Ġchang ed",
      "ur ation",
      "onfig uration",
      "r ing",
      "mo v",
      "Ġre mov",
      "Ġu pdate",
      "o k",
      "Ġw arning",
      "Ġlo ok",
      "Ġdirect ory",
      "Ġsu ch",
      "li m",
      "d rop",
      "p ick",
      "post fix",
      "post drop",
      "pick up",
      ". .",
      "ig h",
      "Ġ<*>' ]",
      "v el",
      "fa ce",
      "ĠI RQ",
      "Ġre port",
      "in ce",
      "Ġs ince",
      "le vel",
      "Ġm o",
      "Ġ is",
      "ĠP ro",
      "at ed",
      "Ġinter face",
      "p t",
      "Ġl ow",
      "ĠG SI",
      "Ġd river",
      "Ġ \"",
      "Ġinter rupt",
      "am p",
      "est amp",
      "ig n",
      "p er",
      "ring up",
      "Ġs c",
      "b ringup",
      "g es",
      "cce pt",
      "hel per",
      "user helper",
      "Ġc onfiguration",
      "Ġ<*> -<*>",
      "ach ed",
      "lim it",
      "b or",
      "Ġne igh",
      "Ġneigh bor",
      "F S",
      "Ġ init",
      "Ġsec ond",
      "<*>] '",
      "ĠRe ad",
      "Ġa ccept",
      "I O",
      "Ġr un",
      "F O",
      "cl ud",
      "clud ed",
      "= <*>]'",
      "l ine",
      "Ġin cluded",
      "ĠRead ing",
      "Ġ }",
      "Ġp id",
      "Ġremov ing",
      "ab l",
      "i th",
      "Ġw ith",
      "Ġrun ning",
      "V FS",
      "e p",
      "Ġst ep",
      "Ġp ro",
      "ex t",
      "i al",
      "<*> ,",
      "g e",
      "v ile",
      "Ġpri vile",
      "Ġprivile ges",
      "a x",
      "li ent",
      "R D",
      "Ġs da",
      "u x",
      "fs ck",
      "g ist",
      "gist er",
      "Ġsh ut",
      "ĠU s",
      "d own",
      "Ġsyn c",
      "m ax",
      "Ġ limit",
      "Ġre ached",
      "IO S",
      "/ <*>",
      "I N",
      "Ġshut down",
      "] :",
      "en ing",
      "M I",
      "[' /",
      "Ġc lient",
      "P U",
      "ĠC PU",
      "ĠB IOS",
      "ass ign",
      "ach e",
      "IN FO",
      "u pdate",
      "ĠL ist",
      "ĠList ening",
      "Ġ<*> )",
      "gm ond",
      "Ġ k",
      "Ġc onnection",
      "<*> -",
      "r am",
      "u l",
      "ĠR RD",
      "Ġ<*> .<*>.<*>",
      "Ġinit ial",
      "Ġb us",
      "tion s",
      "Ġop tions",
      "Ġco m",
      "s ion",
      "Ġc ache",
      "on t",
      "g ram",
      "ĠPro gram",
      "Ġset up",
      "en er",
      "Ġ ro",
      "Ġd o",
      "Ġdo es",
      "Ġt ft",
      "Ġtft p",
      "t ft",
      "tft pd",
      "in k",
      "M P",
      "pd ated",
      "Ġtim estamp",
      "Ġb e",
      "r q",
      "t ed",
      "I C",
      "Ġchang e",
      "Ġp re",
      "Ġsc si",
      "X T",
      "n al",
      "our nal",
      "j ournal",
      "Ġ root",
      "oc k",
      "a ge",
      "Ġinitial ized",
      "Ġw h",
      "Ġat t",
      "t im",
      "ĠE XT",
      "in ux",
      "d ate",
      "Ġne w",
      "gister ed",
      "Ġon e",
      "emp t",
      "g al",
      "m ini",
      "m um",
      "Ġ il",
      "le gal",
      "Ġwh en",
      "Ġatt empt",
      "mini mum",
      "Ġil legal",
      "Ġ ver",
      "Ġver sion",
      "Ġmo unt",
      "ĠS et",
      "ĠIn ter",
      "' \"",
      "Ġ<*> /<*>",
      "u th",
      "ent ic",
      "uth entic",
      "ri p",
      "ĠU S",
      "Ġ read",
      "<*> .<*>",
      "h al",
      "Ġh ub",
      ":<*> .<*>:",
      "Ġ<*>-<*> :<*>.<*>:",
      "E T",
      "us r",
      "Ġbe hal",
      "Ġbehal f",
      "Ġp am",
      "Ġu pdated",
      "tim estamp",
      "ĠD O",
      "c y",
      "ĠI D",
      "W N",
      "ĠDO WN",
      "abl ed",
      "Ġ ;",
      "ĠL ink",
      "Ġs w",
      "t ing",
      "Ġfile system",
      "ĠL ID",
      "Ġi de",
      "a ck",
      "P IC",
      "em ory",
      "Ġ V",
      "Ġpro cess",
      "is ion",
      "ĠS M",
      "sys init",
      "ĠG ID",
      "ĠG ener",
      "ĠGener ate",
      "t t",
      "en cy",
      ": '",
      "ud it",
      "an fs",
      "N MP",
      "s p",
      "Ġ @",
      "ĠD EL",
      "ĠDEL L",
      "n o",
      "ĠP E",
      "Ġa udit",
      "c onnec",
      "Ġdis connec",
      "Ġdisconnec ted",
      ": <*>'",
      "Ġsu b",
      "Ġ H",
      "I RQ",
      "ĠInter rupt",
      "IRQ s",
      "ĠUs ing",
      "d u",
      "du le",
      "it y",
      "Ġ assign",
      "Ġassign ed",
      "ĠIn t",
      "Ġ( <*>",
      "Ġm emory",
      "Ġ rip",
      "Ġr sp",
      "an a",
      "ul t",
      ".. .'",
      "ĠM o",
      ".. .",
      "<*> .<*>:",
      "ont ext",
      "( <*>.<*>:",
      "(<*>.<*>: <*>):",
      "Ġmo de",
      "a us",
      "aus e",
      "ĠUs er",
      "Ġsc ontext",
      "ec ause",
      "Ġb ecause",
      "F T",
      "K C",
      "S FT",
      "ĠM SFT",
      "ĠB KC",
      "no x",
      "as h",
      "e y",
      "ĠS NMP",
      "ĠU pdate",
      "Ġ e",
      "Ġstart ing",
      "bin g",
      "Ġ ent",
      "ri es",
      "Ġent ries",
      "Ġ ex",
      "u g",
      "ĠF or",
      "ĠN ET",
      "ĠInt el",
      "log d",
      "h y",
      "Ġ O",
      "Ġa uthentic",
      "Ġtim er",
      "ĠPro bing",
      "Ġ li",
      "Ġ journal",
      "n et",
      "ĠUS B",
      "Ġ gmond",
      "t pd",
      "Ġn tpd",
      "ĠU n",
      "ĠSet ting",
      "l l",
      "Ġsub net",
      "v ar",
      "l y",
      "g fa",
      "Ġse gfa",
      "Ġsegfa ult",
      "s o",
      "C SI",
      "l ock",
      "p e",
      "Ġf e",
      "Ġl ine",
      "ĠFor ce",
      "ĠS CSI",
      "v e",
      "ack age",
      "k ing",
      "th h",
      "[' <*>",
      "t es",
      "at ing",
      "Ġl ost",
      "<*> [<*>]:",
      "Ġcom ing",
      "Ġauthentic ated",
      "ĠN ow",
      "Ġk ey",
      "Ġ all",
      "Ġpre fix",
      "Ġ Local",
      ".' \"",
      "= <*>)",
      "C onnection",
      "Ġh ash",
      "Ġt able",
      "<*> ...'",
      "ĠID E",
      "Ġf am",
      "il y",
      "co l",
      "to col",
      "ĠRe gistered",
      "Ġpro tocol",
      "Ġfam ily",
      "ĠM ana",
      "hy s",
      "Ġi rq",
      "Ġro le",
      "Ġsw eep",
      "b as",
      "m m",
      "a c",
      "Ġp hys",
      "Ġli d",
      "Ġ *",
      "Ġaccept ed",
      "O ut",
      "Ġremov ed",
      "Ġ :",
      "ĠS erver",
      "or e",
      "p anfs",
      "el l",
      "Ġf il",
      "Ġfil es",
      "i ps",
      "wor d",
      "Ġby tes",
      "up port",
      "Ġsecond s",
      "an n",
      "Ġb lock",
      "H z",
      "r a",
      "on so",
      "onso le",
      "i rq",
      "d er",
      "ĠS t",
      "ĠSt art",
      "v ision",
      "P S",
      "abl es",
      "st s",
      "Ġch ann",
      "Ġchann el",
      "e g",
      "ro ll",
      "ont roll",
      "ontroll er",
      "co mm",
      "Ġm d",
      "Ġ Host",
      "ĠC ontroller",
      "Ġl at",
      "ĠC onfiguration",
      "Ġs ource",
      "Ġlat ency",
      "Ġstart ed",
      "in sts",
      "dr v",
      "vc drv",
      "insts vcdrv",
      "rit e",
      "D T",
      "Ġ addr",
      "c d",
      "cd bas",
      "Ġd cdbas",
      "at ch",
      "mo unt",
      "l ug",
      "Ġus ec",
      "Ġ(<*> )'",
      "ĠM on",
      "A PIC",
      "Ġ en",
      "U ID",
      "ĠA n",
      "ĠG UID",
      "ist ing",
      "Ġex isting",
      "b er",
      "Ġs m",
      "ur ity",
      "s ec",
      ": :",
      "S MI",
      "p r",
      "er pr",
      "is es",
      "ent erpr",
      ".<*>.<*> .<*>",
      "ĠSNMP v",
      "enterpr ises",
      "o un",
      "Ġan d",
      "Ġs ystem",
      "Ġl og",
      "p i",
      "ĠL APIC",
      "ac pi",
      "Ġre gistered",
      "[<*>] )'",
      "p re",
      "l inux",
      "s c",
      "ĠP ackage",
      "l ib",
      "a ges",
      "ver t",
      "d ri",
      "nt p",
      "dri ft",
      "Ġmo dule",
      "c a",
      "ĠA PIC",
      "Ġh igh",
      "Ġ #<*>#@",
      "ĠL og",
      "i ts",
      "lim its",
      "in t",
      "N MI",
      "Ġ ed",
      "Ġl int",
      "Ġed ge",
      "Ġn um",
      "Ġnum ber",
      "tt y",
      "ra ce",
      "Ġ $",
      "R O",
      "#<*># /",
      "<*> .",
      "el eas",
      "Ġs erver",
      "eleas e",
      "Ġ id",
      "Ġdiscover ed",
      "Ġd own",
      "y pe",
      "Ġc onsole",
      "z on",
      "Ġ zon",
      "et filter",
      "b us",
      "/ #<*>#/",
      "Ġen abled",
      "ĠR A",
      "Ġblock s",
      "Ġdi vert",
      "ĠC om",
      "Ġ ...",
      "it ing",
      "ec king",
      "Ġc ore",
      "Ġcom p",
      "ĠStart ing",
      "v al",
      "m it",
      "Ġor der",
      "Ġinter val",
      "journal d",
      "Ġmount ed",
      "ĠCom mit",
      "Ġorder ed",
      "t ern",
      "ĠF S",
      "Ġin tern",
      "Ġintern al",
      ") ,",
      "as e",
      "e am",
      "t ables",
      "Ġt eam",
      "ĠN etfilter",
      "e an",
      "on f",
      "Ġ qu",
      "Ġf s",
      "w a",
      "A CPI",
      "Ġcl ean",
      "ut ing",
      "wa re",
      "Ġ[ /",
      "Ġk journald",
      "Ġfs ck",
      "p am",
      "a used",
      "Ġc aused",
      "Ġi p",
      "r d",
      "Ġw rite",
      "Ġro uting",
      "ĠE x",
      "p c",
      "ntpd ate",
      "h t",
      "c ision",
      "Ġpre cision",
      "ĠE DT",
      "<*>.<*> -",
      "ĠO ct",
      "Ġ#<*>#@ <*>.<*>-",
      "qu ency",
      "Ġfre quency",
      "fs et",
      "Ġof fset",
      "P M",
      "c onf",
      "ĠP PM",
      "sys logd",
      "Ġp ass",
      "Ġc onfig",
      "Ġconfig u",
      "mo d",
      "Ġp an",
      "Ġloc al",
      "Ġre start",
      "Ġ<*>.<*>.<*> :",
      "ĠP lug",
      "Ġf oun",
      "Ġfoun d",
      "g em",
      "ĠMana gem",
      "ĠManagem ent",
      "re ss",
      "ĠSystem s",
      "Ġd ue",
      "is h",
      "d ress",
      "o ps",
      "ish ed",
      "ĠD E",
      "Ġ Warning",
      "ĠMo dule",
      "s g",
      "Ġs ign",
      "Ġsign al",
      "pro c",
      "m sg",
      "et c",
      "k msg",
      "Ġ<*> .<*>.<*>,",
      "Ġk logd",
      "d omain",
      "b e",
      "m l",
      "Ġ<*> :<*>",
      "A U",
      "F AU",
      "L T",
      "Ġprocess ing",
      "ĠDE FAU",
      "ĠDEFAU LT",
      "pre fix",
      "iz ing",
      "ĠUn able",
      "h h",
      "i rd",
      "p art",
      "x hh",
      "Ġ mnt",
      "th ca",
      "th ird",
      "ml xhh",
      "part y",
      "Ġdis abled",
      "Ġ #<*>",
      "Ġ #<*>#",
      "Ġall oc",
      "ĠT race",
      "Ġu ops",
      "o MI",
      "Ġn on",
      "Ġp ages",
      "ĠB og",
      "oMI PS",
      "ĠBog oMIPS",
      "EL inux",
      "an d",
      "Ġ* <*>,",
      "ĠN etwork",
      "M A",
      "L B",
      "Ġfilesystem s",
      "=<*> )'",
      "ĠUS ER",
      "s ud",
      "sud o",
      "I FO",
      "Ġb atch",
      "ĠL IFO",
      "Ġzon e",
      "Ġg ener",
      "f orm",
      "ot al",
      "Ġl un",
      "tt ached",
      "Ġre vision",
      "u il",
      "ĠP RO",
      "ri g",
      "et e",
      "l ete",
      "ern et",
      "Ġcomp lete",
      "ct i",
      "le ase",
      "ĠD river",
      "ĠC le",
      "unt ing",
      "a id",
      "ar aid",
      "eg araid",
      "Ġ bin",
      "ce d",
      "ĠS A",
      "source s",
      "Ġre sources",
      "Ġfor ced",
      "ĠCle an",
      "Ġbin d",
      "n etwork",
      "ĠA ttached",
      "Ġp ar",
      "ĠS ELinux",
      "Ġre gister",
      "ĠB ring",
      "ĠBring ing",
      "c onfig",
      "o l",
      "o ot",
      "Ġ ad",
      "c cess",
      "Ġm egaraid",
      "Ġre cover",
      "Ġrecover ing",
      "Ġp anfs",
      "Ġer r",
      "Ġm et",
      "t e",
      "f f",
      "-<*> '",
      "T P",
      "h ob",
      "Ġm i",
      "a ccept",
      "Ġpass word",
      "a uthentic",
      "Ġ ign",
      "or ed",
      "es c",
      "Ġkey word",
      "Ġconfigu re",
      "authentic ate",
      "Ġign ored",
      "rig ht",
      "y right",
      "ĠT o",
      "W A",
      "Ġ ,",
      "Ġ ap",
      "Ġ<*> :<*>'",
      "Ġd esc",
      "sm ux",
      "ĠM IB",
      "Ġo id",
      "ĠMana ger",
      "Ġsm ux",
      ".<*>.<*>.<*> ,",
      "Ġdesc r",
      "cess or",
      "sec urity",
      "<*> .<*>.<*>",
      "op yright",
      "= /",
      "Ġ X",
      "Ġlocal host",
      "ĠC opyright",
      "ex iting",
      "il ity",
      "Ġad dress",
      "Ġin stall",
      "R M",
      "Ġinstall ation",
      "B I",
      "I RM",
      "Y ast",
      "in ished",
      "ĠT BI",
      "ĠF IRM",
      "ĠF inished",
      "ĠD ell",
      "local domain",
      "WA RE",
      "ĠTBI RD",
      "ĠFIRM WARE",
      "ĠN TP",
      "dev el",
      "ĠS MP",
      "Ġa s",
      "p ly",
      "ĠD is",
      "Ġb u",
      "Ġupdate s",
      "Ġap ply",
      "ĠPro cessor",
      "Ġa v",
      "Ġav ail",
      "! '",
      "q ue",
      "Ġlo ad",
      "it ial",
      "itial izing",
      "it ch",
      "Ġsw itch",
      "Ġcom m",
      "Ġ<*> :",
      "i o",
      "er io",
      "at h",
      "Ġp ath",
      "er sion",
      "ĠV ersion",
      "l ink",
      "ĠS upport",
      "ĠI O",
      "Ġprocess or",
      "D ell",
      "p ackage",
      "s ps",
      "s upport",
      "et up",
      "ĠDe sc",
      "ĠR elease",
      "update package",
      "rip tion",
      "sps etup",
      "ĠDesc ription",
      "Ġt h",
      "b l",
      "Ġalloc ating",
      "bl k",
      "_ <*>_",
      "Ġ rhel",
      "re lease",
      "l p",
      "r ating",
      "ib rating",
      "al ibrating",
      "Ġlo op",
      "lp j",
      "G Hz",
      "T M",
      "e on",
      "Ġstep ping",
      "ĠX eon",
      "Ġs ock",
      "Ġsock et",
      "tty S",
      "ar d",
      "T LB",
      "Ġt ype",
      "ĠI P",
      "ĠM Hz",
      "k e",
      "ap ab",
      "en d",
      "L O",
      "Ġavail able",
      "R A",
      "in al",
      "Ġdis k",
      "<*>, <*>",
      "R C",
      "S RC",
      "l ob",
      "Ġg lob",
      "ĠIN T",
      "OV R",
      "Ġglob al",
      "P ET",
      "ĠH PET",
      "ĠRA M",
      "Ġb ack",
      "Ġ al",
      "read y",
      "ar y",
      "eth ernet",
      "fix up",
      "Ġsecond ary",
      "apab ility",
      "Ġal ready",
      "Ġs o",
      "Ġdevice s",
      "o log",
      "olog y",
      "N SI",
      "ĠA NSI",
      "ft ware",
      "Ġso ftware",
      "b y",
      "d el",
      "ro ug",
      "Ġ<*>, <*>",
      "Ġs g",
      "ĠP B",
      "ĠRe v",
      "ĠMo del",
      "Ġsm artd",
      "Ġgener ic",
      "end or",
      "Ġn et",
      "Ġ* <*>'",
      "Ġnet link",
      "<*>/ <*>",
      "pro be",
      "ĠN MI",
      "ĠCPU s",
      "ĠA d",
      "uil d",
      "n il",
      "ig inal",
      "Ġchang ing",
      "Ġor iginal",
      "Ġd ri",
      "um ing",
      "Ġp age",
      ".<*>.<*>.<*> '",
      "in d",
      "Ġqu i",
      "a v",
      "<*>.<*> '",
      "ĠP ri",
      "ĠH at",
      "Ġch ecking",
      "R T",
      "Ġs pe",
      "Ġmi ce",
      "Ġspe ed",
      "P I",
      "Ġ<*> -",
      "ĠIn itializing",
      "Ġc f",
      "Ġ<*>.<*>.<*> -",
      "ĠMo unting",
      "Ġcl ock",
      "b uild",
      "ot as",
      "Ġqu otas",
      "cti ve",
      "R elease",
      "a RA",
      "an ning",
      "ĠD ate",
      "ĠM eg",
      "Ġsc anning",
      "aRA ID",
      "ĠMeg aRAID",
      "g b",
      "h gb",
      "re ating",
      "Ġt sc",
      "Ġr hgb",
      "Ġqui et",
      "ĠB oot",
      "ĠL inux",
      "#<*>#@ #<*>#",
      "ĠC alibrating",
      "ĠUn i",
      "Ġ ib",
      "Ġ<*> !'",
      "ĠT otal",
      "ĠT ype",
      "Ġs erio",
      "ĠM ST",
      "ĠV endor",
      "ĠCh ecking",
      "er s",
      "et ers",
      "am eters",
      "Ġpar ameters",
      "v ed",
      "c ache",
      "ĠI PS",
      "ĠE ST",
      "Ġbind cache",
      "f ul",
      "Ġsu ccess",
      "Ġsuccess ful",
      "Ġsuccessful ly",
      "ĠT op",
      "ĠTop ology",
      "Ġre covery",
      "r pc",
      "< <*>",
      "Ġh ard",
      "Ġhard ware",
      ": /",
      "g et",
      "p an",
      "CP U",
      ":/ /#<*>#/",
      "l oc",
      "ĠS TA",
      "R e",
      ":<*> :",
      "Ġde v",
      "i dm",
      "ap d",
      "idm apd",
      "M M",
      "j ob",
      "Ġ job",
      "ĠU pdated",
      "Ġ<*>-<*> -<*>'",
      "ana cron",
      "et ec",
      "m r",
      "ĠA ctive",
      "om e",
      "on ly",
      "Ġm an",
      "Ġman y",
      "ust re",
      "s er",
      "que st",
      "o ut",
      "Ġopen ing",
      "ĠTo o",
      "Ġre ser",
      "Ġreser ved",
      "Ġtime out",
      "t or",
      "Ġsec tor",
      "<*>.<*>.<*> '",
      "i p",
      "ĠA ll",
      "Ġw e",
      "sys log",
      "l ve",
      "Ġre so",
      "Ġreso lve",
      "Ġtim es",
      "Ġh tt",
      "ĠUn known",
      "Ġhtt p",
      "etec ted",
      "ER M",
      "f fer",
      "T h",
      "Ġset ting",
      "ĠP ID",
      "S e",
      "ĠC li",
      "ssion Th",
      "Se ssionTh",
      "ĠCli SessionTh",
      "ĠCliSessionTh read",
      "<<*> >",
      "Ġp o",
      "r ic",
      "Ġmet a",
      "Ġmet ric",
      "Ġd etected",
      "i de",
      "d ed",
      "I n",
      "N A",
      "i red",
      "Ġre qu",
      "Ġrequ ired",
      "Ġbu ffer",
      "Ġ W",
      "Ġt ain",
      "ĠV ol",
      "t y",
      "Ġt ty",
      "p or",
      "Ġpro be",
      "S M",
      "g n",
      "ĠN FS",
      "Ġde cl",
      "k ip",
      "ul l",
      "Ġ y",
      "Ġo ver",
      "Ġ<*>.<*>.<*> '",
      "T ERM",
      "re gister",
      "S NMP",
      "s l",
      "p y",
      "p lug",
      "ot plug",
      "h otplug",
      "l op",
      "lop py",
      "c re",
      "or un",
      "Ġa ut",
      "Ġaut orun",
      "Ġsy s",
      "ri de",
      "Ġ<*>.<*>.<*> -<*>",
      "Ġover ride",
      ") .'",
      "ed s",
      "Ġw a",
      "ke up",
      "Ġwa keup",
      "c ro",
      "u to",
      "Ġaddress es",
      "bas e",
      "D P",
      "r r",
      "ĠB ad",
      "on s",
      "Ġ ...'",
      "Ġli st",
      "est abl",
      "Ġs el",
      "m ap",
      "ĠEx iting",
      "Ġcomm and",
      "t l",
      "oc tl",
      "Ġlog ical",
      "ĠRA ID",
      "S B",
      "Ġp er",
      "as k",
      "Ġ J",
      "Ġ<*> /",
      "Ġus e",
      "ĠK ernel",
      "f loppy",
      "ĠM A",
      "im e",
      "Ġm pt",
      "Ġi f",
      "Ġex ce",
      "P R",
      "P l",
      "m d",
      "MD IS",
      "MDIS K",
      "e w",
      "e en",
      "i octl",
      "w een",
      "et ween",
      "Ġb etween",
      "Ġ im",
      "ĠT h",
      "ĠP A",
      "ĠM emory",
      "tim e",
      "Ġim age",
      "Ġs kip",
      "establ ished",
      "w rap",
      "Ġ xinetd",
      "ro te",
      "ib wrap",
      "il ed",
      "Ġl ibwrap",
      "Ġcomp iled",
      "Ġload av",
      "ĠW rote",
      "Ġloadav g",
      "b ps",
      "d ing",
      "d og",
      "w atch",
      "or ts",
      "or por",
      "ĠC orpor",
      "ĠF ull",
      "ĠD up",
      "ĠM bps",
      "ĠN IC",
      "le x",
      "ĠL SI",
      "ĠU p",
      "watch dog",
      "ĠCorpor ation",
      "ĠDup lex",
      "K ernel",
      "p h",
      "ar ing",
      "iz ation",
      "s al",
      "or king",
      "Ġa g",
      "Ġw orking",
      "ĠStart ed",
      "f st",
      "i a",
      "n c",
      "in ts",
      "sy nc",
      "Ġm ap",
      "Ġgener ated",
      "Ġpo ints",
      "fst ab",
      "d ata",
      "Ġre quest",
      "Ġno w",
      "bi os",
      "Ġ: :",
      ": [",
      "s ent",
      "Ġpre sent",
      "R ed",
      "S DP",
      "c c",
      "g cc",
      "p ages",
      "Ġ )",
      "at d",
      "st atd",
      "re e",
      "Ġt otal",
      "ĠT ue",
      "vi ded",
      "pro vided",
      "Ġin form",
      "ĠL ustre",
      "ĠR SDP",
      "Ġo k",
      "Ġphys ical",
      "comm and",
      "Ġconfigu red",
      "Ġmpt able",
      "Ġtotal pages",
      "Ġinform ation",
      "t u",
      "v es",
      "Ġt ask",
      "ĠDis abled",
      "n ew",
      "Ġt ables",
      "ĠD a",
      "Ġb ase",
      "Ġmode s",
      "MA DT",
      "S W",
      "el ist",
      "Ġzon elist",
      "uil t",
      "Ġzonelist s",
      "G A",
      "S C",
      "l our",
      "r ame",
      "Ġ<*> <*>'",
      "er e",
      "Ġf rame",
      "ĠT LB",
      "ĠC reating",
      "ĠS ca",
      "Ġco lour",
      "ec urity",
      "))' ]",
      "ĠP S",
      "ĠB ind",
      "Ġsynchron ization",
      "Ġc apability",
      "ĠL SM",
      "ĠRe gister",
      "Ġsec urity",
      "Ġsw ap",
      "ĠV GA",
      "ac ing",
      "ol d",
      "ff old",
      "ĠTo pspin",
      "Ġth roug",
      "ĠAd dress",
      "Ġdri ve",
      "Ġlist ening",
      "Ġframe work",
      "ĠSca ffold",
      "ĠRegister ing",
      "Ġthroug h",
      "r ation",
      "Ġ ext",
      "Ġd ec",
      "li ce",
      "Ġm ig",
      "Ġm sec",
      "Ġc uto",
      "Ġusec s",
      "Ġtimes lice",
      "Ġdec ay",
      "Ġmig ration",
      "Ġmsec s",
      "Ġcuto ff",
      "D E",
      "H I",
      "K S",
      "K by",
      "M Hz",
      "P V",
      "V S",
      "d w",
      "g art",
      "p gart",
      "u ge",
      "v ated",
      "x x",
      "z e",
      "at form",
      "Ġ( <*>.<*>",
      "on es",
      "ed ul",
      "al ph",
      "Ġs ch",
      "ĠT CP",
      "ĠT ime",
      "ss uming",
      "ĠC lock",
      "Ġp orts",
      "et s",
      "ĠA ssuming",
      "Ġa cti",
      "si ze",
      "ID E",
      "Ġ<*>.<*> .",
      "ĠP IO",
      "ĠP IC",
      "ĠM B",
      "ĠM D",
      "ĠM ult",
      "ĠB P",
      "ous e",
      "Ġh dw",
      "Ġun used",
      "Ġm ouse",
      "DIS KS",
      "ĠR em",
      "Ġsh aring",
      "Ġfre ed",
      "ck ets",
      "ĠRe vision",
      "Ġi o",
      "Ġide bus",
      "ĠV PR",
      "Ġsub system",
      "ĠH ash",
      "ĠH uge",
      "Ġblock size",
      "ĠLog ic",
      "Ġalloc ated",
      "Ġbu ckets",
      "Ġcomm on",
      "Ġprocessor s",
      "ĠIP sec",
      "Ġdisk s",
      "by te",
      "ĠPB LO",
      "ĠPB HI",
      "Ġcf q",
      "Re vision",
      "Ġsector s",
      "ĠJ ones",
      "ĠMA X",
      "Pl atform",
      "ĠPA LO",
      "Ġag pgart",
      "ree ing",
      "new ide",
      "ĠDa ve",
      "DE VS",
      "Kby tes",
      "edul er",
      "alph a",
      "Ġsch eduler",
      "Ġacti vated",
      "ĠPIC H",
      "ĠMult i",
      "Ġhdw r",
      "ĠHuge TLB",
      ". <<*>>",
      ": -<*>",
      "C RO",
      "D MA",
      "I d",
      "U P",
      "_ <*>.<*>.<*>'",
      "g rap",
      "p to",
      "r and",
      "t rr",
      "Ġ em",
      "or ity",
      "Ġd qu",
      "-<*> )",
      "-<*> -<*>)",
      "is ed",
      "ĠC ry",
      "ĠC ore",
      "ent s",
      "<*>/ <*>/<*>",
      "ĠA PI",
      "dis abled",
      "Ġa k",
      "Ġb oun",
      "IO TLB",
      "ul ation",
      "Ġinitial izing",
      "Ġinitial ised",
      "<*>.<*> )'",
      "ĠH ot",
      "Ġ(<*> -<*>-<*>)",
      "Ġ$ '",
      "ĠEx p",
      "pc i",
      "ĠDis k",
      "ĠPri ority",
      "RT UP",
      "ĠSTA RTUP",
      "Ġbuffer ing",
      "map per",
      "Ġ<*>/ <*>/<*>",
      "SW IOTLB",
      "Ġext ents",
      "CRO N",
      "grap hic",
      "pto graphic",
      "rand om",
      "Ġem ulation",
      "Ġdqu ot",
      "ĠCry ptographic",
      "Ġboun ce",
      "ĠT SC",
      "ĠS ub",
      "Ġa cro",
      "Ġinit ram",
      "Ġpass ed",
      "roug ht",
      "ĠSub system",
      "Ġacro ss",
      "Ġinitram fs",
      "c f",
      ".<*> '",
      "ĠInter pre",
      "ĠInterpre ter",
      "Ġ >",
      "P G",
      "ĠG PG",
      "ĠAd ding",
      "i ve",
      "ar get",
      "al m",
      "Ġ ass",
      "Ġass uming",
      ") )",
      "w rite",
      ".<*> ))",
      "Ġ( #<*>#@#<*>#",
      "ĠO n",
      "ĠBoot data",
      "Ġ<*>.<*>.<*>-<*> .<*>))",
      "Ġ(#<*>#@#<*># )",
      "P hy",
      "f un",
      "r tu",
      "Ġ bios",
      "Ġ<*> ]",
      "Ġf w",
      "ion s",
      "vi rtu",
      "Ġh w",
      "ĠL D",
      "Ġ<*>:<*>:<*> :<*>:",
      "ra id",
      "Ġas king",
      "Ġdri ves",
      "sl ot",
      "fun c",
      "virtu al",
      "ĠD MI",
      "ĠRem o",
      "a cy",
      "t ens",
      "v acy",
      "Ġs upport",
      "ver sal",
      "ĠB uilt",
      "ĠInter face",
      "ĠEx tens",
      "ĠPri vacy",
      "ĠUni versal",
      "ĠExtens ions",
      "l acing",
      "or der",
      "ĠC onsole",
      "ĠC apability",
      "ent ry",
      "ĠS ecurity",
      "ĠD entry",
      "ĠP lacing",
      "Ġsel inux",
      "ĠTh ere",
      "ĠRemo unting",
      "lic ens",
      "ĠBoot ing",
      "h at",
      "r u",
      "Ġ <",
      "<*>_ <*>-",
      "ĠB ru",
      "ĠR ed",
      "red hat",
      "ĠAll en",
      "gn u",
      "Ġ> '",
      "ĠBru ce",
      "p en",
      "s ed",
      "Ġ licens",
      "Ġm trr",
      "ĠH ome",
      "ĠO pen",
      "Ġpar sed",
      "://#<*>#/ '",
      "Ġtain ts",
      "Ġtty S",
      "Ġlicens e",
      "ĠOpen ed",
      "Ġ it",
      "Ġf ind",
      "ĠF reeing",
      "um e",
      "ĠSer ial",
      "ĠB rought",
      "Ġus b",
      "local time",
      "ĠRe al",
      "Ġ<*>-<*> :",
      "Ġsystem s",
      "ĠLog ical",
      "ĠRA MDISK",
      "ĠUni form",
      "NA PI",
      "ĠVol ume",
      "- #<*>#@#<*>#",
      "H CI",
      "M ay",
      "Ġ VFS",
      "em on",
      "Ġd m",
      "Ġd ur",
      "Ġt arget",
      "ĠI A",
      "ĠE HCI",
      "Ġ<*>.<*> ,",
      "sen d",
      "hc d",
      "hc i",
      "Ġe hci",
      "Ġcf g",
      "cf g",
      "Ġsupport ed",
      "-#<*>#@#<*># '",
      "Ġdur ing",
      "n abl",
      "er ing",
      "ĠE nt",
      "ĠE nabl",
      "Ġrun level",
      "ĠEnt ering",
      "ĠEnabl ing",
      "ĠIn c",
      "a emon",
      "Ġd aemon",
      "i um",
      "ĠC ons",
      "ort ium",
      "ĠInt ernet",
      "ĠCons ortium",
      "Ġsu it",
      "Ġsuit able",
      "E C",
      "f n",
      "o x",
      "u dev",
      "<*> \"",
      "an ox",
      "ĠT av",
      "ĠM ell",
      "Ġu dev",
      "Ġc reating",
      "Ġdev fn",
      "In finiHost",
      "udev send",
      "ĠTav or",
      "ĠMell anox",
      "Ġudev d",
      ") .",
      "i rect",
      "o u",
      "ĠD irect",
      "Ġremov able",
      "ĠDirect ive",
      "S MA",
      "ĠI EC",
      "ĠM ar",
      "Ġc mm",
      "SMA RT",
      "ĠO N",
      "Ġa ccess",
      "Ġread only",
      "re alm",
      "Ġs ke",
      "Ġre jec",
      "Ġy ou",
      "Ġexce eds",
      "Ġske w",
      "Ġrejec ted",
      "I P",
      "Ġload ed",
      "I nt",
      "Int el",
      "p ed",
      "u id",
      "Ġr pc",
      "rpc idmapd",
      "Ġre al",
      "K L",
      "k ey",
      "ĠV IP",
      "cre ate",
      "key s",
      "ĠVIP KL",
      "ĠP an",
      "<*> :<*>",
      "Ġd rop",
      "i f",
      "T S",
      "Ġp lease",
      "ĠSTA TS",
      "Ġdrop ped",
      "ĠPan FS",
      "' t",
      "b oot",
      "Ġg uid",
      ": (",
      "() )",
      "Ġ<*>:<*> :(",
      "Ġt race",
      "<*>' ]",
      "Ġdecl s",
      "Ġth e",
      "ER T",
      "Ġc an",
      "it ed",
      "Ġex ited",
      "comm on",
      "Ġt urn",
      "Ġturn ed",
      "t age",
      "u ine",
      "en uine",
      "Ġa b",
      "ĠG enuine",
      "ĠGenuine Intel",
      "Ġauthentic ation",
      "L ERT",
      "n ormal",
      "t ate",
      "ro tate",
      "ĠA LERT",
      "log rotate",
      "Ġab normal",
      "Ġabnormal ly",
      "E MP",
      "T EMP",
      "ĠEx it",
      "Re boot",
      "ĠI f",
      "c md",
      "cmd if",
      "sm atch",
      "Ġmi smatch",
      "Ġs p",
      "m in",
      "Ġus ed",
      "e ss",
      "Ġm ess",
      "Ġm ax",
      "P A",
      "ĠA F",
      "Ġex iting",
      "] '",
      "h ome",
      "ar ation",
      "Ġ* *",
      "Ġdecl aration",
      "f o",
      "Ġshut ting",
      "s oc",
      "l ast",
      "c lient",
      "kn al",
      "soc knal",
      "Ġ<*> >",
      "Ġl e",
      "Ġ#<*>#@ #<*>#",
      "/ '",
      "h ts",
      "Ġ rig",
      "Ġ <<*>",
      "is it",
      "Ġv isit",
      "Ġin fo",
      "dhc p",
      "Ġrig hts",
      "re quest",
      "Ġread ing",
      "Ġen d",
      "Ġsetting s",
      "N o",
      "p ut",
      "ad min",
      "P ro",
      "l ustre",
      "Ġre pe",
      "Ġmess age",
      "Ġrepe ated",
      "ĠP ublic",
      "ĠA uthentic",
      "ĠR O",
      "ul d",
      "que ue",
      "Ġg et",
      "Ġm ay",
      "i ved",
      "ce ived",
      "ĠRe ceived",
      "B IOS",
      "E rror",
      "ĠLustre Error",
      "a ce",
      "as as",
      "( <*>)",
      "Ġg o",
      "Ġsp ace",
      "o uld",
      "ach able",
      "A S",
      "ang e",
      "\" )'",
      "G IN",
      "S AS",
      "k mod",
      "Ġf ac",
      "Ġ( \"",
      "Ġsub dev",
      "NA SAS",
      "PA NASAS",
      "Ġfac ility",
      "mo dule",
      "er ber",
      "ĠK erber",
      "ĠKerber os",
      "bi rd",
      "Ġm a",
      "G T",
      "ĠT GT",
      "li ct",
      "Ġc onf",
      "Ġ#<*>#@#<*># .'",
      "Ġconf lict",
      "t bird",
      "Ġb ut",
      "Ġ <<*>>",
      "Ġd el",
      "= <*>/",
      "O GIN",
      "et ed",
      "ĠL OGIN",
      "=<*>/ <*>,",
      "n am",
      "y nam",
      "Ġd ynam",
      "Ġdel eted",
      "Ġdynam ic",
      "No v",
      "ĠC lient",
      "Ġpan asas",
      "Ġpo ll",
      "M B",
      "e ad",
      "h ead",
      "k B",
      "u ct",
      "str uct",
      "j or",
      "y te",
      "Ġloc king",
      "ĠB yte",
      "Ġr ange",
      "Ġma jor",
      "A MD",
      "I X",
      "N IX",
      "U NIX",
      "at ter",
      "ĠA head",
      "Ġv ol",
      "ĠB atter",
      "ĠDis cre",
      "Ġload ing",
      "Ġtain ted",
      "ĠVol tage",
      "Ġle vel",
      "ĠAuthentic AMD",
      "ĠRO MB",
      "Ġvol tage",
      "ĠBatter y",
      "ĠDiscre te",
      "t race",
      "Ġre achable",
      "Ġsh ould",
      "Ġserver s",
      "Ġad ded",
      "Ġa re",
      "Ġo ops",
      "N ET",
      "u re",
      "ail ure",
      "Ġa ctive",
      "Ġf ailure",
      "=<*> :",
      "E XT",
      "k en",
      "Ġ' -",
      "hic h",
      "Ġw hich",
      "ut e",
      "or ing",
      "ro ken",
      "ch o",
      "Ġf l",
      "s erio",
      "Ġre op",
      "Ġb roken",
      "<*>: <*>),",
      "IN ET",
      "Pro bing",
      "Ġreop ening",
      "I L",
      "il l",
      "Ġy our",
      "O P",
      "an t",
      "Ġd hc",
      "ĠI gn",
      "gm ent",
      "Ġre que",
      "Ġ(<*>) .'",
      "Ġw ant",
      "Ġse gment",
      "sh ut",
      "Ġaccept ing",
      "Ġconnection s",
      "Ġwh at",
      "Ġatt ached",
      "Ġth is",
      "<*>:<*> .",
      "Ġ** '",
      "Ġdhc pd",
      "ĠIgn oring",
      "Ġreque sts",
      "shut down",
      "P CI",
      "In itializing",
      "c onn",
      "i ate",
      "k socknal",
      "Ġ !'",
      "ro ute",
      "oc iate",
      "ass ociate",
      "ob d",
      "lock ed",
      "T OP",
      "<*> )'",
      "ĠT ERM",
      "ĠS TOP",
      "Ġ'- -",
      "a it",
      "f ore",
      "-<*>.<*>.<*> .",
      "Ġbe fore",
      "Ġread y",
      "ĠW ait",
      "r an",
      "ann ot",
      "ass word",
      "atu s",
      "Ġ queue",
      "us b",
      "ĠP assword",
      "por ts",
      "Ġst atus",
      "S ELinux",
      "c all",
      "s up",
      "Ġ#<*># '",
      "sup ports",
      "O T",
      "q l",
      "s ql",
      "ĠT ran",
      "O N",
      "c ore",
      "E M",
      "N G",
      "f ct",
      "m y",
      "-<*>.<*>.<*> -",
      "ĠP hys",
      "per fct",
      "Ġ<*>-<*> '",
      "my sql",
      "ĠPhys ical",
      "perfct r",
      "A EM",
      "D AEM",
      "e cho",
      "m queue",
      "o ol",
      "Ġ +",
      "al s",
      "Ġne eds",
      "sp ool",
      "SM TP",
      "client mqueue",
      "DAEM ON",
      "Ġc annot",
      "B U",
      "d i",
      "s ad",
      "Ġt put",
      "om sad",
      "b o",
      "log in",
      "Ġis a",
      "di vert",
      "bo ard",
      "Ġre sp",
      "g id",
      "Ġn link",
      "ĠA T",
      "Ġkey board",
      "sl ated",
      "Ġle ft",
      "ĠTran slated",
      "Ġb ringup",
      "U s",
      "ĠR NG",
      "ĠO K",
      "usb core",
      "Us ing",
      "# <*>'",
      "B oot",
      "C alibrating",
      "F ailed",
      "S ER",
      "Y SER",
      "o d",
      "o od",
      "ap ic",
      "ĠC ritical",
      "-<*>.<*>.<*> -<*>.<*>.<*>.",
      "ĠS YSER",
      "Ġl apic",
      "ĠG ood",
      "Ġsp ec",
      "Pro cessor",
      "ĠSYSER R",
      "N ormal",
      "Ġt ry",
      "Ġin put",
      "ĠB Y",
      "b ug",
      "ff ff",
      "P C",
      "* <*>",
      "B D",
      "h ut",
      "Ġ<*> *<*>",
      "sm p",
      "ĠS kip",
      "ĠS hut",
      "de bug",
      "port als",
      "ĠO BD",
      "Ġ#<*># [<*>]:",
      "ĠShut ting",
      "k ill",
      "kill all",
      "n fs",
      "Ġp ack",
      "mount ing",
      "Ġpack et",
      "T H",
      "V PA",
      "a ug",
      "k journald",
      "n ull",
      "p ology",
      "al e",
      "ĠC aug",
      "Ġto pology",
      "Ġst ale",
      "ĠDE VPA",
      "register ing",
      "ons e",
      "Ġresp onse",
      "ĠCaug ht",
      "ĠDEVPA TH",
      "A ttached",
      "R N",
      "m egaraid",
      "sc si",
      "WA RN",
      "Ġexce eded",
      "m i",
      "ĠA C",
      "Ġst ack",
      "Ġ#<*>#@#<*># '",
      "ond ing",
      "Ġ mad",
      "ust ed",
      "Ġb ring",
      "Ġsys log",
      "I V",
      "T IV",
      "i fied",
      "o uting",
      "Ġg si",
      "fil e",
      "Ġc md",
      "Ġinit rd",
      "IO APIC",
      "Ġap ic",
      "ĠIO APIC",
      "Boot ing",
      "ĠAC TIV",
      "ĠACTIV E",
      "Ġ WARN",
      "IN G",
      "Ġspec ified",
      "ĠWARN ING",
      "p ec",
      "pec ted",
      "- >",
      "a udit",
      "Ġh as",
      "Ġmess ages",
      "L ID",
      "Ġst ill",
      "er min",
      "Ġs im",
      "il ar",
      "Ġp revious",
      "Ġre lease",
      "cl ean",
      "ĠUn mounting",
      "Ġskip ped",
      "Ġsim ilar",
      "Ġprevious ly",
      "clean up",
      "ĠD etec",
      "ĠDetec t",
      "Q L",
      "S QL",
      "d b",
      "d le",
      "Ġ<*> ;",
      "in stall",
      "Ġt ermin",
      "ĠI dle",
      "ĠMy SQL",
      "ĠAuthentic ation",
      "ĠRO OT",
      "Ġtermin ating",
      "Ġp ing",
      "Ġex pected",
      "Ġtry ing",
      ") [<*>]:",
      "L A",
      "e co",
      "i x",
      "o sen",
      "ur nt",
      "Ġret urnt",
      "ec t",
      "up call",
      "ĠL BU",
      "un ix",
      "Ġsel ect",
      "osen der",
      "Ġreturnt osender",
      "ĠLBU G",
      "re sp",
      "ĠC A",
      "Ġe uid",
      "Ġ<*>.<*>.<*>-<*> .",
      "resp onding",
      "Ġt ick",
      "Ġs ome",
      "nt ab",
      "cro ntab",
      "if up",
      "Ġtick s",
      "O R",
      "S CSI",
      "T ype",
      "V endor",
      "i r",
      "o ok",
      "Ġf loppy",
      "Ġn etfilter",
      "Ġh ook",
      "Ġc ap",
      "build ir",
      "IL D",
      "BU ILD",
      "Ġhook s",
      "ĠR PC",
      "it i",
      "Ġi oc",
      "E D",
      "L inux",
      "N E",
      "T otal",
      "d etec",
      "j usted",
      "o ad",
      "o ib",
      "s ur",
      "u ffer",
      "x t",
      "Ġn fs",
      "Ġp ast",
      "et ting",
      "ĠF OR",
      "ĠA uto",
      "Ġa rr",
      "es etting",
      "ec k",
      "ĠB uffer",
      "ay s",
      "log sur",
      "ĠR esetting",
      "Ġch eck",
      "Ġne xt",
      "ĠDO NE",
      "Ġad justed",
      "RA MDISK",
      "ip oib",
      "Ġper mi",
      "detec ting",
      "ĠAuto detecting",
      "Ġarr ays",
      "logsur fer",
      "A L",
      "B EL",
      "G E",
      "I A",
      "I MA",
      "O OT",
      "a f",
      "c ff",
      "u z",
      "v ml",
      "Ġ )'",
      "in uz",
      "Ġf ast",
      "Ġd admin",
      "ĠF RO",
      "ch ecking",
      "Ġl ustre",
      "ĠFA IL",
      "ĠN AL",
      "ĠB OOT",
      "Ġm em",
      "im um",
      "ĠR outing",
      "init rd",
      "Ġmax imum",
      "mysql d",
      "nfs d",
      "LA BEL",
      "IMA GE",
      "af b",
      "vml inuz",
      "Ġfast boot",
      "ĠFRO M",
      "ĠFAIL ED",
      "b ack",
      ")' ]",
      "m on",
      "de vice",
      "ĠMo unt",
      "t ry",
      "re try",
      "ĠC ould",
      "Ġm ore",
      "net fs",
      "L IN",
      "T NET",
      "re achable",
      "Ġanswer s",
      "ĠF rom",
      "Ġun reachable",
      "ĠR TNET",
      "ĠU DP",
      "Ġ#<*># :<*>'",
      "LIN K",
      "ĠRTNET LINK",
      "r g",
      "ĠS O",
      "dis all",
      "Ġre alm",
      "Ġa rg",
      "es e",
      "Ġth ese",
      "ĠTh is",
      "ĠPan asas",
      "last log",
      "call back",
      "disall ow",
      "= -<*>",
      "C K",
      "R PC",
      "[ [",
      "] ]'",
      "c ontext",
      "s et",
      "re ate",
      "Ġf p",
      "Ġt class",
      "Ġt context",
      "um p",
      "ob jec",
      "Ġc reate",
      "Ġqueue up",
      "-> [[",
      "ĠSO CK",
      "=-<*> ,",
      "objec t",
      "Ġo ut",
      "ĠNo de",
      ": <*>):",
      "a ct",
      "g ing",
      "t r",
      "{ <*>",
      "Ġ Y",
      "<*> (",
      "at tr",
      "in as",
      "ch r",
      "ĠP ow",
      "Ġse em",
      "Ġth read",
      "sal inas",
      "Ġget attr",
      "Ġout put",
      "{<*> }",
      "ĠPow er",
      "K IL",
      "k d",
      "ic ation",
      "Ġloc kd",
      "if ication",
      "nfs lock",
      "KIL L",
      "! !'",
      "U SB",
      "g ent",
      "m ent",
      "w ard",
      "Ġ unt",
      "in put",
      "ot e",
      "ss ed",
      "vi ron",
      "ĠA gent",
      "Ġfor ward",
      "ch ange",
      "est ed",
      "root smp",
      "Ġun ex",
      "ow ing",
      ".' ]",
      "Ġmount ing",
      "Ġex change",
      "Ġen viron",
      "ĠIP v",
      "Ġunt ested",
      "Ġforward ing",
      "Ġenviron ment",
      "st able",
      "ĠC all",
      "Ġl on",
      ", /",
      ", <*>'",
      "- #<*>#/",
      "N O",
      "S S",
      "d ump",
      "f ailed",
      "f count",
      "f fa",
      "k port",
      "r un",
      "u ed",
      "v ok",
      "er tion",
      "st ack",
      "re fcount",
      "Ġf ffff",
      ".<*>.<*> /",
      "ern ame",
      "de cho",
      "ĠIn vok",
      "ass ertion",
      "ĠA SS",
      "Ġport als",
      "Ġl ctl",
      "Ġ= =",
      "ob decho",
      "Ġus ername",
      "Ġb ad",
      "Ġsh owing",
      "Ġup call",
      "IO N",
      "ff f",
      "que ued",
      "ERT ION",
      "NO TLB",
      "dump stack",
      "kport al",
      "Ġfffff fff",
      "ĠInvok ed",
      "ĠASS ERTION",
      "i fy",
      "ver ify",
      "os ing",
      "un d",
      "Ġver ification",
      "bios verify",
      "A d",
      "C opyright",
      "D IT",
      "F F",
      "F reeing",
      "L oad",
      "P W",
      "R F",
      "S er",
      "T CP",
      "U n",
      "h w",
      "i form",
      "n el",
      "p yright",
      "t on",
      "Ġ bi",
      "Ġ kn",
      "er r",
      "in ser",
      "Ġt un",
      "co pyright",
      "sw b",
      "ang ing",
      "ĠE DIT",
      "ort In",
      "ĠCh anging",
      "Ġin stable",
      "ĠP ortIn",
      "ĠN S",
      "ĠB ut",
      "Ġh og",
      "unt ime",
      "ssion s",
      "up ts",
      "Ġc ontroller",
      "ĠK ey",
      "Ġinter upts",
      "stall ing",
      "fs d",
      "Ġr untime",
      "Ġkey ring",
      "pre ssed",
      "Re al",
      "In stalling",
      "Ġ<*>/ <*>'",
      ":[ <*>",
      "IP v",
      "Ġgo ing",
      "Ġspec ial",
      "mi ce",
      "Ġpermi ssions",
      "mon ad",
      "Ġseem s",
      "Ad ding",
      "Load ing",
      "PW RF",
      "Ser ial",
      "Un iform",
      "nel ing",
      "Ġkn fsd",
      "inser ting",
      "Ġtun neling",
      "ĠPortIn fo",
      "ĠBut ton",
      "Ġhog ging",
      "Ġcontroller s",
      ". \"",
      "S ing",
      "ĠL osing",
      "Ġro ute",
      "Ġbi t",
      "Sing le",
      ") ;",
      "- .",
      ". #<*>#",
      "B uilt",
      "B rought",
      "C h",
      "C onsole",
      "C apability",
      "D etected",
      "M emory",
      "O S",
      "O n",
      "R outing",
      "S ecurity",
      "T IN",
      "U MA",
      "a g",
      "a rent",
      "c ar",
      "d river",
      "f dis",
      "f inal",
      "g ic",
      "h id",
      "k eeping",
      "l oad",
      "m ailed",
      "m trr",
      "n ation",
      "r id",
      "r usted",
      "s el",
      "t al",
      "t ask",
      "er tu",
      "re set",
      "Ġ( #<*>#@",
      "-<*> -",
      "-<*> [<*>]:",
      "Ġt rusted",
      "ss ive",
      "ĠC ent",
      "ĠC annot",
      ".<*>.<*> .",
      "us ing",
      "ĠD etected",
      "ĠE SM",
      "ĠE cho",
      "Ġv es",
      "Ġ<*>.<*>' ]",
      "Ġin car",
      "<*>) )",
      "Ġ-<*> '",
      "ĠP DT",
      "as ed",
      "Ġw rit",
      "ĠN UMA",
      "ĠB uild",
      "Ġh ad",
      "Ġb rid",
      "Ġb ased",
      "Ġun load",
      "Ġm wa",
      "Ġc pi",
      "og in",
      "IS TIN",
      "Ġtime keeping",
      "port ing",
      "Ġlook s",
      "Ġis n",
      "Ġ<*>.<*>.<*> -<*>.<*>.<*>.",
      "sp arent",
      "ĠH ID",
      "Ġli ke",
      "Ġid le",
      "ĠCom pressed",
      "Ġ#<*># -<*>-",
      "accept or",
      "Ġap ertu",
      "Th ere",
      "ĠJ un",
      "ĠMA IL",
      "PR ISTIN",
      "Pl acing",
      "ves afb",
      "cf c",
      "(<*>) {<*>}",
      "Ġma gic",
      "Ġfl ag",
      "ĠTran sparent",
      "Boot data",
      "ffff da",
      "Ġpermi ssive",
      "cff c",
      "cff cfc",
      "ĠMount ed",
      "ĠY our",
      "Ġthread s",
      "Ġunex porting",
      ".#<*># .",
      "Ch ecking",
      "driver s",
      "fdis k",
      "sel inux",
      "tal ogin",
      "ĠCent OS",
      "Ġves afb",
      "Ġincar nation",
      "Ġwrit ing",
      "Ġbrid ge",
      "Ġunload ed",
      "Ġmwa it",
      "Ġcpi o",
      "Ġapertu re",
      "PRISTIN E",
      "Ġflag s",
      "s ock",
      "ĠS ee",
      "Ġcommand s",
      "\" .'",
      "A NG",
      "L IA",
      "N S",
      "p ping",
      "Ġ gmetad",
      "ĠS to",
      "Ġ[ '",
      "ĠD NS",
      "ĠG ANG",
      "ar p",
      "Ġ<*>)' ]",
      "Ġc all",
      "#<*># \".'",
      "Ġino de",
      "Ġlook up",
      "Ġ\" #<*>#\".'",
      "Ġe vent",
      "ĠSto pping",
      "ĠGANG LIA",
      "I MM",
      "g g",
      "h er",
      "m an",
      "o ss",
      "o id",
      "Ġ establ",
      "Ġ established",
      "st ed",
      "or age",
      "ad dress",
      "ib le",
      "ot her",
      "Ġd et",
      "el ow",
      "Ġan other",
      "Ġs end",
      "ail s",
      "li sted",
      "ĠD IMM",
      "Ġst orage",
      "ic ate",
      "Ġco uld",
      "ĠP oss",
      "ri pt",
      "est s",
      "Ġb elow",
      "Ġc ause",
      "Ġsu gg",
      "Ġsucce ed",
      "ĠU mounting",
      "un icate",
      "Ġinterface s",
      "clud ing",
      "Ġbe en",
      "Ġex cluded",
      "ĠEx cluding",
      "Ġ#<*># :<*>",
      "Ġav oid",
      "Ġcomm unicate",
      "Ġth at",
      "Ġresp onding",
      "Ġlon g",
      "Ġestabl ish",
      "Ġdet ails",
      "Ġsend s",
      "Ġcould n",
      "ĠPoss ible",
      "Ġsugg ests",
      "A RT",
      "b ff",
      "n ame",
      "s u",
      "t rip",
      "en dm",
      "Ġs endm",
      "ĠA TA",
      "Ġport map",
      "Ġ-<*> ).'",
      "Ġu id",
      "Ġc ont",
      "it or",
      "it oring",
      "port map",
      "Ġne ar",
      "Ġr host",
      "Ġr user",
      "ĠSM ART",
      "ac ity",
      "ĠMon itoring",
      "Ġlog name",
      "LO GIN",
      "ĠPA M",
      "ĠRem ote",
      "Ġcap able",
      "Ġcap acity",
      "mon itor",
      "err no",
      "Ġsendm sg",
      "Ġcont act",
      "& <*>)'",
      "= {",
      "P T",
      "T arget",
      "V OT",
      "f m",
      "g ro",
      "w Re",
      "} '",
      "Ġd on",
      "Ġ( /",
      "Ġ( #<*>#",
      "il iti",
      "ĠC apab",
      "us ion",
      "ĠF wRe",
      "ĠF usion",
      "ĠIn iti",
      "Ġfor k",
      "Ġin to",
      "ĠP orts",
      "ĠM ax",
      "ĠM PT",
      "ĠN ew",
      "=<*> .'",
      "Ġr ate",
      "sc ript",
      "esc ing",
      "Ġback gro",
      "Ġqui escing",
      "In iti",
      "Ġmpt base",
      "Ġ<*>> &<*>)'",
      "ĠRPC s",
      "VOT D",
      "Ġdon e",
      "Ġ(#<*># )",
      "iliti es",
      "ĠCapab ilities",
      "ĠFwRe v",
      "ĠIniti ating",
      "ĠMax Q",
      "Ġbackgro und",
      "Initi ator",
      ") \"",
      "a rc",
      "a ctive",
      "c ap",
      "r ub",
      "s act",
      "Ġ custom",
      "an ed",
      "ce ll",
      "Ġg id",
      "Ġin active",
      "ĠR E",
      "Ġor ph",
      "Ġsc rub",
      "Ġ#<*># .'",
      "ĠCle aring",
      "Ġcan cell",
      "ran sact",
      "Ġcap s",
      "arc h",
      "Ġorph aned",
      "Ġcancell ed",
      "ransact ion",
      "T Y",
      "ĠT TY",
      "'\" ]",
      "S H",
      "a on",
      "d ia",
      "i ent",
      "m ote",
      "Ġs aon",
      "<*>/ <*>'",
      "ĠS SH",
      "Ġre set",
      "Ġre mote",
      "ic ient",
      "om dia",
      "Ġc ritical",
      "Ġc onnec",
      "Ġ<*>.' ]",
      "Ġlat er",
      "ff icient",
      "In su",
      "Ġag ain",
      "omdia g",
      "Ġconnec ting",
      "Insu fficient",
      "[ ]:",
      "a im",
      "t ec",
      "re cl",
      "Ġm in",
      "un recl",
      "Ġpro tec",
      "ann ed",
      "sc anned",
      "aim able",
      "unrecl aimable",
      "Ġprotec tions",
      "/ <*>/<*>'",
      "= '",
      "C E",
      "K ey",
      "L I",
      "P LA",
      "b f",
      "c n",
      "i pe",
      "l in",
      "p ack",
      "s ul",
      "s arp",
      "re write",
      "an cy",
      "Ġt ransaction",
      "ĠC LI",
      "Ġp ipe",
      "Ġre sul",
      "<*>) {<*>}",
      "custom ize",
      "ĠB roken",
      "Ġse arch",
      ":<*> \"",
      ":<*>:<*> :<*>\"",
      "Ġ<*>:<*>:<*> :<*>:<*>:<*>\"",
      "Ġi octl",
      "ul p",
      ".'\" ]",
      "RO R",
      "ĠY ou",
      "Ġlon ger",
      "und ancy",
      "ĠRE PLA",
      "bf ca",
      "cn f",
      "lin pack",
      "Ġresul ted",
      "ĠREPLA CE",
      "Ġad d",
      "/ #<*>#",
      "M em",
      "N D",
      "f rom",
      "Ġ ]'",
      "Ġf atal",
      "Ġd ump",
      "ce ive",
      "Ġt s",
      "ĠF ree",
      "ĠIn val",
      "Ġa uth",
      "ER ROR",
      "up ply",
      "Ġdelay ing",
      "igh Mem",
      "Ġ<*>) .'",
      "Ġinitial ization",
      "Ġsub process",
      "ĠH ighMem",
      "Ġlog ging",
      "ĠRed undancy",
      "PA M",
      "Ġunex pected",
      "ĠInval id",
      "Ġauth s",
      "[ \"",
      "a red",
      "c ritical",
      "A dministrator",
      "A uthentic",
      "C R",
      "H O",
      "M MA",
      "O MMA",
      "P ON",
      "S E",
      "S PON",
      "W D",
      "_ _",
      "_ #<*>#",
      "a k",
      "b d",
      "b re",
      "e arch",
      "f or",
      "k bd",
      "m up",
      "p assword",
      "t est",
      "t ransaction",
      "u ter",
      "v ing",
      "w ar",
      "Ġ .",
      "Ġ .'",
      "Ġ __",
      "at kbd",
      "st ress",
      "Ġ' #<*>#",
      "Ġf ull",
      "en ce",
      "en ch",
      "is ation",
      "ĠC OMMA",
      "ent ification",
      "ĠS upply",
      "ĠS earch",
      "Ġto o",
      "ĠD id",
      "ort ed",
      "Ġst op",
      "Ġre fer",
      "Ġre ports",
      "Ġre ceive",
      "ĠP WD",
      "ĠN O",
      "Ġsynchron isation",
      "Ġstr ing",
      "Ġuser s",
      "Ġop tion",
      "=<*> :'",
      "ow s",
      "Ġc d",
      "Ġro uter",
      "Ġpre ssed",
      "connec t",
      "ĠH CR",
      "ĠO SC",
      "Ġkey s",
      "Ġid entification",
      "Ġclean up",
      "Ġbu sy",
      "ind ows",
      ":/ /#<*>#",
      "ĠW indows",
      "ĠJ ournal",
      "Ġrequest ed",
      "ĠDa emon",
      "EC HO",
      "Ġab orted",
      "mysql admin",
      "ĠSkip ping",
      "Ġarg ument",
      "ĠKey board",
      "Ġcustom ization",
      "ĠRE SPON",
      "Authentic ation",
      "_#<*># _",
      "ak fix",
      "bre akfix",
      "for ce",
      "test ing",
      "war mup",
      "Ġ'#<*># [<*>]:",
      "ence s",
      "ĠCOMMA ND",
      "ĠSearch ing",
      "Ġrefer ences",
      "Ġrouter s",
      "://#<*># '",
      "ĠRESPON SE",
      "+ <*>'",
      ": ']",
      "a get",
      "c p",
      "r ty",
      "w ap",
      "Ġ empt",
      "Ġ<*> +<*>'",
      "Ġp aget",
      "ĠS wap",
      "Ġdi rty",
      "Ġun stable",
      "Ġsh ared",
      "Ġsl ab",
      "Ġr ace",
      "Ġwrite back",
      "Ġ<*>:<*> ,",
      "Ġ<*>/ <*>,",
      "Ġmap ped",
      "Ġdel ete",
      "Ġ#<*>#:<*> \"",
      "cp u",
      "Ġempt y",
      "Ġpaget ables",
      "\" ]",
      "+ <*>/<*>'",
      ": \"",
      "= <<*>>",
      "A T",
      "B S",
      "C O",
      "C MD",
      "D is",
      "D CO",
      "E AS",
      "E MB",
      "F ailure",
      "G UID",
      "H E",
      "H W",
      "I F",
      "I m",
      "I LB",
      "L osing",
      "L EAS",
      "N et",
      "O X",
      "O RD",
      "R ROR",
      "S SW",
      "U T",
      "V OR",
      "X HH",
      "Y our",
      "a ve",
      "b ench",
      "c v",
      "c ast",
      "d o",
      "d cdbas",
      "d undancy",
      "f ter",
      "i ving",
      "k s",
      "l ace",
      "l eted",
      "m ar",
      "m and",
      "o de",
      "o ll",
      "p m",
      "p lic",
      "p ared",
      "q pm",
      "r int",
      "r ply",
      "s erver",
      "t ting",
      "u al",
      "w arning",
      "w all",
      "y ing",
      "Ġ `",
      "Ġ hel",
      "Ġ ob",
      "Ġ right",
      "in es",
      "in ode",
      "re sen",
      "re mov",
      "ad cast",
      "Ġf oll",
      "ro uting",
      "ro adcast",
      "em s",
      "Ġ( <*>,",
      "el em",
      "Ġdata base",
      "Ġn am",
      "Ġt bird",
      "Ġs pin",
      "Ġs up",
      "Ġs upply",
      "ĠT O",
      "ĠT ermin",
      "ĠT HE",
      "ss ue",
      "ĠC an",
      "Ġp lace",
      "Ġp rint",
      "ĠS ET",
      "li tting",
      "Ġto ken",
      "Ġg iving",
      "ĠF ailure",
      "ĠF ill",
      "ĠE ND",
      "ĠE RROR",
      "ĠA RM",
      "ate st",
      "Ġre ceived",
      "Ġre cv",
      "Ġre dundancy",
      "Ġa fter",
      "Ġl ink",
      "Ġl ines",
      "Ġl atest",
      "Ġco py",
      "ec ified",
      "Ġin struct",
      "Ġ(<*>) ,",
      "op t",
      "ar s",
      "fil es",
      "TA VOR",
      "ĠP lease",
      "ĠP LEAS",
      "ĠP resen",
      "Ġw all",
      "ĠSystem Im",
      "Ġh ome",
      "Ġh ave",
      "Ġb oot",
      "Ġb ench",
      "Ġb roadcast",
      "Ġun it",
      "ĠK ill",
      "Ġ[<*>] ']",
      "ĠR EM",
      "it ted",
      "Ġch assis",
      "Ġch di",
      "Ġch ars",
      "ĠInstall ing",
      "Ġfree ing",
      "ft irq",
      "ĠRe ceive",
      "Ġmy sql",
      "un sp",
      "ex it",
      "Ġset sock",
      "Ġi ssue",
      "Ġdriver s",
      "Ġsc ript",
      "Ġpro bl",
      "Ġ<*>.<*>.<*> ']",
      "Ġcom mit",
      "Ġtftp boot",
      "MP T",
      "MP AT",
      "Ġpre pared",
      "age GUID",
      "ĠO ut",
      "ĠO UT",
      "so lete",
      "so ftirq",
      "ĠSt atus",
      "comm itted",
      "ĠCom mand",
      "Ġcomp leted",
      "Ġap plic",
      "Ġinstall ing",
      "ĠDis connect",
      "Ġbu ying",
      "Ġth en",
      "Ġman ual",
      "Ġwe b",
      "Ġhtt ps",
      "ĠMA ILB",
      "ĠTh e",
      "ĠPA SSW",
      "ĠRemo ving",
      "licens es",
      "Ġab out",
      "Ġsp litting",
      "mysql bug",
      "Ġcall back",
      "/#<*># :",
      "BS DCO",
      "Dis connect",
      "EMB ER",
      "mar ks",
      "Ġhel p",
      "Ġob solete",
      "remov e",
      "Ġfoll owing",
      "Ġ(<*>, <*>),",
      "Ġspin e",
      "Ġsup pressed",
      "ĠTermin ated",
      "Ġprint k",
      "ĠARM ED",
      "Ġinstruct ions",
      "ĠPLEAS E",
      "ĠPresen ce",
      "ĠSystemIm ageGUID",
      "Ġbench marks",
      "Ġbroadcast ed",
      "ĠKill ed",
      "ĠREM EMBER",
      "Ġchdi r",
      "Ġmysql d",
      "unsp ecified",
      "Ġsetsock opt",
      "Ġprobl ems",
      "Ġapplic ation",
      "ĠMAILB OX",
      "ĠPASSW ORD",
      "BSDCO MPAT",
      "- -",
      "o si",
      "Ġ<*> .",
      "ĠT im",
      "Ġh otplug",
      ":<*> ,",
      "[' --",
      "ĠRe bas",
      "=<*>' ]",
      "hal d",
      "...' ]",
      "Ġalloc ation",
      "Ġalloc ate",
      "Ġwa iting",
      "\")' ]",
      "Ġbi osi",
      "ĠTim ed",
      "ĠRebas ing",
      "Ġbiosi e"
    ]
  }
}