{"<s>":0,"<pad>":1,"</s>":2,"<unk>":3,"<mask>":4,"!":5,"\"":6,"#":7,"$":8,"%":9,"&":10,"'":11,"(":12,")":13,"*":14,"+":15,",":16,"-":17,".":18,"/":19,"0":20,"1":21,"2":22,"3":23,"4":24,"5":25,"6":26,"7":27,"8":28,"9":29,":":30,";":31,"<":32,"=":33,">":34,"?":35,"@":36,"A":37,"B":38,"C":39,"D":40,"E":41,"F":42,"G":43,"H":44,"I":45,"J":46,"K":47,"L":48,"M":49,"N":50,"O":51,"P":52,"Q":53,"R":54,"S":55,"T":56,"U":57,"V":58,"W":59,"X":60,"Y":61,"Z":62,"[":63,"\\":64,"]":65,"^":66,"_":67,"`":68,"a":69,"b":70,"c":71,"d":72,"e":73,"f":74,"g":75,"h":76,"i":77,"j":78,"k":79,"l":80,"m":81,"n":82,"o":83,"p":84,"q":85,"r":86,"s":87,"t":88,"u":89,"v":90,"w":91,"x":92,"y":93,"z":94,"{":95,"|":96,"}":97,"~":98,"¡":99,"¢":100,"£":101,"¤":102,"¥":103,"¦":104,"§":105,"¨":106,"©":107,"ª":108,"«":109,"¬":110,"®":111,"¯":112,"°":113,"±":114,"²":115,"³":116,"´":117,"µ":118,"¶":119,"·":120,"¸":121,"¹":122,"º":123,"»":124,"¼":125,"½":126,"¾":127,"¿":128,"À":129,"Á":130,"Â":131,"Ã":132,"Ä":133,"Å":134,"Æ":135,"Ç":136,"È":137,"É":138,"Ê":139,"Ë":140,"Ì":141,"Í":142,"Î":143,"Ï":144,"Ð":145,"Ñ":146,"Ò":147,"Ó":148,"Ô":149,"Õ":150,"Ö":151,"×":152,"Ø":153,"Ù":154,"Ú":155,"Û":156,"Ü":157,"Ý":158,"Þ":159,"ß":160,"à":161,"á":162,"â":163,"ã":164,"ä":165,"å":166,"æ":167,"ç":168,"è":169,"é":170,"ê":171,"ë":172,"ì":173,"í":174,"î":175,"ï":176,"ð":177,"ñ":178,"ò":179,"ó":180,"ô":181,"õ":182,"ö":183,"÷":184,"ø":185,"ù":186,"ú":187,"û":188,"ü":189,"ý":190,"þ":191,"ÿ":192,"Ā":193,"ā":194,"Ă":195,"ă":196,"Ą":197,"ą":198,"Ć":199,"ć":200,"Ĉ":201,"ĉ":202,"Ċ":203,"ċ":204,"Č":205,"č":206,"Ď":207,"ď":208,"Đ":209,"đ":210,"Ē":211,"ē":212,"Ĕ":213,"ĕ":214,"Ė":215,"ė":216,"Ę":217,"ę":218,"Ě":219,"ě":220,"Ĝ":221,"ĝ":222,"Ğ":223,"ğ":224,"Ġ":225,"ġ":226,"Ģ":227,"ģ":228,"Ĥ":229,"ĥ":230,"Ħ":231,"ħ":232,"Ĩ":233,"ĩ":234,"Ī":235,"ī":236,"Ĭ":237,"ĭ":238,"Į":239,"į":240,"İ":241,"ı":242,"Ĳ":243,"ĳ":244,"Ĵ":245,"ĵ":246,"Ķ":247,"ķ":248,"ĸ":249,"Ĺ":250,"ĺ":251,"Ļ":252,"ļ":253,"Ľ":254,"ľ":255,"Ŀ":256,"ŀ":257,"Ł":258,"ł":259,"Ń":260,"*>":261,"<*>":262,"Ġ<*>":263,"er":264,"at":265,"st":266,"Ġ'":267,"or":268,"in":269,"<*>]":270,"re":271,"<*>]:":272,"ad":273,"Ġf":274,".<*>":275,"ro":276,"ib":277,"en":278,"[<*>]:":279,"an":280,"em":281,"ata":282,"Ġ<*>,":283,"ot":284,"Ġd":285,"Ġ(":286,"ce":287,"on":288,"ap":289,"ed":290,"el":291,"Ġ<*>'":292,"-<*>":293,"ps":294,"Ġdata":295,"Ġan":296,"al":297,"Ġn":298,"Ġt":299,"Ġs":300,"ĠT":301,"il":302,"mad":303,"rom":304,"Ġfrom":305,"sm":306,"<*>_":307,"ur":308,"ss":309,"is":310,"ĠC":311,"ent":312,"emp":313,"ĠTemp":314,"ens":315,"ensor":316,"co":317,"atu":318,"str":319,"ail":320,"Ġp":321,"sy":322,".<*>.<*>":323,"<*>/":324,"ion":325,"-<*>.<*>.<*>":326,"apps":327,"ailed":328,"stem":329,"sw":330,"vi":331,"ver":332,"ern":333,"ernel":334,"kernel":335,"ĠS":336,"ation":337,"eratu":338,"ĠTemperatu":339,"ĠTemperature":340,"Ġsensor":341,"et":342,"Ġ[":343,"us":344,"ĠI":345,"ts":346,"de":347,"li":348,"Ġto":349,"ang":350,"th":351,"bin":352,"system":353,"gm":354,"sbin":355,"our":356,"etad":357,"gmetad":358,"Ġnot":359,"<*>_<*>/":360,"gang":361,"-<*>.<*>.<*>/":362,"lia":363,"ganglia":364,"read":365,"Ġ'/":366,"ource":367,"Ġg":368,"source":369,"()":370,"Ġansw":371,"Ġanswer":372,"Ġgot":373,"Ġany":374,"Ġdatasource":375,"thread":376,"ĠF":377,"ĠD":378,"ĠIn":379,"oc":380,"vice":381,"ass":382,"ini":383,"ĠE":384,"ĠDe":385,"):":386,"ror":387,"pd":388,"ĠA":389,"ue":390,"Ġv":391,"alue":392,"Ġvalue":393,"nt":394,"um":395,"dis":396,"ort":397,"Ġport":398,"ost":399,"Ġst":400,"ate":401,")'":402,"rc":403,"pin":404,":<*>]:":405,"Ġre":406,"Ġstate":407,"to":408,"Ġfailed":409,"pro":410,"pspin":411,"src":412,"topspin":413,"][":414,"ic":415,"Ġfor":416,"Ġa":417,"Ġret":418,"ch":419,"ĠFailed":420,"cover":421,"urn":422,"Ġreturn":423,"Ġl":424,"dm":425,"es":426,"si":427,"Ġon":428,"elsi":429,"ĠCelsi":430,"ĠCelsius":431,"ĠG":432,"sn":433,"ID":434,"Ġ<*>.<*>":435,"erver":436,"rap":437,"ator":438,"strator":439,"inistrator":440,"dministrator":441,"ĠAdministrator":442,"Ġtrap":443,"mpd":444,"snmpd":445,"ĠSer":446,"vent":447,"ument":448,"strument":449,"ĠInstrument":450,"ĠEvent":451,"ĠService":452,"ĠInstrumentation":453,"ĠEventID":454,"Server":455,"Ġloc":456,"eer":457,"Ġpeer":458,"ĠCh":459,"Ġ<*>.<*>'":460,"Ġfd":461,"assis":462,"ĠChassis":463,"gre":464,"ĠDegre":465,"ĠDegrees":466,"Ġlocation":467,"ĠGot":468,"Ġco":469,"Ġer":470,"Ġerror":471,"Ġcode":472,"pat":473,"Ġno":474,"Ġnode":475,"covery":476,"discovery":477,"am":478,"cl":479,"ec":480,"Ġin":481,"<*>)":482,"host":483,"ter":484,"ing":485,"ER":486,"Ġ(<*>)":487,"sys":488,"om":489,"ocal":490,"Ġ=":491,"id":492,"class":493,"ĠDevice":494,"hel":495,"rop":496,"op":497,"cess":498,"<*>):":499,"EL":500,"ob":501,"ar":502,"Host":503,"Ġ<*>)'":504,"Local":505,"rhel":506,"amd":507,"(<*>):":508,"ust":509,"HH":510,"ĠTHH":511,"fil":512,"jec":513,"filter":514,"cust":515,"custom":516,"-<*>.<*>.<*>-<*>":517,"mnt":518,"projec":519,"sysapps":520,"obj":521,"-<*>.<*>.<*>-<*>/":522,"projects":523,"fini":524,"finiHost":525,"TA":526,"IB":527,"ĠInfiniHost":528,"ng":529,"hic":530,"ĠFA":531,"TAL":532,"ĠFATAL":533,"rror":534,"ĠError":535,"process":536,"Ġ-<*>":537,"atal":538,"))'":539,"Fatal":540,"strop":541,"atastrop":542,"ĠCatastrop":543,"ĠCatastrophic":544,":<*>]":545,"][/":546,"KER":547,"NEL":548,"PN":549,"QPN":550,"ĠQPN":551,"api":552,"dispat":553,"Ġaid":554,"KERNEL":555,"dispatch":556,"ĠP":557,"ri":558,"as":559,"ĠM":560,"Ġw":561,"ĠN":562,"ning":563,"ĠB":564,"ain":565,"arning":566,"ee":567,"Ġwas":568,"ystem":569,"ĠSystem":570,"rit":571,"orm":572,"ical":573,"Warning":574,"ous":575,"Ġreturned":576,"revi":577,"revious":578,"ĠPrevious":579,"ĠMain":580,"bi":581,"ormal":582,"MC":583,"ĠSensor":584,"ĠBMC":585,"ritical":586,"Ġnormal":587,"Critical":588,"mbi":589,"ĠAmbi":590,"ĠNon":591,"ĠAmbient":592,"eep":593,"ron":594,"sweep":595,"ntpd":596,"iz":597,"Ġsy":598,"Ġsyn":599,"ized":600,"chron":601,"Ġsynchron":602,"Ġstr":603,"atum":604,"Ġsynchronized":605,"Ġstratum":606,"Ġ-":607,"ct":608,"Ġdi":609,"Ġh":610,"rect":611,"Ġdirect":612,"est":613,"unt":614,"Ġdis":615,"Ġdiscover":616,"count":617,"Ġhop":618,"path":619,"num":620,"Ġtest":621,"Ġ'<*>":622,"Ġus":623,"Ġse":624,"Ġb":625,"ssion":626,"Ġuser":627,"Ġsession":628,"Ġby":629,"Ġop":630,"<*>'":631,"Ġopen":632,"Ġopened":633,"hd":634,"sshd":635,"sh":636,"Ġssh":637,"=<*>":638,"Ġu":639,"root":640,":<*>":641,"ĠIB":642,"CP":643,"ĠIN":644,"IT":645,"ĠINIT":646,"art":647,"ay":648,"Ġun":649,"=<*>,":650,"up":651,"ow":652,"le":653,"sen":654,"dmail":655,"sendmail":656,"hc":657,"dhc":658,"eth":659,"dhcpd":660,"Ġeth":661,"Ġm":662,"Ġvi":663,"Ġvia":664,"Ġc":665,"own":666,"Ġcl":667,".'":668,"Ġsu":669,"os":670,"Ġclos":671,"Ġclosed":672,"og":673,"ile":674,"fi":675,"ame":676,"Ġname":677,"lay":678,"HCP":679,"ĠDHCP":680,"cce":681,"ab":682,":<*>:<*>":683,"<*>:":684,"log":685,"ick":686,"cron":687,"MD":688,"crond":689,"Ġfile":690,"ĠCMD":691,"im":692,"CPI":693,"ĠACPI":694,"tion":695,"eas":696,"qu":697,"ger":698,"able":699,"eded":700,"Ġsucce":701,"Ġsucceeded":702,"Ġleas":703,"onn":704,"onnec":705,"logger":706,"Ġtim":707,"start":708,"ĠK":709,"elay":710,"ickstart":711,"ĠKickstart":712,"Ġ[<*>]":713,"kn":714,"Ġrelay":715,"=<*>:<*>:<*>":716,"=<*>:<*>:<*>,":717,"ali":718,"quali":719,"ctl":720,"known":721,"['":722,"onnection":723,"Ġunknown":724,"CI":725,"IS":726,"OV":727,"ĠPCI":728,"DIS":729,"ĠL":730,"wor":731,"COV":732,"ĠDHCPDIS":733,"COVER":734,"ĠDHCPDISCOVER":735,"ĠR":736,"all":737,"Ġunable":738,"it":739,"xin":740,"etd":741,"xinetd":742,"#<*>":743,"work":744,"etwork":745,"da":746,"ig":747,"Ġinter":748,"Ġsh":749,"stall":750,"#<*>#":751,"post":752,"Ġpri":753,"Ġfre":754,"Ġtime":755,"pdate":756,"Ġch":757,"Ġ/":758,"Ġstart":759,"ĠInstall":760,"ĠU":761,"Ġ--":762,"Ġ->":763,"Ġleases":764,"Ġnetwork":765,"Ġusing":766,"Ġfree":767,"dr":768,"[<*>]":769,"ĠConnection":770,"dev":771,"ST":772,"Ġchang":773,"fs":774,"artd":775,"ub":776,"RE":777,"#<*>#@":778,"ast":779,"Ġor":780,"ist":781,"fix":782,"used":783,"Ġo":784,"addr":785,"smartd":786,"']":787,"EST":788,"QU":789,"ĠDHCPRE":790,"QUEST":791,"ĠDHCPREQUEST":792,"ach":793,"local":794,"red":795,".<*>.<*>,":796,"omain":797,"Ġlast":798,"mo":799,"ry":800,"Ġstartup":801,"ping":802,"ize":803,"Ġsize":804,"ory":805,"ond":806,"Ġdelay":807,"sda":808,"port":809,"fer":810,"SI":811,"Ġup":812,"RQ":813,"Ġhost":814,"onfi":815,"onfig":816,"Ġ[<*>]'":817,".<*>:":818,"Ġde":819,"fied":820,"ft":821,"ĠMy":822,"<*>),":823,"ck":824,"eeping":825,"ut":826,"Ġsl":827,"Ġretry":828,"Ġunquali":829,"Ġsleeping":830,"Ġunqualified":831,"Ġclass":832,"pts":833,"=#<*>#@":834,"Ġnrc":835,"localhost":836,"Ġnrcpts":837,"Ġstat":838,"ĠRe":839,"relay":840,"ailer":841,"Ġmailer":842,"=[<*>]":843,"De":844,"delay":845,"fused":846,"xdelay":847,"Ġctl":848,"Ġxdelay":849,"Ġdsn":850,"Ġ(<*>/":851,"Ġrefused":852,"=<*>.<*>.<*>,":853,"Ġ[<*>],":854,"ferred":855,"Deferred":856,"Ġctladdr":857,"Ġ(<*>/<*>),":858,"Ġshort":859,"sysctl":860,"fy":861,"Ġmy":862,"Ġown":863,"Ġquali":864,"Ġdomain":865,"Ġqualify":866,"Ġne":867,"rup":868,"rupt":869,"Ġof":870,"fa":871,"vc":872,"Ġr":873,"ud":874,"init":875,"un":876,"Ġlo":877,"Ġdevice":878,"user":879,"=<*>'":880,"ĠNo":881,"lic":882,"Ġ<*>.'":883,"ex":884,"Ġset":885,"ublic":886,"Ġlease":887,"Ġat":888,"Ġpublic":889,"Ġ<*>:<*>:<*>":890,"rent":891,"urrent":892,"Ġcurrent":893,"Ġino":894,"Ġi":895,"river":896,"ied":897,"enied":898,"Ġdenied":899,"ine":900,"Ġsec":901,"Ġkernel":902,"Ġ{":903,"Ġavc":904,"Ġchanged":905,"uration":906,"onfiguration":907,"ring":908,"mov":909,"Ġremov":910,"Ġupdate":911,"ok":912,"Ġwarning":913,"Ġlook":914,"Ġdirectory":915,"Ġsuch":916,"lim":917,"drop":918,"pick":919,"postfix":920,"postdrop":921,"pickup":922,"..":923,"igh":924,"Ġ<*>']":925,"vel":926,"face":927,"ĠIRQ":928,"Ġreport":929,"ince":930,"Ġsince":931,"level":932,"Ġmo":933,"Ġis":934,"ĠPro":935,"ated":936,"Ġinterface":937,"pt":938,"Ġlow":939,"ĠGSI":940,"Ġdriver":941,"Ġ\"":942,"Ġinterrupt":943,"amp":944,"estamp":945,"ign":946,"per":947,"ringup":948,"Ġsc":949,"bringup":950,"ges":951,"ccept":952,"helper":953,"userhelper":954,"Ġconfiguration":955,"Ġ<*>-<*>":956,"ached":957,"limit":958,"bor":959,"Ġneigh":960,"Ġneighbor":961,"FS":962,"Ġinit":963,"Ġsecond":964,"<*>]'":965,"ĠRead":966,"Ġaccept":967,"IO":968,"Ġrun":969,"FO":970,"clud":971,"cluded":972,"=<*>]'":973,"line":974,"Ġincluded":975,"ĠReading":976,"Ġ}":977,"Ġpid":978,"Ġremoving":979,"abl":980,"ith":981,"Ġwith":982,"Ġrunning":983,"VFS":984,"ep":985,"Ġstep":986,"Ġpro":987,"ext":988,"ial":989,"<*>,":990,"ge":991,"vile":992,"Ġprivile":993,"Ġprivileges":994,"ax":995,"lient":996,"RD":997,"Ġsda":998,"ux":999,"fsck":1000,"gist":1001,"gister":1002,"Ġshut":1003,"ĠUs":1004,"down":1005,"Ġsync":1006,"max":1007,"Ġlimit":1008,"Ġreached":1009,"IOS":1010,"/<*>":1011,"IN":1012,"Ġshutdown":1013,"]:":1014,"ening":1015,"MI":1016,"['/":1017,"Ġclient":1018,"PU":1019,"ĠCPU":1020,"ĠBIOS":1021,"assign":1022,"ache":1023,"INFO":1024,"update":1025,"ĠList":1026,"ĠListening":1027,"Ġ<*>)":1028,"gmond":1029,"Ġk":1030,"Ġconnection":1031,"<*>-":1032,"ram":1033,"ul":1034,"ĠRRD":1035,"Ġ<*>.<*>.<*>":1036,"Ġinitial":1037,"Ġbus":1038,"tions":1039,"Ġoptions":1040,"Ġcom":1041,"sion":1042,"Ġcache":1043,"ont":1044,"gram":1045,"ĠProgram":1046,"Ġsetup":1047,"ener":1048,"Ġro":1049,"Ġdo":1050,"Ġdoes":1051,"Ġtft":1052,"Ġtftp":1053,"tft":1054,"tftpd":1055,"ink":1056,"MP":1057,"pdated":1058,"Ġtimestamp":1059,"Ġbe":1060,"rq":1061,"ted":1062,"IC":1063,"Ġchange":1064,"Ġpre":1065,"Ġscsi":1066,"XT":1067,"nal":1068,"ournal":1069,"journal":1070,"Ġroot":1071,"ock":1072,"age":1073,"Ġinitialized":1074,"Ġwh":1075,"Ġatt":1076,"tim":1077,"ĠEXT":1078,"inux":1079,"date":1080,"Ġnew":1081,"gistered":1082,"Ġone":1083,"empt":1084,"gal":1085,"mini":1086,"mum":1087,"Ġil":1088,"legal":1089,"Ġwhen":1090,"Ġattempt":1091,"minimum":1092,"Ġillegal":1093,"Ġver":1094,"Ġversion":1095,"Ġmount":1096,"ĠSet":1097,"ĠInter":1098,"'\"":1099,"Ġ<*>/<*>":1100,"uth":1101,"entic":1102,"uthentic":1103,"rip":1104,"ĠUS":1105,"Ġread":1106,"<*>.<*>":1107,"hal":1108,"Ġhub":1109,":<*>.<*>:":1110,"Ġ<*>-<*>:<*>.<*>:":1111,"ET":1112,"usr":1113,"Ġbehal":1114,"Ġbehalf":1115,"Ġpam":1116,"Ġupdated":1117,"timestamp":1118,"ĠDO":1119,"cy":1120,"ĠID":1121,"WN":1122,"ĠDOWN":1123,"abled":1124,"Ġ;":1125,"ĠLink":1126,"Ġsw":1127,"ting":1128,"Ġfilesystem":1129,"ĠLID":1130,"Ġide":1131,"ack":1132,"PIC":1133,"emory":1134,"ĠV":1135,"Ġprocess":1136,"ision":1137,"ĠSM":1138,"sysinit":1139,"ĠGID":1140,"ĠGener":1141,"ĠGenerate":1142,"tt":1143,"ency":1144,":'":1145,"udit":1146,"anfs":1147,"NMP":1148,"sp":1149,"Ġ@":1150,"ĠDEL":1151,"ĠDELL":1152,"no":1153,"ĠPE":1154,"Ġaudit":1155,"connec":1156,"Ġdisconnec":1157,"Ġdisconnected":1158,":<*>'":1159,"Ġsub":1160,"ĠH":1161,"IRQ":1162,"ĠInterrupt":1163,"IRQs":1164,"ĠUsing":1165,"du":1166,"dule":1167,"ity":1168,"Ġassign":1169,"Ġassigned":1170,"ĠInt":1171,"Ġ(<*>":1172,"Ġmemory":1173,"Ġrip":1174,"Ġrsp":1175,"ana":1176,"ult":1177,"...'":1178,"ĠMo":1179,"...":1180,"<*>.<*>:":1181,"ontext":1182,"(<*>.<*>:":1183,"(<*>.<*>:<*>):":1184,"Ġmode":1185,"aus":1186,"ause":1187,"ĠUser":1188,"Ġscontext":1189,"ecause":1190,"Ġbecause":1191,"FT":1192,"KC":1193,"SFT":1194,"ĠMSFT":1195,"ĠBKC":1196,"nox":1197,"ash":1198,"ey":1199,"ĠSNMP":1200,"ĠUpdate":1201,"Ġe":1202,"Ġstarting":1203,"bing":1204,"Ġent":1205,"ries":1206,"Ġentries":1207,"Ġex":1208,"ug":1209,"ĠFor":1210,"ĠNET":1211,"ĠIntel":1212,"logd":1213,"hy":1214,"ĠO":1215,"Ġauthentic":1216,"Ġtimer":1217,"ĠProbing":1218,"Ġli":1219,"Ġjournal":1220,"net":1221,"ĠUSB":1222,"Ġgmond":1223,"tpd":1224,"Ġntpd":1225,"ĠUn":1226,"ĠSetting":1227,"ll":1228,"Ġsubnet":1229,"var":1230,"ly":1231,"gfa":1232,"Ġsegfa":1233,"Ġsegfault":1234,"so":1235,"CSI":1236,"lock":1237,"pe":1238,"Ġfe":1239,"Ġline":1240,"ĠForce":1241,"ĠSCSI":1242,"ve":1243,"ackage":1244,"king":1245,"thh":1246,"['<*>":1247,"tes":1248,"ating":1249,"Ġlost":1250,"<*>[<*>]:":1251,"Ġcoming":1252,"Ġauthenticated":1253,"ĠNow":1254,"Ġkey":1255,"Ġall":1256,"Ġprefix":1257,"ĠLocal":1258,".'\"":1259,"=<*>)":1260,"Connection":1261,"Ġhash":1262,"Ġtable":1263,"<*>...'":1264,"ĠIDE":1265,"Ġfam":1266,"ily":1267,"col":1268,"tocol":1269,"ĠRegistered":1270,"Ġprotocol":1271,"Ġfamily":1272,"ĠMana":1273,"hys":1274,"Ġirq":1275,"Ġrole":1276,"Ġsweep":1277,"bas":1278,"mm":1279,"ac":1280,"Ġphys":1281,"Ġlid":1282,"Ġ*":1283,"Ġaccepted":1284,"Out":1285,"Ġremoved":1286,"Ġ:":1287,"ĠServer":1288,"ore":1289,"panfs":1290,"ell":1291,"Ġfil":1292,"Ġfiles":1293,"ips":1294,"word":1295,"Ġbytes":1296,"upport":1297,"Ġseconds":1298,"ann":1299,"Ġblock":1300,"Hz":1301,"ra":1302,"onso":1303,"onsole":1304,"irq":1305,"der":1306,"ĠSt":1307,"ĠStart":1308,"vision":1309,"PS":1310,"ables":1311,"sts":1312,"Ġchann":1313,"Ġchannel":1314,"eg":1315,"roll":1316,"ontroll":1317,"ontroller":1318,"comm":1319,"Ġmd":1320,"ĠHost":1321,"ĠController":1322,"Ġlat":1323,"ĠConfiguration":1324,"Ġsource":1325,"Ġlatency":1326,"Ġstarted":1327,"insts":1328,"drv":1329,"vcdrv":1330,"instsvcdrv":1331,"rite":1332,"DT":1333,"Ġaddr":1334,"cd":1335,"cdbas":1336,"Ġdcdbas":1337,"atch":1338,"mount":1339,"lug":1340,"Ġusec":1341,"Ġ(<*>)'":1342,"ĠMon":1343,"APIC":1344,"Ġen":1345,"UID":1346,"ĠAn":1347,"ĠGUID":1348,"isting":1349,"Ġexisting":1350,"ber":1351,"Ġsm":1352,"urity":1353,"sec":1354,"::":1355,"SMI":1356,"pr":1357,"erpr":1358,"ises":1359,"enterpr":1360,".<*>.<*>.<*>":1361,"ĠSNMPv":1362,"enterprises":1363,"oun":1364,"Ġand":1365,"Ġsystem":1366,"Ġlog":1367,"pi":1368,"ĠLAPIC":1369,"acpi":1370,"Ġregistered":1371,"[<*>])'":1372,"pre":1373,"linux":1374,"sc":1375,"ĠPackage":1376,"lib":1377,"ages":1378,"vert":1379,"dri":1380,"ntp":1381,"drift":1382,"Ġmodule":1383,"ca":1384,"ĠAPIC":1385,"Ġhigh":1386,"Ġ#<*>#@":1387,"ĠLog":1388,"its":1389,"limits":1390,"int":1391,"NMI":1392,"Ġed":1393,"Ġlint":1394,"Ġedge":1395,"Ġnum":1396,"Ġnumber":1397,"tty":1398,"race":1399,"Ġ$":1400,"RO":1401,"#<*>#/":1402,"<*>.":1403,"eleas":1404,"Ġserver":1405,"elease":1406,"Ġid":1407,"Ġdiscovered":1408,"Ġdown":1409,"ype":1410,"Ġconsole":1411,"zon":1412,"Ġzon":1413,"etfilter":1414,"bus":1415,"/#<*>#/":1416,"Ġenabled":1417,"ĠRA":1418,"Ġblocks":1419,"Ġdivert":1420,"ĠCom":1421,"Ġ...":1422,"iting":1423,"ecking":1424,"Ġcore":1425,"Ġcomp":1426,"ĠStarting":1427,"val":1428,"mit":1429,"Ġorder":1430,"Ġinterval":1431,"journald":1432,"Ġmounted":1433,"ĠCommit":1434,"Ġordered":1435,"tern":1436,"ĠFS":1437,"Ġintern":1438,"Ġinternal":1439,"),":1440,"ase":1441,"eam":1442,"tables":1443,"Ġteam":1444,"ĠNetfilter":1445,"ean":1446,"onf":1447,"Ġqu":1448,"Ġfs":1449,"wa":1450,"ACPI":1451,"Ġclean":1452,"uting":1453,"ware":1454,"Ġ[/":1455,"Ġkjournald":1456,"Ġfsck":1457,"pam":1458,"aused":1459,"Ġcaused":1460,"Ġip":1461,"rd":1462,"Ġwrite":1463,"Ġrouting":1464,"ĠEx":1465,"pc":1466,"ntpdate":1467,"ht":1468,"cision":1469,"Ġprecision":1470,"ĠEDT":1471,"<*>.<*>-":1472,"ĠOct":1473,"Ġ#<*>#@<*>.<*>-":1474,"quency":1475,"Ġfrequency":1476,"fset":1477,"Ġoffset":1478,"PM":1479,"conf":1480,"ĠPPM":1481,"syslogd":1482,"Ġpass":1483,"Ġconfig":1484,"Ġconfigu":1485,"mod":1486,"Ġpan":1487,"Ġlocal":1488,"Ġrestart":1489,"Ġ<*>.<*>.<*>:":1490,"ĠPlug":1491,"Ġfoun":1492,"Ġfound":1493,"gem":1494,"ĠManagem":1495,"ĠManagement":1496,"ress":1497,"ĠSystems":1498,"Ġdue":1499,"ish":1500,"dress":1501,"ops":1502,"ished":1503,"ĠDE":1504,"ĠWarning":1505,"ĠModule":1506,"sg":1507,"Ġsign":1508,"Ġsignal":1509,"proc":1510,"msg":1511,"etc":1512,"kmsg":1513,"Ġ<*>.<*>.<*>,":1514,"Ġklogd":1515,"domain":1516,"be":1517,"ml":1518,"Ġ<*>:<*>":1519,"AU":1520,"FAU":1521,"LT":1522,"Ġprocessing":1523,"ĠDEFAU":1524,"ĠDEFAULT":1525,"prefix":1526,"izing":1527,"ĠUnable":1528,"hh":1529,"ird":1530,"part":1531,"xhh":1532,"Ġmnt":1533,"thca":1534,"third":1535,"mlxhh":1536,"party":1537,"Ġdisabled":1538,"Ġ#<*>":1539,"Ġ#<*>#":1540,"Ġalloc":1541,"ĠTrace":1542,"Ġuops":1543,"oMI":1544,"Ġnon":1545,"Ġpages":1546,"ĠBog":1547,"oMIPS":1548,"ĠBogoMIPS":1549,"ELinux":1550,"and":1551,"Ġ*<*>,":1552,"ĠNetwork":1553,"MA":1554,"LB":1555,"Ġfilesystems":1556,"=<*>)'":1557,"ĠUSER":1558,"sud":1559,"sudo":1560,"IFO":1561,"Ġbatch":1562,"ĠLIFO":1563,"Ġzone":1564,"Ġgener":1565,"form":1566,"otal":1567,"Ġlun":1568,"ttached":1569,"Ġrevision":1570,"uil":1571,"ĠPRO":1572,"rig":1573,"ete":1574,"lete":1575,"ernet":1576,"Ġcomplete":1577,"cti":1578,"lease":1579,"ĠDriver":1580,"ĠCle":1581,"unting":1582,"aid":1583,"araid":1584,"egaraid":1585,"Ġbin":1586,"ced":1587,"ĠSA":1588,"sources":1589,"Ġresources":1590,"Ġforced":1591,"ĠClean":1592,"Ġbind":1593,"network":1594,"ĠAttached":1595,"Ġpar":1596,"ĠSELinux":1597,"Ġregister":1598,"ĠBring":1599,"ĠBringing":1600,"config":1601,"ol":1602,"oot":1603,"Ġad":1604,"ccess":1605,"Ġmegaraid":1606,"Ġrecover":1607,"Ġrecovering":1608,"Ġpanfs":1609,"Ġerr":1610,"Ġmet":1611,"te":1612,"ff":1613,"-<*>'":1614,"TP":1615,"hob":1616,"Ġmi":1617,"accept":1618,"Ġpassword":1619,"authentic":1620,"Ġign":1621,"ored":1622,"esc":1623,"Ġkeyword":1624,"Ġconfigure":1625,"authenticate":1626,"Ġignored":1627,"right":1628,"yright":1629,"ĠTo":1630,"WA":1631,"Ġ,":1632,"Ġap":1633,"Ġ<*>:<*>'":1634,"Ġdesc":1635,"smux":1636,"ĠMIB":1637,"Ġoid":1638,"ĠManager":1639,"Ġsmux":1640,".<*>.<*>.<*>,":1641,"Ġdescr":1642,"cessor":1643,"security":1644,"<*>.<*>.<*>":1645,"opyright":1646,"=/":1647,"ĠX":1648,"Ġlocalhost":1649,"ĠCopyright":1650,"exiting":1651,"ility":1652,"Ġaddress":1653,"Ġinstall":1654,"RM":1655,"Ġinstallation":1656,"BI":1657,"IRM":1658,"Yast":1659,"inished":1660,"ĠTBI":1661,"ĠFIRM":1662,"ĠFinished":1663,"ĠDell":1664,"localdomain":1665,"WARE":1666,"ĠTBIRD":1667,"ĠFIRMWARE":1668,"ĠNTP":1669,"devel":1670,"ĠSMP":1671,"Ġas":1672,"ply":1673,"ĠDis":1674,"Ġbu":1675,"Ġupdates":1676,"Ġapply":1677,"ĠProcessor":1678,"Ġav":1679,"Ġavail":1680,"!'":1681,"que":1682,"Ġload":1683,"itial":1684,"itializing":1685,"itch":1686,"Ġswitch":1687,"Ġcomm":1688,"Ġ<*>:":1689,"io":1690,"erio":1691,"ath":1692,"Ġpath":1693,"ersion":1694,"ĠVersion":1695,"link":1696,"ĠSupport":1697,"ĠIO":1698,"Ġprocessor":1699,"Dell":1700,"package":1701,"sps":1702,"support":1703,"etup":1704,"ĠDesc":1705,"ĠRelease":1706,"updatepackage":1707,"ription":1708,"spsetup":1709,"ĠDescription":1710,"Ġth":1711,"bl":1712,"Ġallocating":1713,"blk":1714,"_<*>_":1715,"Ġrhel":1716,"release":1717,"lp":1718,"rating":1719,"ibrating":1720,"alibrating":1721,"Ġloop":1722,"lpj":1723,"GHz":1724,"TM":1725,"eon":1726,"Ġstepping":1727,"ĠXeon":1728,"Ġsock":1729,"Ġsocket":1730,"ttyS":1731,"ard":1732,"TLB":1733,"Ġtype":1734,"ĠIP":1735,"ĠMHz":1736,"ke":1737,"apab":1738,"end":1739,"LO":1740,"Ġavailable":1741,"RA":1742,"inal":1743,"Ġdisk":1744,"<*>,<*>":1745,"RC":1746,"SRC":1747,"lob":1748,"Ġglob":1749,"ĠINT":1750,"OVR":1751,"Ġglobal":1752,"PET":1753,"ĠHPET":1754,"ĠRAM":1755,"Ġback":1756,"Ġal":1757,"ready":1758,"ary":1759,"ethernet":1760,"fixup":1761,"Ġsecondary":1762,"apability":1763,"Ġalready":1764,"Ġso":1765,"Ġdevices":1766,"olog":1767,"ology":1768,"NSI":1769,"ĠANSI":1770,"ftware":1771,"Ġsoftware":1772,"by":1773,"del":1774,"roug":1775,"Ġ<*>,<*>":1776,"Ġsg":1777,"ĠPB":1778,"ĠRev":1779,"ĠModel":1780,"Ġsmartd":1781,"Ġgeneric":1782,"endor":1783,"Ġnet":1784,"Ġ*<*>'":1785,"Ġnetlink":1786,"<*>/<*>":1787,"probe":1788,"ĠNMI":1789,"ĠCPUs":1790,"ĠAd":1791,"uild":1792,"nil":1793,"iginal":1794,"Ġchanging":1795,"Ġoriginal":1796,"Ġdri":1797,"uming":1798,"Ġpage":1799,".<*>.<*>.<*>'":1800,"ind":1801,"Ġqui":1802,"av":1803,"<*>.<*>'":1804,"ĠPri":1805,"ĠHat":1806,"Ġchecking":1807,"RT":1808,"Ġspe":1809,"Ġmice":1810,"Ġspeed":1811,"PI":1812,"Ġ<*>-":1813,"ĠInitializing":1814,"Ġcf":1815,"Ġ<*>.<*>.<*>-":1816,"ĠMounting":1817,"Ġclock":1818,"build":1819,"otas":1820,"Ġquotas":1821,"ctive":1822,"Release":1823,"aRA":1824,"anning":1825,"ĠDate":1826,"ĠMeg":1827,"Ġscanning":1828,"aRAID":1829,"ĠMegaRAID":1830,"gb":1831,"hgb":1832,"reating":1833,"Ġtsc":1834,"Ġrhgb":1835,"Ġquiet":1836,"ĠBoot":1837,"ĠLinux":1838,"#<*>#@#<*>#":1839,"ĠCalibrating":1840,"ĠUni":1841,"Ġib":1842,"Ġ<*>!'":1843,"ĠTotal":1844,"ĠType":1845,"Ġserio":1846,"ĠMST":1847,"ĠVendor":1848,"ĠChecking":1849,"ers":1850,"eters":1851,"ameters":1852,"Ġparameters":1853,"ved":1854,"cache":1855,"ĠIPS":1856,"ĠEST":1857,"Ġbindcache":1858,"ful":1859,"Ġsuccess":1860,"Ġsuccessful":1861,"Ġsuccessfully":1862,"ĠTop":1863,"ĠTopology":1864,"Ġrecovery":1865,"rpc":1866,"<<*>":1867,"Ġhard":1868,"Ġhardware":1869,":/":1870,"get":1871,"pan":1872,"CPU":1873,"://#<*>#/":1874,"loc":1875,"ĠSTA":1876,"Re":1877,":<*>:":1878,"Ġdev":1879,"idm":1880,"apd":1881,"idmapd":1882,"MM":1883,"job":1884,"Ġjob":1885,"ĠUpdated":1886,"Ġ<*>-<*>-<*>'":1887,"anacron":1888,"etec":1889,"mr":1890,"ĠActive":1891,"ome":1892,"only":1893,"Ġman":1894,"Ġmany":1895,"ustre":1896,"ser":1897,"quest":1898,"out":1899,"Ġopening":1900,"ĠToo":1901,"Ġreser":1902,"Ġreserved":1903,"Ġtimeout":1904,"tor":1905,"Ġsector":1906,"<*>.<*>.<*>'":1907,"ip":1908,"ĠAll":1909,"Ġwe":1910,"syslog":1911,"lve":1912,"Ġreso":1913,"Ġresolve":1914,"Ġtimes":1915,"Ġhtt":1916,"ĠUnknown":1917,"Ġhttp":1918,"etected":1919,"ERM":1920,"ffer":1921,"Th":1922,"Ġsetting":1923,"ĠPID":1924,"Se":1925,"ĠCli":1926,"ssionTh":1927,"SessionTh":1928,"ĠCliSessionTh":1929,"ĠCliSessionThread":1930,"<<*>>":1931,"Ġpo":1932,"ric":1933,"Ġmeta":1934,"Ġmetric":1935,"Ġdetected":1936,"ide":1937,"ded":1938,"In":1939,"NA":1940,"ired":1941,"Ġrequ":1942,"Ġrequired":1943,"Ġbuffer":1944,"ĠW":1945,"Ġtain":1946,"ĠVol":1947,"ty":1948,"Ġtty":1949,"por":1950,"Ġprobe":1951,"SM":1952,"gn":1953,"ĠNFS":1954,"Ġdecl":1955,"kip":1956,"ull":1957,"Ġy":1958,"Ġover":1959,"Ġ<*>.<*>.<*>'":1960,"TERM":1961,"register":1962,"SNMP":1963,"sl":1964,"py":1965,"plug":1966,"otplug":1967,"hotplug":1968,"lop":1969,"loppy":1970,"cre":1971,"orun":1972,"Ġaut":1973,"Ġautorun":1974,"Ġsys":1975,"ride":1976,"Ġ<*>.<*>.<*>-<*>":1977,"Ġoverride":1978,").'":1979,"eds":1980,"Ġwa":1981,"keup":1982,"Ġwakeup":1983,"cro":1984,"uto":1985,"Ġaddresses":1986,"base":1987,"DP":1988,"rr":1989,"ĠBad":1990,"ons":1991,"Ġ...'":1992,"Ġlist":1993,"establ":1994,"Ġsel":1995,"map":1996,"ĠExiting":1997,"Ġcommand":1998,"tl":1999,"octl":2000,"Ġlogical":2001,"ĠRAID":2002,"SB":2003,"Ġper":2004,"ask":2005,"ĠJ":2006,"Ġ<*>/":2007,"Ġuse":2008,"ĠKernel":2009,"floppy":2010,"ĠMA":2011,"ime":2012,"Ġmpt":2013,"Ġif":2014,"Ġexce":2015,"PR":2016,"Pl":2017,"md":2018,"MDIS":2019,"MDISK":2020,"ew":2021,"een":2022,"ioctl":2023,"ween":2024,"etween":2025,"Ġbetween":2026,"Ġim":2027,"ĠTh":2028,"ĠPA":2029,"ĠMemory":2030,"time":2031,"Ġimage":2032,"Ġskip":2033,"established":2034,"wrap":2035,"Ġxinetd":2036,"rote":2037,"ibwrap":2038,"iled":2039,"Ġlibwrap":2040,"Ġcompiled":2041,"Ġloadav":2042,"ĠWrote":2043,"Ġloadavg":2044,"bps":2045,"ding":2046,"dog":2047,"watch":2048,"orts":2049,"orpor":2050,"ĠCorpor":2051,"ĠFull":2052,"ĠDup":2053,"ĠMbps":2054,"ĠNIC":2055,"lex":2056,"ĠLSI":2057,"ĠUp":2058,"watchdog":2059,"ĠCorporation":2060,"ĠDuplex":2061,"Kernel":2062,"ph":2063,"aring":2064,"ization":2065,"sal":2066,"orking":2067,"Ġag":2068,"Ġworking":2069,"ĠStarted":2070,"fst":2071,"ia":2072,"nc":2073,"ints":2074,"sync":2075,"Ġmap":2076,"Ġgenerated":2077,"Ġpoints":2078,"fstab":2079,"data":2080,"Ġrequest":2081,"Ġnow":2082,"bios":2083,"Ġ::":2084,":[":2085,"sent":2086,"Ġpresent":2087,"Red":2088,"SDP":2089,"cc":2090,"gcc":2091,"pages":2092,"Ġ)":2093,"atd":2094,"statd":2095,"ree":2096,"Ġtotal":2097,"ĠTue":2098,"vided":2099,"provided":2100,"Ġinform":2101,"ĠLustre":2102,"ĠRSDP":2103,"Ġok":2104,"Ġphysical":2105,"command":2106,"Ġconfigured":2107,"Ġmptable":2108,"Ġtotalpages":2109,"Ġinformation":2110,"tu":2111,"ves":2112,"Ġtask":2113,"ĠDisabled":2114,"new":2115,"Ġtables":2116,"ĠDa":2117,"Ġbase":2118,"Ġmodes":2119,"MADT":2120,"SW":2121,"elist":2122,"Ġzonelist":2123,"uilt":2124,"Ġzonelists":2125,"GA":2126,"SC":2127,"lour":2128,"rame":2129,"Ġ<*><*>'":2130,"ere":2131,"Ġframe":2132,"ĠTLB":2133,"ĠCreating":2134,"ĠSca":2135,"Ġcolour":2136,"ecurity":2137,"))']":2138,"ĠPS":2139,"ĠBind":2140,"Ġsynchronization":2141,"Ġcapability":2142,"ĠLSM":2143,"ĠRegister":2144,"Ġsecurity":2145,"Ġswap":2146,"ĠVGA":2147,"acing":2148,"old":2149,"ffold":2150,"ĠTopspin":2151,"Ġthroug":2152,"ĠAddress":2153,"Ġdrive":2154,"Ġlistening":2155,"Ġframework":2156,"ĠScaffold":2157,"ĠRegistering":2158,"Ġthrough":2159,"ration":2160,"Ġext":2161,"Ġdec":2162,"lice":2163,"Ġmig":2164,"Ġmsec":2165,"Ġcuto":2166,"Ġusecs":2167,"Ġtimeslice":2168,"Ġdecay":2169,"Ġmigration":2170,"Ġmsecs":2171,"Ġcutoff":2172,"DE":2173,"HI":2174,"KS":2175,"Kby":2176,"MHz":2177,"PV":2178,"VS":2179,"dw":2180,"gart":2181,"pgart":2182,"uge":2183,"vated":2184,"xx":2185,"ze":2186,"atform":2187,"Ġ(<*>.<*>":2188,"ones":2189,"edul":2190,"alph":2191,"Ġsch":2192,"ĠTCP":2193,"ĠTime":2194,"ssuming":2195,"ĠClock":2196,"Ġports":2197,"ets":2198,"ĠAssuming":2199,"Ġacti":2200,"size":2201,"IDE":2202,"Ġ<*>.<*>.":2203,"ĠPIO":2204,"ĠPIC":2205,"ĠMB":2206,"ĠMD":2207,"ĠMult":2208,"ĠBP":2209,"ouse":2210,"Ġhdw":2211,"Ġunused":2212,"Ġmouse":2213,"DISKS":2214,"ĠRem":2215,"Ġsharing":2216,"Ġfreed":2217,"ckets":2218,"ĠRevision":2219,"Ġio":2220,"Ġidebus":2221,"ĠVPR":2222,"Ġsubsystem":2223,"ĠHash":2224,"ĠHuge":2225,"Ġblocksize":2226,"ĠLogic":2227,"Ġallocated":2228,"Ġbuckets":2229,"Ġcommon":2230,"Ġprocessors":2231,"ĠIPsec":2232,"Ġdisks":2233,"byte":2234,"ĠPBLO":2235,"ĠPBHI":2236,"Ġcfq":2237,"Revision":2238,"Ġsectors":2239,"ĠJones":2240,"ĠMAX":2241,"Platform":2242,"ĠPALO":2243,"Ġagpgart":2244,"reeing":2245,"newide":2246,"ĠDave":2247,"DEVS":2248,"Kbytes":2249,"eduler":2250,"alpha":2251,"Ġscheduler":2252,"Ġactivated":2253,"ĠPICH":2254,"ĠMulti":2255,"Ġhdwr":2256,"ĠHugeTLB":2257,".<<*>>":2258,":-<*>":2259,"CRO":2260,"DMA":2261,"Id":2262,"UP":2263,"_<*>.<*>.<*>'":2264,"grap":2265,"pto":2266,"rand":2267,"trr":2268,"Ġem":2269,"ority":2270,"Ġdqu":2271,"-<*>)":2272,"-<*>-<*>)":2273,"ised":2274,"ĠCry":2275,"ĠCore":2276,"ents":2277,"<*>/<*>/<*>":2278,"ĠAPI":2279,"disabled":2280,"Ġak":2281,"Ġboun":2282,"IOTLB":2283,"ulation":2284,"Ġinitializing":2285,"Ġinitialised":2286,"<*>.<*>)'":2287,"ĠHot":2288,"Ġ(<*>-<*>-<*>)":2289,"Ġ$'":2290,"ĠExp":2291,"pci":2292,"ĠDisk":2293,"ĠPriority":2294,"RTUP":2295,"ĠSTARTUP":2296,"Ġbuffering":2297,"mapper":2298,"Ġ<*>/<*>/<*>":2299,"SWIOTLB":2300,"Ġextents":2301,"CRON":2302,"graphic":2303,"ptographic":2304,"random":2305,"Ġemulation":2306,"Ġdquot":2307,"ĠCryptographic":2308,"Ġbounce":2309,"ĠTSC":2310,"ĠSub":2311,"Ġacro":2312,"Ġinitram":2313,"Ġpassed":2314,"rought":2315,"ĠSubsystem":2316,"Ġacross":2317,"Ġinitramfs":2318,"cf":2319,".<*>'":2320,"ĠInterpre":2321,"ĠInterpreter":2322,"Ġ>":2323,"PG":2324,"ĠGPG":2325,"ĠAdding":2326,"ive":2327,"arget":2328,"alm":2329,"Ġass":2330,"Ġassuming":2331,"))":2332,"write":2333,".<*>))":2334,"Ġ(#<*>#@#<*>#":2335,"ĠOn":2336,"ĠBootdata":2337,"Ġ<*>.<*>.<*>-<*>.<*>))":2338,"Ġ(#<*>#@#<*>#)":2339,"Phy":2340,"fun":2341,"rtu":2342,"Ġbios":2343,"Ġ<*>]":2344,"Ġfw":2345,"ions":2346,"virtu":2347,"Ġhw":2348,"ĠLD":2349,"Ġ<*>:<*>:<*>:<*>:":2350,"raid":2351,"Ġasking":2352,"Ġdrives":2353,"slot":2354,"func":2355,"virtual":2356,"ĠDMI":2357,"ĠRemo":2358,"acy":2359,"tens":2360,"vacy":2361,"Ġsupport":2362,"versal":2363,"ĠBuilt":2364,"ĠInterface":2365,"ĠExtens":2366,"ĠPrivacy":2367,"ĠUniversal":2368,"ĠExtensions":2369,"lacing":2370,"order":2371,"ĠConsole":2372,"ĠCapability":2373,"entry":2374,"ĠSecurity":2375,"ĠDentry":2376,"ĠPlacing":2377,"Ġselinux":2378,"ĠThere":2379,"ĠRemounting":2380,"licens":2381,"ĠBooting":2382,"hat":2383,"ru":2384,"Ġ<":2385,"<*>_<*>-":2386,"ĠBru":2387,"ĠRed":2388,"redhat":2389,"ĠAllen":2390,"gnu":2391,"Ġ>'":2392,"ĠBruce":2393,"pen":2394,"sed":2395,"Ġlicens":2396,"Ġmtrr":2397,"ĠHome":2398,"ĠOpen":2399,"Ġparsed":2400,"://#<*>#/'":2401,"Ġtaints":2402,"ĠttyS":2403,"Ġlicense":2404,"ĠOpened":2405,"Ġit":2406,"Ġfind":2407,"ĠFreeing":2408,"ume":2409,"ĠSerial":2410,"ĠBrought":2411,"Ġusb":2412,"localtime":2413,"ĠReal":2414,"Ġ<*>-<*>:":2415,"Ġsystems":2416,"ĠLogical":2417,"ĠRAMDISK":2418,"ĠUniform":2419,"NAPI":2420,"ĠVolume":2421,"-#<*>#@#<*>#":2422,"HCI":2423,"May":2424,"ĠVFS":2425,"emon":2426,"Ġdm":2427,"Ġdur":2428,"Ġtarget":2429,"ĠIA":2430,"ĠEHCI":2431,"Ġ<*>.<*>,":2432,"send":2433,"hcd":2434,"hci":2435,"Ġehci":2436,"Ġcfg":2437,"cfg":2438,"Ġsupported":2439,"-#<*>#@#<*>#'":2440,"Ġduring":2441,"nabl":2442,"ering":2443,"ĠEnt":2444,"ĠEnabl":2445,"Ġrunlevel":2446,"ĠEntering":2447,"ĠEnabling":2448,"ĠInc":2449,"aemon":2450,"Ġdaemon":2451,"ium":2452,"ĠCons":2453,"ortium":2454,"ĠInternet":2455,"ĠConsortium":2456,"Ġsuit":2457,"Ġsuitable":2458,"EC":2459,"fn":2460,"ox":2461,"udev":2462,"<*>\"":2463,"anox":2464,"ĠTav":2465,"ĠMell":2466,"Ġudev":2467,"Ġcreating":2468,"Ġdevfn":2469,"InfiniHost":2470,"udevsend":2471,"ĠTavor":2472,"ĠMellanox":2473,"Ġudevd":2474,").":2475,"irect":2476,"ou":2477,"ĠDirect":2478,"Ġremovable":2479,"ĠDirective":2480,"SMA":2481,"ĠIEC":2482,"ĠMar":2483,"Ġcmm":2484,"SMART":2485,"ĠON":2486,"Ġaccess":2487,"Ġreadonly":2488,"realm":2489,"Ġske":2490,"Ġrejec":2491,"Ġyou":2492,"Ġexceeds":2493,"Ġskew":2494,"Ġrejected":2495,"IP":2496,"Ġloaded":2497,"Int":2498,"Intel":2499,"ped":2500,"uid":2501,"Ġrpc":2502,"rpcidmapd":2503,"Ġreal":2504,"KL":2505,"key":2506,"ĠVIP":2507,"create":2508,"keys":2509,"ĠVIPKL":2510,"ĠPan":2511,"<*>:<*>":2512,"Ġdrop":2513,"if":2514,"TS":2515,"Ġplease":2516,"ĠSTATS":2517,"Ġdropped":2518,"ĠPanFS":2519,"'t":2520,"boot":2521,"Ġguid":2522,":(":2523,"())":2524,"Ġ<*>:<*>:(":2525,"Ġtrace":2526,"<*>']":2527,"Ġdecls":2528,"Ġthe":2529,"ERT":2530,"Ġcan":2531,"ited":2532,"Ġexited":2533,"common":2534,"Ġturn":2535,"Ġturned":2536,"tage":2537,"uine":2538,"enuine":2539,"Ġab":2540,"ĠGenuine":2541,"ĠGenuineIntel":2542,"Ġauthentication":2543,"LERT":2544,"normal":2545,"tate":2546,"rotate":2547,"ĠALERT":2548,"logrotate":2549,"Ġabnormal":2550,"Ġabnormally":2551,"EMP":2552,"TEMP":2553,"ĠExit":2554,"Reboot":2555,"ĠIf":2556,"cmd":2557,"cmdif":2558,"smatch":2559,"Ġmismatch":2560,"Ġsp":2561,"min":2562,"Ġused":2563,"ess":2564,"Ġmess":2565,"Ġmax":2566,"PA":2567,"ĠAF":2568,"Ġexiting":2569,"]'":2570,"home":2571,"aration":2572,"Ġ**":2573,"Ġdeclaration":2574,"fo":2575,"Ġshutting":2576,"soc":2577,"last":2578,"client":2579,"knal":2580,"socknal":2581,"Ġ<*>>":2582,"Ġle":2583,"Ġ#<*>#@#<*>#":2584,"/'":2585,"hts":2586,"Ġrig":2587,"Ġ<<*>":2588,"isit":2589,"Ġvisit":2590,"Ġinfo":2591,"dhcp":2592,"Ġrights":2593,"request":2594,"Ġreading":2595,"Ġend":2596,"Ġsettings":2597,"No":2598,"put":2599,"admin":2600,"Pro":2601,"lustre":2602,"Ġrepe":2603,"Ġmessage":2604,"Ġrepeated":2605,"ĠPublic":2606,"ĠAuthentic":2607,"ĠRO":2608,"uld":2609,"queue":2610,"Ġget":2611,"Ġmay":2612,"ived":2613,"ceived":2614,"ĠReceived":2615,"BIOS":2616,"Error":2617,"ĠLustreError":2618,"ace":2619,"asas":2620,"(<*>)":2621,"Ġgo":2622,"Ġspace":2623,"ould":2624,"achable":2625,"AS":2626,"ange":2627,"\")'":2628,"GIN":2629,"SAS":2630,"kmod":2631,"Ġfac":2632,"Ġ(\"":2633,"Ġsubdev":2634,"NASAS":2635,"PANASAS":2636,"Ġfacility":2637,"module":2638,"erber":2639,"ĠKerber":2640,"ĠKerberos":2641,"bird":2642,"Ġma":2643,"GT":2644,"ĠTGT":2645,"lict":2646,"Ġconf":2647,"Ġ#<*>#@#<*>#.'":2648,"Ġconflict":2649,"tbird":2650,"Ġbut":2651,"Ġ<<*>>":2652,"Ġdel":2653,"=<*>/":2654,"OGIN":2655,"eted":2656,"ĠLOGIN":2657,"=<*>/<*>,":2658,"nam":2659,"ynam":2660,"Ġdynam":2661,"Ġdeleted":2662,"Ġdynamic":2663,"Nov":2664,"ĠClient":2665,"Ġpanasas":2666,"Ġpoll":2667,"MB":2668,"ead":2669,"head":2670,"kB":2671,"uct":2672,"struct":2673,"jor":2674,"yte":2675,"Ġlocking":2676,"ĠByte":2677,"Ġrange":2678,"Ġmajor":2679,"AMD":2680,"IX":2681,"NIX":2682,"UNIX":2683,"atter":2684,"ĠAhead":2685,"Ġvol":2686,"ĠBatter":2687,"ĠDiscre":2688,"Ġloading":2689,"Ġtainted":2690,"ĠVoltage":2691,"Ġlevel":2692,"ĠAuthenticAMD":2693,"ĠROMB":2694,"Ġvoltage":2695,"ĠBattery":2696,"ĠDiscrete":2697,"trace":2698,"Ġreachable":2699,"Ġshould":2700,"Ġservers":2701,"Ġadded":2702,"Ġare":2703,"Ġoops":2704,"NET":2705,"ure":2706,"ailure":2707,"Ġactive":2708,"Ġfailure":2709,"=<*>:":2710,"EXT":2711,"ken":2712,"Ġ'-":2713,"hich":2714,"Ġwhich":2715,"ute":2716,"oring":2717,"roken":2718,"cho":2719,"Ġfl":2720,"serio":2721,"Ġreop":2722,"Ġbroken":2723,"<*>:<*>),":2724,"INET":2725,"Probing":2726,"Ġreopening":2727,"IL":2728,"ill":2729,"Ġyour":2730,"OP":2731,"ant":2732,"Ġdhc":2733,"ĠIgn":2734,"gment":2735,"Ġreque":2736,"Ġ(<*>).'":2737,"Ġwant":2738,"Ġsegment":2739,"shut":2740,"Ġaccepting":2741,"Ġconnections":2742,"Ġwhat":2743,"Ġattached":2744,"Ġthis":2745,"<*>:<*>.":2746,"Ġ**'":2747,"Ġdhcpd":2748,"ĠIgnoring":2749,"Ġrequests":2750,"shutdown":2751,"PCI":2752,"Initializing":2753,"conn":2754,"iate":2755,"ksocknal":2756,"Ġ!'":2757,"route":2758,"ociate":2759,"associate":2760,"obd":2761,"locked":2762,"TOP":2763,"<*>)'":2764,"ĠTERM":2765,"ĠSTOP":2766,"Ġ'--":2767,"ait":2768,"fore":2769,"-<*>.<*>.<*>.":2770,"Ġbefore":2771,"Ġready":2772,"ĠWait":2773,"ran":2774,"annot":2775,"assword":2776,"atus":2777,"Ġqueue":2778,"usb":2779,"ĠPassword":2780,"ports":2781,"Ġstatus":2782,"SELinux":2783,"call":2784,"sup":2785,"Ġ#<*>#'":2786,"supports":2787,"OT":2788,"ql":2789,"sql":2790,"ĠTran":2791,"ON":2792,"core":2793,"EM":2794,"NG":2795,"fct":2796,"my":2797,"-<*>.<*>.<*>-":2798,"ĠPhys":2799,"perfct":2800,"Ġ<*>-<*>'":2801,"mysql":2802,"ĠPhysical":2803,"perfctr":2804,"AEM":2805,"DAEM":2806,"echo":2807,"mqueue":2808,"ool":2809,"Ġ+":2810,"als":2811,"Ġneeds":2812,"spool":2813,"SMTP":2814,"clientmqueue":2815,"DAEMON":2816,"Ġcannot":2817,"BU":2818,"di":2819,"sad":2820,"Ġtput":2821,"omsad":2822,"bo":2823,"login":2824,"Ġisa":2825,"divert":2826,"board":2827,"Ġresp":2828,"gid":2829,"Ġnlink":2830,"ĠAT":2831,"Ġkeyboard":2832,"slated":2833,"Ġleft":2834,"ĠTranslated":2835,"Ġbringup":2836,"Us":2837,"ĠRNG":2838,"ĠOK":2839,"usbcore":2840,"Using":2841,"#<*>'":2842,"Boot":2843,"Calibrating":2844,"Failed":2845,"SER":2846,"YSER":2847,"od":2848,"ood":2849,"apic":2850,"ĠCritical":2851,"-<*>.<*>.<*>-<*>.<*>.<*>.":2852,"ĠSYSER":2853,"Ġlapic":2854,"ĠGood":2855,"Ġspec":2856,"Processor":2857,"ĠSYSERR":2858,"Normal":2859,"Ġtry":2860,"Ġinput":2861,"ĠBY":2862,"bug":2863,"ffff":2864,"PC":2865,"*<*>":2866,"BD":2867,"hut":2868,"Ġ<*>*<*>":2869,"smp":2870,"ĠSkip":2871,"ĠShut":2872,"debug":2873,"portals":2874,"ĠOBD":2875,"Ġ#<*>#[<*>]:":2876,"ĠShutting":2877,"kill":2878,"killall":2879,"nfs":2880,"Ġpack":2881,"mounting":2882,"Ġpacket":2883,"TH":2884,"VPA":2885,"aug":2886,"kjournald":2887,"null":2888,"pology":2889,"ale":2890,"ĠCaug":2891,"Ġtopology":2892,"Ġstale":2893,"ĠDEVPA":2894,"registering":2895,"onse":2896,"Ġresponse":2897,"ĠCaught":2898,"ĠDEVPATH":2899,"Attached":2900,"RN":2901,"megaraid":2902,"scsi":2903,"WARN":2904,"Ġexceeded":2905,"mi":2906,"ĠAC":2907,"Ġstack":2908,"Ġ#<*>#@#<*>#'":2909,"onding":2910,"Ġmad":2911,"usted":2912,"Ġbring":2913,"Ġsyslog":2914,"IV":2915,"TIV":2916,"ified":2917,"outing":2918,"Ġgsi":2919,"file":2920,"Ġcmd":2921,"Ġinitrd":2922,"IOAPIC":2923,"Ġapic":2924,"ĠIOAPIC":2925,"Booting":2926,"ĠACTIV":2927,"ĠACTIVE":2928,"ĠWARN":2929,"ING":2930,"Ġspecified":2931,"ĠWARNING":2932,"pec":2933,"pected":2934,"->":2935,"audit":2936,"Ġhas":2937,"Ġmessages":2938,"LID":2939,"Ġstill":2940,"ermin":2941,"Ġsim":2942,"ilar":2943,"Ġprevious":2944,"Ġrelease":2945,"clean":2946,"ĠUnmounting":2947,"Ġskipped":2948,"Ġsimilar":2949,"Ġpreviously":2950,"cleanup":2951,"ĠDetec":2952,"ĠDetect":2953,"QL":2954,"SQL":2955,"db":2956,"dle":2957,"Ġ<*>;":2958,"install":2959,"Ġtermin":2960,"ĠIdle":2961,"ĠMySQL":2962,"ĠAuthentication":2963,"ĠROOT":2964,"Ġterminating":2965,"Ġping":2966,"Ġexpected":2967,"Ġtrying":2968,")[<*>]:":2969,"LA":2970,"eco":2971,"ix":2972,"osen":2973,"urnt":2974,"Ġreturnt":2975,"ect":2976,"upcall":2977,"ĠLBU":2978,"unix":2979,"Ġselect":2980,"osender":2981,"Ġreturntosender":2982,"ĠLBUG":2983,"resp":2984,"ĠCA":2985,"Ġeuid":2986,"Ġ<*>.<*>.<*>-<*>.":2987,"responding":2988,"Ġtick":2989,"Ġsome":2990,"ntab":2991,"crontab":2992,"ifup":2993,"Ġticks":2994,"OR":2995,"SCSI":2996,"Type":2997,"Vendor":2998,"ir":2999,"ook":3000,"Ġfloppy":3001,"Ġnetfilter":3002,"Ġhook":3003,"Ġcap":3004,"buildir":3005,"ILD":3006,"BUILD":3007,"Ġhooks":3008,"ĠRPC":3009,"iti":3010,"Ġioc":3011,"ED":3012,"Linux":3013,"NE":3014,"Total":3015,"detec":3016,"justed":3017,"oad":3018,"oib":3019,"sur":3020,"uffer":3021,"xt":3022,"Ġnfs":3023,"Ġpast":3024,"etting":3025,"ĠFOR":3026,"ĠAuto":3027,"Ġarr":3028,"esetting":3029,"eck":3030,"ĠBuffer":3031,"ays":3032,"logsur":3033,"ĠResetting":3034,"Ġcheck":3035,"Ġnext":3036,"ĠDONE":3037,"Ġadjusted":3038,"RAMDISK":3039,"ipoib":3040,"Ġpermi":3041,"detecting":3042,"ĠAutodetecting":3043,"Ġarrays":3044,"logsurfer":3045,"AL":3046,"BEL":3047,"GE":3048,"IA":3049,"IMA":3050,"OOT":3051,"af":3052,"cff":3053,"uz":3054,"vml":3055,"Ġ)'":3056,"inuz":3057,"Ġfast":3058,"Ġdadmin":3059,"ĠFRO":3060,"checking":3061,"Ġlustre":3062,"ĠFAIL":3063,"ĠNAL":3064,"ĠBOOT":3065,"Ġmem":3066,"imum":3067,"ĠRouting":3068,"initrd":3069,"Ġmaximum":3070,"mysqld":3071,"nfsd":3072,"LABEL":3073,"IMAGE":3074,"afb":3075,"vmlinuz":3076,"Ġfastboot":3077,"ĠFROM":3078,"ĠFAILED":3079,"back":3080,")']":3081,"mon":3082,"device":3083,"ĠMount":3084,"try":3085,"retry":3086,"ĠCould":3087,"Ġmore":3088,"netfs":3089,"LIN":3090,"TNET":3091,"reachable":3092,"Ġanswers":3093,"ĠFrom":3094,"Ġunreachable":3095,"ĠRTNET":3096,"ĠUDP":3097,"Ġ#<*>#:<*>'":3098,"LINK":3099,"ĠRTNETLINK":3100,"rg":3101,"ĠSO":3102,"disall":3103,"Ġrealm":3104,"Ġarg":3105,"ese":3106,"Ġthese":3107,"ĠThis":3108,"ĠPanasas":3109,"lastlog":3110,"callback":3111,"disallow":3112,"=-<*>":3113,"CK":3114,"RPC":3115,"[[":3116,"]]'":3117,"context":3118,"set":3119,"reate":3120,"Ġfp":3121,"Ġtclass":3122,"Ġtcontext":3123,"ump":3124,"objec":3125,"Ġcreate":3126,"Ġqueueup":3127,"->[[":3128,"ĠSOCK":3129,"=-<*>,":3130,"object":3131,"Ġout":3132,"ĠNode":3133,":<*>):":3134,"act":3135,"ging":3136,"tr":3137,"{<*>":3138,"ĠY":3139,"<*>(":3140,"attr":3141,"inas":3142,"chr":3143,"ĠPow":3144,"Ġseem":3145,"Ġthread":3146,"salinas":3147,"Ġgetattr":3148,"Ġoutput":3149,"{<*>}":3150,"ĠPower":3151,"KIL":3152,"kd":3153,"ication":3154,"Ġlockd":3155,"ification":3156,"nfslock":3157,"KILL":3158,"!!'":3159,"USB":3160,"gent":3161,"ment":3162,"ward":3163,"Ġunt":3164,"input":3165,"ote":3166,"ssed":3167,"viron":3168,"ĠAgent":3169,"Ġforward":3170,"change":3171,"ested":3172,"rootsmp":3173,"Ġunex":3174,"owing":3175,".']":3176,"Ġmounting":3177,"Ġexchange":3178,"Ġenviron":3179,"ĠIPv":3180,"Ġuntested":3181,"Ġforwarding":3182,"Ġenvironment":3183,"stable":3184,"ĠCall":3185,"Ġlon":3186,",/":3187,",<*>'":3188,"-#<*>#/":3189,"NO":3190,"SS":3191,"dump":3192,"failed":3193,"fcount":3194,"ffa":3195,"kport":3196,"run":3197,"ued":3198,"vok":3199,"ertion":3200,"stack":3201,"refcount":3202,"Ġfffff":3203,".<*>.<*>/":3204,"ername":3205,"decho":3206,"ĠInvok":3207,"assertion":3208,"ĠASS":3209,"Ġportals":3210,"Ġlctl":3211,"Ġ==":3212,"obdecho":3213,"Ġusername":3214,"Ġbad":3215,"Ġshowing":3216,"Ġupcall":3217,"ION":3218,"fff":3219,"queued":3220,"ERTION":3221,"NOTLB":3222,"dumpstack":3223,"kportal":3224,"Ġffffffff":3225,"ĠInvoked":3226,"ĠASSERTION":3227,"ify":3228,"verify":3229,"osing":3230,"und":3231,"Ġverification":3232,"biosverify":3233,"Ad":3234,"Copyright":3235,"DIT":3236,"FF":3237,"Freeing":3238,"Load":3239,"PW":3240,"RF":3241,"Ser":3242,"TCP":3243,"Un":3244,"hw":3245,"iform":3246,"nel":3247,"pyright":3248,"ton":3249,"Ġbi":3250,"Ġkn":3251,"err":3252,"inser":3253,"Ġtun":3254,"copyright":3255,"swb":3256,"anging":3257,"ĠEDIT":3258,"ortIn":3259,"ĠChanging":3260,"Ġinstable":3261,"ĠPortIn":3262,"ĠNS":3263,"ĠBut":3264,"Ġhog":3265,"untime":3266,"ssions":3267,"upts":3268,"Ġcontroller":3269,"ĠKey":3270,"Ġinterupts":3271,"stalling":3272,"fsd":3273,"Ġruntime":3274,"Ġkeyring":3275,"pressed":3276,"Real":3277,"Installing":3278,"Ġ<*>/<*>'":3279,":[<*>":3280,"IPv":3281,"Ġgoing":3282,"Ġspecial":3283,"mice":3284,"Ġpermissions":3285,"monad":3286,"Ġseems":3287,"Adding":3288,"Loading":3289,"PWRF":3290,"Serial":3291,"Uniform":3292,"neling":3293,"Ġknfsd":3294,"inserting":3295,"Ġtunneling":3296,"ĠPortInfo":3297,"ĠButton":3298,"Ġhogging":3299,"Ġcontrollers":3300,".\"":3301,"Sing":3302,"ĠLosing":3303,"Ġroute":3304,"Ġbit":3305,"Single":3306,");":3307,"-.":3308,".#<*>#":3309,"Built":3310,"Brought":3311,"Ch":3312,"Console":3313,"Capability":3314,"Detected":3315,"Memory":3316,"OS":3317,"On":3318,"Routing":3319,"Security":3320,"TIN":3321,"UMA":3322,"ag":3323,"arent":3324,"car":3325,"driver":3326,"fdis":3327,"final":3328,"gic":3329,"hid":3330,"keeping":3331,"load":3332,"mailed":3333,"mtrr":3334,"nation":3335,"rid":3336,"rusted":3337,"sel":3338,"tal":3339,"task":3340,"ertu":3341,"reset":3342,"Ġ(#<*>#@":3343,"-<*>-":3344,"-<*>[<*>]:":3345,"Ġtrusted":3346,"ssive":3347,"ĠCent":3348,"ĠCannot":3349,".<*>.<*>.":3350,"using":3351,"ĠDetected":3352,"ĠESM":3353,"ĠEcho":3354,"Ġves":3355,"Ġ<*>.<*>']":3356,"Ġincar":3357,"<*>))":3358,"Ġ-<*>'":3359,"ĠPDT":3360,"ased":3361,"Ġwrit":3362,"ĠNUMA":3363,"ĠBuild":3364,"Ġhad":3365,"Ġbrid":3366,"Ġbased":3367,"Ġunload":3368,"Ġmwa":3369,"Ġcpi":3370,"ogin":3371,"ISTIN":3372,"Ġtimekeeping":3373,"porting":3374,"Ġlooks":3375,"Ġisn":3376,"Ġ<*>.<*>.<*>-<*>.<*>.<*>.":3377,"sparent":3378,"ĠHID":3379,"Ġlike":3380,"Ġidle":3381,"ĠCompressed":3382,"Ġ#<*>#-<*>-":3383,"acceptor":3384,"Ġapertu":3385,"There":3386,"ĠJun":3387,"ĠMAIL":3388,"PRISTIN":3389,"Placing":3390,"vesafb":3391,"cfc":3392,"(<*>){<*>}":3393,"Ġmagic":3394,"Ġflag":3395,"ĠTransparent":3396,"Bootdata":3397,"ffffda":3398,"Ġpermissive":3399,"cffc":3400,"cffcfc":3401,"ĠMounted":3402,"ĠYour":3403,"Ġthreads":3404,"Ġunexporting":3405,".#<*>#.":3406,"Checking":3407,"drivers":3408,"fdisk":3409,"selinux":3410,"talogin":3411,"ĠCentOS":3412,"Ġvesafb":3413,"Ġincarnation":3414,"Ġwriting":3415,"Ġbridge":3416,"Ġunloaded":3417,"Ġmwait":3418,"Ġcpio":3419,"Ġaperture":3420,"PRISTINE":3421,"Ġflags":3422,"sock":3423,"ĠSee":3424,"Ġcommands":3425,"\".'":3426,"ANG":3427,"LIA":3428,"NS":3429,"pping":3430,"Ġgmetad":3431,"ĠSto":3432,"Ġ['":3433,"ĠDNS":3434,"ĠGANG":3435,"arp":3436,"Ġ<*>)']":3437,"Ġcall":3438,"#<*>#\".'":3439,"Ġinode":3440,"Ġlookup":3441,"Ġ\"#<*>#\".'":3442,"Ġevent":3443,"ĠStopping":3444,"ĠGANGLIA":3445,"IMM":3446,"gg":3447,"her":3448,"man":3449,"oss":3450,"oid":3451,"Ġestabl":3452,"Ġestablished":3453,"sted":3454,"orage":3455,"address":3456,"ible":3457,"other":3458,"Ġdet":3459,"elow":3460,"Ġanother":3461,"Ġsend":3462,"ails":3463,"listed":3464,"ĠDIMM":3465,"Ġstorage":3466,"icate":3467,"Ġcould":3468,"ĠPoss":3469,"ript":3470,"ests":3471,"Ġbelow":3472,"Ġcause":3473,"Ġsugg":3474,"Ġsucceed":3475,"ĠUmounting":3476,"unicate":3477,"Ġinterfaces":3478,"cluding":3479,"Ġbeen":3480,"Ġexcluded":3481,"ĠExcluding":3482,"Ġ#<*>#:<*>":3483,"Ġavoid":3484,"Ġcommunicate":3485,"Ġthat":3486,"Ġresponding":3487,"Ġlong":3488,"Ġestablish":3489,"Ġdetails":3490,"Ġsends":3491,"Ġcouldn":3492,"ĠPossible":3493,"Ġsuggests":3494,"ART":3495,"bff":3496,"name":3497,"su":3498,"trip":3499,"endm":3500,"Ġsendm":3501,"ĠATA":3502,"Ġportmap":3503,"Ġ-<*>).'":3504,"Ġuid":3505,"Ġcont":3506,"itor":3507,"itoring":3508,"portmap":3509,"Ġnear":3510,"Ġrhost":3511,"Ġruser":3512,"ĠSMART":3513,"acity":3514,"ĠMonitoring":3515,"Ġlogname":3516,"LOGIN":3517,"ĠPAM":3518,"ĠRemote":3519,"Ġcapable":3520,"Ġcapacity":3521,"monitor":3522,"errno":3523,"Ġsendmsg":3524,"Ġcontact":3525,"&<*>)'":3526,"={":3527,"PT":3528,"Target":3529,"VOT":3530,"fm":3531,"gro":3532,"wRe":3533,"}'":3534,"Ġdon":3535,"Ġ(/":3536,"Ġ(#<*>#":3537,"iliti":3538,"ĠCapab":3539,"usion":3540,"ĠFwRe":3541,"ĠFusion":3542,"ĠIniti":3543,"Ġfork":3544,"Ġinto":3545,"ĠPorts":3546,"ĠMax":3547,"ĠMPT":3548,"ĠNew":3549,"=<*>.'":3550,"Ġrate":3551,"script":3552,"escing":3553,"Ġbackgro":3554,"Ġquiescing":3555,"Initi":3556,"Ġmptbase":3557,"Ġ<*>>&<*>)'":3558,"ĠRPCs":3559,"VOTD":3560,"Ġdone":3561,"Ġ(#<*>#)":3562,"ilities":3563,"ĠCapabilities":3564,"ĠFwRev":3565,"ĠInitiating":3566,"ĠMaxQ":3567,"Ġbackground":3568,"Initiator":3569,")\"":3570,"arc":3571,"active":3572,"cap":3573,"rub":3574,"sact":3575,"Ġcustom":3576,"aned":3577,"cell":3578,"Ġgid":3579,"Ġinactive":3580,"ĠRE":3581,"Ġorph":3582,"Ġscrub":3583,"Ġ#<*>#.'":3584,"ĠClearing":3585,"Ġcancell":3586,"ransact":3587,"Ġcaps":3588,"arch":3589,"Ġorphaned":3590,"Ġcancelled":3591,"ransaction":3592,"TY":3593,"ĠTTY":3594,"'\"]":3595,"SH":3596,"aon":3597,"dia":3598,"ient":3599,"mote":3600,"Ġsaon":3601,"<*>/<*>'":3602,"ĠSSH":3603,"Ġreset":3604,"Ġremote":3605,"icient":3606,"omdia":3607,"Ġcritical":3608,"Ġconnec":3609,"Ġ<*>.']":3610,"Ġlater":3611,"fficient":3612,"Insu":3613,"Ġagain":3614,"omdiag":3615,"Ġconnecting":3616,"Insufficient":3617,"[]:":3618,"aim":3619,"tec":3620,"recl":3621,"Ġmin":3622,"unrecl":3623,"Ġprotec":3624,"anned":3625,"scanned":3626,"aimable":3627,"unreclaimable":3628,"Ġprotections":3629,"/<*>/<*>'":3630,"='":3631,"CE":3632,"Key":3633,"LI":3634,"PLA":3635,"bf":3636,"cn":3637,"ipe":3638,"lin":3639,"pack":3640,"sul":3641,"sarp":3642,"rewrite":3643,"ancy":3644,"Ġtransaction":3645,"ĠCLI":3646,"Ġpipe":3647,"Ġresul":3648,"<*>){<*>}":3649,"customize":3650,"ĠBroken":3651,"Ġsearch":3652,":<*>\"":3653,":<*>:<*>:<*>\"":3654,"Ġ<*>:<*>:<*>:<*>:<*>:<*>\"":3655,"Ġioctl":3656,"ulp":3657,".'\"]":3658,"ROR":3659,"ĠYou":3660,"Ġlonger":3661,"undancy":3662,"ĠREPLA":3663,"bfca":3664,"cnf":3665,"linpack":3666,"Ġresulted":3667,"ĠREPLACE":3668,"Ġadd":3669,"/#<*>#":3670,"Mem":3671,"ND":3672,"from":3673,"Ġ]'":3674,"Ġfatal":3675,"Ġdump":3676,"ceive":3677,"Ġts":3678,"ĠFree":3679,"ĠInval":3680,"Ġauth":3681,"ERROR":3682,"upply":3683,"Ġdelaying":3684,"ighMem":3685,"Ġ<*>).'":3686,"Ġinitialization":3687,"Ġsubprocess":3688,"ĠHighMem":3689,"Ġlogging":3690,"ĠRedundancy":3691,"PAM":3692,"Ġunexpected":3693,"ĠInvalid":3694,"Ġauths":3695,"[\"":3696,"ared":3697,"critical":3698,"Administrator":3699,"Authentic":3700,"CR":3701,"HO":3702,"MMA":3703,"OMMA":3704,"PON":3705,"SE":3706,"SPON":3707,"WD":3708,"__":3709,"_#<*>#":3710,"ak":3711,"bd":3712,"bre":3713,"earch":3714,"for":3715,"kbd":3716,"mup":3717,"password":3718,"test":3719,"transaction":3720,"uter":3721,"ving":3722,"war":3723,"Ġ.":3724,"Ġ.'":3725,"Ġ__":3726,"atkbd":3727,"stress":3728,"Ġ'#<*>#":3729,"Ġfull":3730,"ence":3731,"ench":3732,"isation":3733,"ĠCOMMA":3734,"entification":3735,"ĠSupply":3736,"ĠSearch":3737,"Ġtoo":3738,"ĠDid":3739,"orted":3740,"Ġstop":3741,"Ġrefer":3742,"Ġreports":3743,"Ġreceive":3744,"ĠPWD":3745,"ĠNO":3746,"Ġsynchronisation":3747,"Ġstring":3748,"Ġusers":3749,"Ġoption":3750,"=<*>:'":3751,"ows":3752,"Ġcd":3753,"Ġrouter":3754,"Ġpressed":3755,"connect":3756,"ĠHCR":3757,"ĠOSC":3758,"Ġkeys":3759,"Ġidentification":3760,"Ġcleanup":3761,"Ġbusy":3762,"indows":3763,"://#<*>#":3764,"ĠWindows":3765,"ĠJournal":3766,"Ġrequested":3767,"ĠDaemon":3768,"ECHO":3769,"Ġaborted":3770,"mysqladmin":3771,"ĠSkipping":3772,"Ġargument":3773,"ĠKeyboard":3774,"Ġcustomization":3775,"ĠRESPON":3776,"Authentication":3777,"_#<*>#_":3778,"akfix":3779,"breakfix":3780,"force":3781,"testing":3782,"warmup":3783,"Ġ'#<*>#[<*>]:":3784,"ences":3785,"ĠCOMMAND":3786,"ĠSearching":3787,"Ġreferences":3788,"Ġrouters":3789,"://#<*>#'":3790,"ĠRESPONSE":3791,"+<*>'":3792,":']":3793,"aget":3794,"cp":3795,"rty":3796,"wap":3797,"Ġempt":3798,"Ġ<*>+<*>'":3799,"Ġpaget":3800,"ĠSwap":3801,"Ġdirty":3802,"Ġunstable":3803,"Ġshared":3804,"Ġslab":3805,"Ġrace":3806,"Ġwriteback":3807,"Ġ<*>:<*>,":3808,"Ġ<*>/<*>,":3809,"Ġmapped":3810,"Ġdelete":3811,"Ġ#<*>#:<*>\"":3812,"cpu":3813,"Ġempty":3814,"Ġpagetables":3815,"\"]":3816,"+<*>/<*>'":3817,":\"":3818,"=<<*>>":3819,"AT":3820,"BS":3821,"CO":3822,"CMD":3823,"Dis":3824,"DCO":3825,"EAS":3826,"EMB":3827,"Failure":3828,"GUID":3829,"HE":3830,"HW":3831,"IF":3832,"Im":3833,"ILB":3834,"Losing":3835,"LEAS":3836,"Net":3837,"OX":3838,"ORD":3839,"RROR":3840,"SSW":3841,"UT":3842,"VOR":3843,"XHH":3844,"Your":3845,"ave":3846,"bench":3847,"cv":3848,"cast":3849,"do":3850,"dcdbas":3851,"dundancy":3852,"fter":3853,"iving":3854,"ks":3855,"lace":3856,"leted":3857,"mar":3858,"mand":3859,"ode":3860,"oll":3861,"pm":3862,"plic":3863,"pared":3864,"qpm":3865,"rint":3866,"rply":3867,"server":3868,"tting":3869,"ual":3870,"warning":3871,"wall":3872,"ying":3873,"Ġ`":3874,"Ġhel":3875,"Ġob":3876,"Ġright":3877,"ines":3878,"inode":3879,"resen":3880,"remov":3881,"adcast":3882,"Ġfoll":3883,"routing":3884,"roadcast":3885,"ems":3886,"Ġ(<*>,":3887,"elem":3888,"Ġdatabase":3889,"Ġnam":3890,"Ġtbird":3891,"Ġspin":3892,"Ġsup":3893,"Ġsupply":3894,"ĠTO":3895,"ĠTermin":3896,"ĠTHE":3897,"ssue":3898,"ĠCan":3899,"Ġplace":3900,"Ġprint":3901,"ĠSET":3902,"litting":3903,"Ġtoken":3904,"Ġgiving":3905,"ĠFailure":3906,"ĠFill":3907,"ĠEND":3908,"ĠERROR":3909,"ĠARM":3910,"atest":3911,"Ġreceived":3912,"Ġrecv":3913,"Ġredundancy":3914,"Ġafter":3915,"Ġlink":3916,"Ġlines":3917,"Ġlatest":3918,"Ġcopy":3919,"ecified":3920,"Ġinstruct":3921,"Ġ(<*>),":3922,"opt":3923,"ars":3924,"files":3925,"TAVOR":3926,"ĠPlease":3927,"ĠPLEAS":3928,"ĠPresen":3929,"Ġwall":3930,"ĠSystemIm":3931,"Ġhome":3932,"Ġhave":3933,"Ġboot":3934,"Ġbench":3935,"Ġbroadcast":3936,"Ġunit":3937,"ĠKill":3938,"Ġ[<*>]']":3939,"ĠREM":3940,"itted":3941,"Ġchassis":3942,"Ġchdi":3943,"Ġchars":3944,"ĠInstalling":3945,"Ġfreeing":3946,"ftirq":3947,"ĠReceive":3948,"Ġmysql":3949,"unsp":3950,"exit":3951,"Ġsetsock":3952,"Ġissue":3953,"Ġdrivers":3954,"Ġscript":3955,"Ġprobl":3956,"Ġ<*>.<*>.<*>']":3957,"Ġcommit":3958,"Ġtftpboot":3959,"MPT":3960,"MPAT":3961,"Ġprepared":3962,"ageGUID":3963,"ĠOut":3964,"ĠOUT":3965,"solete":3966,"softirq":3967,"ĠStatus":3968,"committed":3969,"ĠCommand":3970,"Ġcompleted":3971,"Ġapplic":3972,"Ġinstalling":3973,"ĠDisconnect":3974,"Ġbuying":3975,"Ġthen":3976,"Ġmanual":3977,"Ġweb":3978,"Ġhttps":3979,"ĠMAILB":3980,"ĠThe":3981,"ĠPASSW":3982,"ĠRemoving":3983,"licenses":3984,"Ġabout":3985,"Ġsplitting":3986,"mysqlbug":3987,"Ġcallback":3988,"/#<*>#:":3989,"BSDCO":3990,"Disconnect":3991,"EMBER":3992,"marks":3993,"Ġhelp":3994,"Ġobsolete":3995,"remove":3996,"Ġfollowing":3997,"Ġ(<*>,<*>),":3998,"Ġspine":3999,"Ġsuppressed":4000,"ĠTerminated":4001,"Ġprintk":4002,"ĠARMED":4003,"Ġinstructions":4004,"ĠPLEASE":4005,"ĠPresence":4006,"ĠSystemImageGUID":4007,"Ġbenchmarks":4008,"Ġbroadcasted":4009,"ĠKilled":4010,"ĠREMEMBER":4011,"Ġchdir":4012,"Ġmysqld":4013,"unspecified":4014,"Ġsetsockopt":4015,"Ġproblems":4016,"Ġapplication":4017,"ĠMAILBOX":4018,"ĠPASSWORD":4019,"BSDCOMPAT":4020,"--":4021,"osi":4022,"Ġ<*>.":4023,"ĠTim":4024,"Ġhotplug":4025,":<*>,":4026,"['--":4027,"ĠRebas":4028,"=<*>']":4029,"hald":4030,"...']":4031,"Ġallocation":4032,"Ġallocate":4033,"Ġwaiting":4034,"\")']":4035,"Ġbiosi":4036,"ĠTimed":4037,"ĠRebasing":4038,"Ġbiosie":4039}