{
  "version": "1.0",
  "truncation": null,
  "padding": null,
  "added_tokens": [
    {
      "id": 0,
      "content": "<s>",
      "single_word": false,
      "lstrip": false,
      "rstrip": false,
      "normalized": true,
      "special": true
    },
    {
      "id": 1,
      "content": "<pad>",
      "single_word": false,
      "lstrip": false,
      "rstrip": false,
      "normalized": true,
      "special": true
    },
    {
      "id": 2,
      "content": "</s>",
      "single_word": false,
      "lstrip": false,
      "rstrip": false,
      "normalized": true,
      "special": true
    },
    {
      "id": 3,
      "content": "<unk>",
      "single_word": false,
      "lstrip": false,
      "rstrip": false,
      "normalized": true,
      "special": true
    },
    {
      "id": 4,
      "content": "<mask>",
      "single_word": false,
      "lstrip": true,
      "rstrip": false,
      "normalized": true,
      "special": true
    }
  ],
  "normalizer": null,
  "pre_tokenizer": {
    "type": "ByteLevel",
    "add_prefix_space": false,
    "trim_offsets": true,
    "use_regex": true
  },
  "post_processor": {
    "type": "RobertaProcessing",
    "sep": [
      "</s>",
      2
    ],
    "cls": [
      "<s>",
      0
    ],
    "trim_offsets": true,
    "add_prefix_space": false
  },
  "decoder": {
    "type": "ByteLevel",
    "add_prefix_space": true,
    "trim_offsets": true,
    "use_regex": true
  },
  "model": {
    "type": "BPE",
    "dropout": null,
    "unk_token": null,
    "continuing_subword_prefix": "",
    "end_of_word_suffix": "",
    "fuse_unk": false,
    "byte_fallback": false,
    "vocab": {
      "<s>": 0,
      "<pad>": 1,
      "</s>": 2,
      "<unk>": 3,
      "<mask>": 4,
      "!": 5,
      "\"": 6,
      "#": 7,
      "$": 8,
      "%": 9,
      "&": 10,
      "'": 11,
      "(": 12,
      ")": 13,
      "*": 14,
      "+": 15,
      ",": 16,
      "-": 17,
      ".": 18,
      "/": 19,
      "0": 20,
      "1": 21,
      "2": 22,
      "3": 23,
      "4": 24,
      "5": 25,
      "6": 26,
      "7": 27,
      "8": 28,
      "9": 29,
      ":": 30,
      ";": 31,
      "<": 32,
      "=": 33,
      ">": 34,
      "?": 35,
      "@": 36,
      "A": 37,
      "B": 38,
      "C": 39,
      "D": 40,
      "E": 41,
      "F": 42,
      "G": 43,
      "H": 44,
      "I": 45,
      "J": 46,
      "K": 47,
      "L": 48,
      "M": 49,
      "N": 50,
      "O": 51,
      "P": 52,
      "Q": 53,
      "R": 54,
      "S": 55,
      "T": 56,
      "U": 57,
      "V": 58,
      "W": 59,
      "X": 60,
      "Y": 61,
      "Z": 62,
      "[": 63,
      "\\": 64,
      "]": 65,
      "^": 66,
      "_": 67,
      "`": 68,
      "a": 69,
      "b": 70,
      "c": 71,
      "d": 72,
      "e": 73,
      "f": 74,
      "g": 75,
      "h": 76,
      "i": 77,
      "j": 78,
      "k": 79,
      "l": 80,
      "m": 81,
      "n": 82,
      "o": 83,
      "p": 84,
      "q": 85,
      "r": 86,
      "s": 87,
      "t": 88,
      "u": 89,
      "v": 90,
      "w": 91,
      "x": 92,
      "y": 93,
      "z": 94,
      "{": 95,
      "|": 96,
      "}": 97,
      "~": 98,
      "¡": 99,
      "¢": 100,
      "£": 101,
      "¤": 102,
      "¥": 103,
      "¦": 104,
      "§": 105,
      "¨": 106,
      "©": 107,
      "ª": 108,
      "«": 109,
      "¬": 110,
      "®": 111,
      "¯": 112,
      "°": 113,
      "±": 114,
      "²": 115,
      "³": 116,
      "´": 117,
      "µ": 118,
      "¶": 119,
      "·": 120,
      "¸": 121,
      "¹": 122,
      "º": 123,
      "»": 124,
      "¼": 125,
      "½": 126,
      "¾": 127,
      "¿": 128,
      "À": 129,
      "Á": 130,
      "Â": 131,
      "Ã": 132,
      "Ä": 133,
      "Å": 134,
      "Æ": 135,
      "Ç": 136,
      "È": 137,
      "É": 138,
      "Ê": 139,
      "Ë": 140,
      "Ì": 141,
      "Í": 142,
      "Î": 143,
      "Ï": 144,
      "Ð": 145,
      "Ñ": 146,
      "Ò": 147,
      "Ó": 148,
      "Ô": 149,
      "Õ": 150,
      "Ö": 151,
      "×": 152,
      "Ø": 153,
      "Ù": 154,
      "Ú": 155,
      "Û": 156,
      "Ü": 157,
      "Ý": 158,
      "Þ": 159,
      "ß": 160,
      "à": 161,
      "á": 162,
      "â": 163,
      "ã": 164,
      "ä": 165,
      "å": 166,
      "æ": 167,
      "ç": 168,
      "è": 169,
      "é": 170,
      "ê": 171,
      "ë": 172,
      "ì": 173,
      "í": 174,
      "î": 175,
      "ï": 176,
      "ð": 177,
      "ñ": 178,
      "ò": 179,
      "ó": 180,
      "ô": 181,
      "õ": 182,
      "ö": 183,
      "÷": 184,
      "ø": 185,
      "ù": 186,
      "ú": 187,
      "û": 188,
      "ü": 189,
      "ý": 190,
      "þ": 191,
      "ÿ": 192,
      "Ā": 193,
      "ā": 194,
      "Ă": 195,
      "ă": 196,
      "Ą": 197,
      "ą": 198,
      "Ć": 199,
      "ć": 200,
      "Ĉ": 201,
      "ĉ": 202,
      "Ċ": 203,
      "ċ": 204,
      "Č": 205,
      "č": 206,
      "Ď": 207,
      "ď": 208,
      "Đ": 209,
      "đ": 210,
      "Ē": 211,
      "ē": 212,
      "Ĕ": 213,
      "ĕ": 214,
      "Ė": 215,
      "ė": 216,
      "Ę": 217,
      "ę": 218,
      "Ě": 219,
      "ě": 220,
      "Ĝ": 221,
      "ĝ": 222,
      "Ğ": 223,
      "ğ": 224,
      "Ġ": 225,
      "ġ": 226,
      "Ģ": 227,
      "ģ": 228,
      "Ĥ": 229,
      "ĥ": 230,
      "Ħ": 231,
      "ħ": 232,
      "Ĩ": 233,
      "ĩ": 234,
      "Ī": 235,
      "ī": 236,
      "Ĭ": 237,
      "ĭ": 238,
      "Į": 239,
      "į": 240,
      "İ": 241,
      "ı": 242,
      "Ĳ": 243,
      "ĳ": 244,
      "Ĵ": 245,
      "ĵ": 246,
      "Ķ": 247,
      "ķ": 248,
      "ĸ": 249,
      "Ĺ": 250,
      "ĺ": 251,
      "Ļ": 252,
      "ļ": 253,
      "Ľ": 254,
      "ľ": 255,
      "Ŀ": 256,
      "ŀ": 257,
      "Ł": 258,
      "ł": 259,
      "Ń": 260,
      "*>": 261,
      "<*>": 262,
      "Ġ<*>": 263,
      "Ġ'": 264,
      "er": 265,
      "at": 266,
      "st": 267,
      "or": 268,
      "in": 269,
      "<*>]": 270,
      "ad": 271,
      "re": 272,
      "<*>]:": 273,
      "Ġf": 274,
      ".<*>": 275,
      "ro": 276,
      "ib": 277,
      "en": 278,
      "[<*>]:": 279,
      "an": 280,
      "em": 281,
      "ata": 282,
      "Ġ<*>,": 283,
      "ot": 284,
      "ce": 285,
      "Ġd": 286,
      "Ġ(": 287,
      "on": 288,
      "ap": 289,
      "ed": 290,
      "el": 291,
      "Ġ<*>'": 292,
      "-<*>": 293,
      "ps": 294,
      "Ġdata": 295,
      "Ġan": 296,
      "al": 297,
      "Ġn": 298,
      "Ġt": 299,
      "Ġs": 300,
      "ĠT": 301,
      "il": 302,
      "mad": 303,
      "rom": 304,
      "Ġfrom": 305,
      "sm": 306,
      "<*>_": 307,
      "ur": 308,
      "ss": 309,
      "is": 310,
      "ĠC": 311,
      "cf": 312,
      "80": 313,
      "ent": 314,
      "emp": 315,
      "ĠTemp": 316,
      "ens": 317,
      "ensor": 318,
      "co": 319,
      "atu": 320,
      "str": 321,
      "ail": 322,
      "Ġp": 323,
      "sy": 324,
      ".<*>.<*>": 325,
      "<*>/": 326,
      "ion": 327,
      "-<*>.<*>.<*>": 328,
      "apps": 329,
      "ailed": 330,
      "stem": 331,
      "sw": 332,
      "vi": 333,
      "ver": 334,
      "fd": 335,
      "ern": 336,
      "ernel": 337,
      "kernel": 338,
      "ĠS": 339,
      "ation": 340,
      "eratu": 341,
      "ĠTemperatu": 342,
      "ĠTemperature": 343,
      "Ġsensor": 344,
      "et": 345,
      "Ġ[": 346,
      "us": 347,
      "ĠI": 348,
      "de": 349,
      "ts": 350,
      "li": 351,
      "Ġto": 352,
      "ang": 353,
      "77": 354,
      "th": 355,
      "bin": 356,
      "system": 357,
      "gm": 358,
      "sbin": 359,
      "our": 360,
      "etad": 361,
      "gmetad": 362,
      "Ġnot": 363,
      "<*>_<*>/": 364,
      "gang": 365,
      "-<*>.<*>.<*>/": 366,
      "lia": 367,
      "ganglia": 368,
      "read": 369,
      "Ġ'/": 370,
      "ource": 371,
      "Ġg": 372,
      "source": 373,
      "()": 374,
      "Ġansw": 375,
      "Ġanswer": 376,
      "Ġgot": 377,
      "Ġany": 378,
      "980": 379,
      "Ġdatasource": 380,
      "thread": 381,
      "ĠF": 382,
      "ĠD": 383,
      "ĠIn": 384,
      "oc": 385,
      "vice": 386,
      "ass": 387,
      "ini": 388,
      "ĠE": 389,
      "ĠDe": 390,
      "):": 391,
      "ror": 392,
      "pd": 393,
      "ĠA": 394,
      "ue": 395,
      "Ġv": 396,
      "alue": 397,
      "Ġvalue": 398,
      "nt": 399,
      "um": 400,
      "dis": 401,
      "ort": 402,
      "Ġport": 403,
      "ost": 404,
      "Ġst": 405,
      "ate": 406,
      "fa": 407,
      ")'": 408,
      "rc": 409,
      "pin": 410,
      ":<*>]:": 411,
      "Ġre": 412,
      "Ġstate": 413,
      "to": 414,
      "Ġfailed": 415,
      "pro": 416,
      "pspin": 417,
      "src": 418,
      "topspin": 419,
      "][": 420,
      "ic": 421,
      "Ġfor": 422,
      "Ġa": 423,
      "Ġret": 424,
      "ch": 425,
      "ĠFailed": 426,
      "cover": 427,
      "urn": 428,
      "Ġreturn": 429,
      "Ġl": 430,
      "dm": 431,
      "es": 432,
      "si": 433,
      "Ġon": 434,
      "elsi": 435,
      "ĠCelsi": 436,
      "ĠCelsius": 437,
      "ĠG": 438,
      "sn": 439,
      "ID": 440,
      "Ġ<*>.<*>": 441,
      "erver": 442,
      "rap": 443,
      "72": 444,
      "ator": 445,
      "strator": 446,
      "inistrator": 447,
      "dministrator": 448,
      "ĠAdministrator": 449,
      "Ġtrap": 450,
      "mpd": 451,
      "snmpd": 452,
      "ĠSer": 453,
      "bcf": 454,
      "vent": 455,
      "ument": 456,
      "strument": 457,
      "ĠInstrument": 458,
      "ĠEvent": 459,
      "ĠService": 460,
      "ĠInstrumentation": 461,
      "ĠEventID": 462,
      "Server": 463,
      "Ġloc": 464,
      "eer": 465,
      "Ġpeer": 466,
      "ĠCh": 467,
      "Ġ<*>.<*>'": 468,
      "Ġfd": 469,
      "assis": 470,
      "ĠChassis": 471,
      "gre": 472,
      "ĠDegre": 473,
      "ĠDegrees": 474,
      "Ġlocation": 475,
      "ĠGot": 476,
      "Ġco": 477,
      "Ġer": 478,
      "Ġerror": 479,
      "Ġcode": 480,
      "pat": 481,
      "19": 482,
      "Ġno": 483,
      "Ġnode": 484,
      "covery": 485,
      "fb": 486,
      "discovery": 487,
      "am": 488,
      "cl": 489,
      "ec": 490,
      "Ġin": 491,
      "<*>)": 492,
      "host": 493,
      "ter": 494,
      "ing": 495,
      "ER": 496,
      "Ġ(<*>)": 497,
      "sys": 498,
      "om": 499,
      "ocal": 500,
      "Ġ=": 501,
      "id": 502,
      "class": 503,
      "ĠDevice": 504,
      "29": 505,
      "hel": 506,
      "13": 507,
      "rop": 508,
      "op": 509,
      "cess": 510,
      "34": 511,
      "<*>):": 512,
      "EL": 513,
      "ob": 514,
      "ar": 515,
      "Host": 516,
      "Ġ<*>)'": 517,
      "Local": 518,
      "rhel": 519,
      "amd": 520,
      "(<*>):": 521,
      "ust": 522,
      "HH": 523,
      "ĠTHH": 524,
      "fil": 525,
      "jec": 526,
      "filter": 527,
      "cust": 528,
      "custom": 529,
      "-<*>.<*>.<*>-<*>": 530,
      "mnt": 531,
      "projec": 532,
      "sysapps": 533,
      "obj": 534,
      "-<*>.<*>.<*>-<*>/": 535,
      "projects": 536,
      "fini": 537,
      "finiHost": 538,
      "TA": 539,
      "IB": 540,
      "ĠInfiniHost": 541,
      "ng": 542,
      "hic": 543,
      "519": 544,
      "344": 545,
      "cff": 546,
      "ĠFA": 547,
      "TAL": 548,
      "ĠFATAL": 549,
      "rror": 550,
      "ĠError": 551,
      "process": 552,
      "Ġ-<*>": 553,
      "atal": 554,
      "))'": 555,
      "Fatal": 556,
      "strop": 557,
      "atastrop": 558,
      "ĠCatastrop": 559,
      "ĠCatastrophic": 560,
      ":<*>]": 561,
      "][/": 562,
      "KER": 563,
      "NEL": 564,
      "PN": 565,
      "QPN": 566,
      "ĠQPN": 567,
      "api": 568,
      "dispat": 569,
      "fafa": 570,
      "Ġaid": 571,
      "KERNEL": 572,
      "dispatch": 573,
      "ĠP": 574,
      "ri": 575,
      "as": 576,
      "ĠM": 577,
      "Ġw": 578,
      "ĠN": 579,
      "ca": 580,
      "ning": 581,
      "ĠB": 582,
      "ain": 583,
      "64": 584,
      "arning": 585,
      "ee": 586,
      "35": 587,
      "Ġwas": 588,
      "ystem": 589,
      "ĠSystem": 590,
      "rit": 591,
      "orm": 592,
      "ical": 593,
      "Warning": 594,
      "ous": 595,
      "Ġreturned": 596,
      "revi": 597,
      "revious": 598,
      "6435": 599,
      "ĠPrevious": 600,
      "ĠMain": 601,
      "bi": 602,
      "ormal": 603,
      "MC": 604,
      "ĠSensor": 605,
      "ĠBMC": 606,
      "ritical": 607,
      "Ġnormal": 608,
      "Critical": 609,
      "ffb": 610,
      "mbi": 611,
      "ĠAmbi": 612,
      "ĠNon": 613,
      "ĠAmbient": 614,
      "eep": 615,
      "ron": 616,
      "sweep": 617,
      "ntpd": 618,
      "iz": 619,
      "Ġsy": 620,
      "Ġsyn": 621,
      "ized": 622,
      "chron": 623,
      "Ġsynchron": 624,
      "180": 625,
      "Ġstr": 626,
      "atum": 627,
      "Ġsynchronized": 628,
      "1800": 629,
      "Ġstratum": 630,
      "Ġ-": 631,
      "ct": 632,
      "40": 633,
      "be": 634,
      "Ġdi": 635,
      "Ġh": 636,
      "16": 637,
      "rect": 638,
      "Ġdirect": 639,
      "est": 640,
      "39": 641,
      "unt": 642,
      "Ġdis": 643,
      "10": 644,
      "49": 645,
      "Ġdiscover": 646,
      "4016": 647,
      "107": 648,
      "count": 649,
      "Ġhop": 650,
      "809": 651,
      "path": 652,
      "num": 653,
      "Ġtest": 654,
      "75": 655,
      "Ġ'<*>": 656,
      "Ġus": 657,
      "Ġse": 658,
      "ssion": 659,
      "Ġuser": 660,
      "Ġsession": 661,
      "Ġb": 662,
      "Ġby": 663,
      "52": 664,
      "Ġop": 665,
      "<*>'": 666,
      "Ġopen": 667,
      "fbc": 668,
      "Ġopened": 669,
      "ece": 670,
      "cea": 671,
      "ececea": 672,
      "hd": 673,
      "sshd": 674,
      "86": 675,
      "cc": 676,
      "sh": 677,
      "486": 678,
      "Ġssh": 679,
      "83": 680,
      "750": 681,
      "8375": 682,
      "=<*>": 683,
      "Ġu": 684,
      "ac": 685,
      "root": 686,
      "ba": 687,
      "53": 688,
      ":<*>": 689,
      "ĠIB": 690,
      "CP": 691,
      "bc": 692,
      "ĠIN": 693,
      "IT": 694,
      "ĠINIT": 695,
      "197": 696,
      "bae": 697,
      "art": 698,
      "ay": 699,
      "18": 700,
      "Ġun": 701,
      "=<*>,": 702,
      "up": 703,
      "ow": 704,
      "63": 705,
      "le": 706,
      "12": 707,
      "sen": 708,
      "dmail": 709,
      "sendmail": 710,
      "hc": 711,
      "['": 712,
      "dhc": 713,
      "eth": 714,
      "dhcpd": 715,
      "Ġeth": 716,
      "Ġm": 717,
      "Ġvi": 718,
      "Ġvia": 719,
      "own": 720,
      "Ġcl": 721,
      ".'": 722,
      "Ġsu": 723,
      "os": 724,
      "Ġclos": 725,
      "Ġclosed": 726,
      "og": 727,
      "ile": 728,
      "fi": 729,
      "818": 730,
      "ab": 731,
      "']": 732,
      "ame": 733,
      "56": 734,
      "Ġname": 735,
      "Ġc": 736,
      "lay": 737,
      "HCP": 738,
      "ĠDHCP": 739,
      "05": 740,
      "cce": 741,
      "636": 742,
      "1256": 743,
      "1256636": 744,
      "ef": 745,
      ":<*>:<*>": 746,
      "<*>:": 747,
      "log": 748,
      "ick": 749,
      "MD": 750,
      "57": 751,
      "cron": 752,
      "crond": 753,
      "Ġfile": 754,
      "ĠCMD": 755,
      "im": 756,
      "CPI": 757,
      "ĠACPI": 758,
      "tion": 759,
      "eas": 760,
      "qu": 761,
      "ger": 762,
      "able": 763,
      "eded": 764,
      "Ġsucce": 765,
      "Ġsucceeded": 766,
      "Ġleas": 767,
      "onn": 768,
      "onnec": 769,
      "logger": 770,
      "Ġtim": 771,
      "start": 772,
      "84": 773,
      "ĠK": 774,
      "09": 775,
      "elay": 776,
      "22": 777,
      "ickstart": 778,
      "ĠKickstart": 779,
      "Ġ[<*>]": 780,
      "kn": 781,
      "Ġrelay": 782,
      "=<*>:<*>:<*>": 783,
      "=<*>:<*>:<*>,": 784,
      "ali": 785,
      "quali": 786,
      "ctl": 787,
      "known": 788,
      "aa": 789,
      "onnection": 790,
      "Ġunknown": 791,
      "CI": 792,
      "IS": 793,
      "cd": 794,
      "OV": 795,
      "ĠPCI": 796,
      "DIS": 797,
      "ĠL": 798,
      "wor": 799,
      "da": 800,
      "COV": 801,
      "ĠDHCPDIS": 802,
      "COVER": 803,
      "ĠDHCPDISCOVER": 804,
      "ĠR": 805,
      "all": 806,
      "46": 807,
      "Ġunable": 808,
      "it": 809,
      "58": 810,
      "dc": 811,
      "xin": 812,
      "etd": 813,
      "xinetd": 814,
      "#<*>": 815,
      "62": 816,
      "work": 817,
      "etwork": 818,
      "ig": 819,
      "Ġinter": 820,
      "Ġsh": 821,
      "06": 822,
      "68": 823,
      "stall": 824,
      "#<*>#": 825,
      "post": 826,
      "91": 827,
      "Ġpri": 828,
      "Ġfre": 829,
      "Ġtime": 830,
      "pdate": 831,
      "Ġch": 832,
      "Ġ/": 833,
      "Ġstart": 834,
      "ĠInstall": 835,
      "11": 836,
      "87": 837,
      "ĠU": 838,
      "Ġ--": 839,
      "03": 840,
      "Ġ->": 841,
      "Ġleases": 842,
      "Ġnetwork": 843,
      "69": 844,
      "Ġusing": 845,
      "ff": 846,
      "Ġfree": 847,
      "0962": 848,
      "096205": 849,
      "27": 850,
      "[<*>]": 851,
      "ĠConnection": 852,
      "dev": 853,
      "ST": 854,
      "81": 855,
      "Ġchang": 856,
      "add": 857,
      "artd": 858,
      "ub": 859,
      "99": 860,
      "RE": 861,
      "#<*>#@": 862,
      "ast": 863,
      "Ġor": 864,
      "ist": 865,
      "51": 866,
      "92": 867,
      "fix": 868,
      "used": 869,
      "Ġo": 870,
      "addr": 871,
      "smartd": 872,
      "EST": 873,
      "QU": 874,
      "ĠDHCPRE": 875,
      "QUEST": 876,
      "ĠDHCPREQUEST": 877,
      "fc": 878,
      "local": 879,
      "red": 880,
      ".<*>.<*>,": 881,
      "omain": 882,
      "Ġlast": 883,
      "fs": 884,
      "mo": 885,
      "ry": 886,
      "Ġstartup": 887,
      "ping": 888,
      "ize": 889,
      "Ġsize": 890,
      "ory": 891,
      "ond": 892,
      "Ġdelay": 893,
      "705": 894,
      "sda": 895,
      "port": 896,
      "SI": 897,
      "Ġup": 898,
      "RQ": 899,
      "Ġhost": 900,
      "onfi": 901,
      "onfig": 902,
      "557": 903,
      "Ġ[<*>]'": 904,
      ".<*>:": 905,
      "Ġde": 906,
      "fied": 907,
      "ĠMy": 908,
      "<*>),": 909,
      "eeping": 910,
      "ut": 911,
      "Ġsl": 912,
      "Ġretry": 913,
      "Ġunquali": 914,
      "Ġsleeping": 915,
      "Ġunqualified": 916,
      "Ġclass": 917,
      "pts": 918,
      "384": 919,
      "=#<*>#@": 920,
      "ft": 921,
      "Ġnrc": 922,
      "57384": 923,
      "localhost": 924,
      "Ġnrcpts": 925,
      "Ġstat": 926,
      "relay": 927,
      "ailer": 928,
      "Ġmailer": 929,
      "Ġref": 930,
      "781": 931,
      "=[<*>]": 932,
      "Def": 933,
      "delay": 934,
      "xdelay": 935,
      "Ġctl": 936,
      "Ġxdelay": 937,
      "erred": 938,
      "Ġdsn": 939,
      "Ġ(<*>/": 940,
      "=<*>.<*>.<*>,": 941,
      "Ġ[<*>],": 942,
      "7054": 943,
      "Ġrefused": 944,
      "Deferred": 945,
      "Ġctladdr": 946,
      "Ġ(<*>/<*>),": 947,
      "Ġshort": 948,
      "sysctl": 949,
      "aafa": 950,
      "fy": 951,
      "409": 952,
      "Ġmy": 953,
      "Ġown": 954,
      "Ġquali": 955,
      "Ġdomain": 956,
      "68409": 957,
      "Ġqualify": 958,
      "Ġne": 959,
      "rup": 960,
      "rupt": 961,
      "ĠRe": 962,
      "Ġr": 963,
      "ud": 964,
      "init": 965,
      "66": 966,
      "un": 967,
      "Ġlo": 968,
      "Ġdevice": 969,
      "..": 970,
      "user": 971,
      "=<*>'": 972,
      "ĠNo": 973,
      "Ġav": 974,
      "lic": 975,
      "47": 976,
      "Ġ<*>.'": 977,
      "ex": 978,
      "Ġset": 979,
      "Ġof": 980,
      "ublic": 981,
      "Ġlease": 982,
      "Ġat": 983,
      "Ġpublic": 984,
      "Ġ<*>:<*>:<*>": 985,
      "rent": 986,
      "urrent": 987,
      "Ġcurrent": 988,
      "Ġino": 989,
      "Ġi": 990,
      "01": 991,
      "river": 992,
      "ied": 993,
      "enied": 994,
      "Ġdenied": 995,
      "ine": 996,
      "Ġsec": 997,
      "Ġkernel": 998,
      "Ġ{": 999,
      "Ġchanged": 1000,
      "Ġavc": 1001,
      "88": 1002,
      "uration": 1003,
      "onfiguration": 1004,
      "ring": 1005,
      "mov": 1006,
      "Ġremov": 1007,
      "Ġupdate": 1008,
      "eb": 1009,
      "ok": 1010,
      "Ġwarning": 1011,
      "Ġlook": 1012,
      "Ġdirectory": 1013,
      "Ġsuch": 1014,
      "lim": 1015,
      "drop": 1016,
      "pick": 1017,
      "postfix": 1018,
      "postdrop": 1019,
      "pickup": 1020,
      "54": 1021,
      "igh": 1022,
      "Ġ<*>']": 1023,
      "vel": 1024,
      "face": 1025,
      "ĠIRQ": 1026,
      "Ġreport": 1027,
      "ince": 1028,
      "Ġsince": 1029,
      "7591": 1030,
      "759140": 1031,
      "level": 1032,
      "Ġmo": 1033,
      "Ġis": 1034,
      "ĠPro": 1035,
      "ated": 1036,
      "Ġinterface": 1037,
      "pt": 1038,
      "Ġlow": 1039,
      "ĠGSI": 1040,
      "Ġdriver": 1041,
      "Ġ\"": 1042,
      "Ġinterrupt": 1043,
      "amp": 1044,
      "estamp": 1045,
      "dd": 1046,
      "ign": 1047,
      "ck": 1048,
      "per": 1049,
      "ringup": 1050,
      "2247": 1051,
      "38": 1052,
      "Ġsc": 1053,
      "bringup": 1054,
      "ges": 1055,
      "ched": 1056,
      "59": 1057,
      "helper": 1058,
      "userhelper": 1059,
      "Ġconfiguration": 1060,
      "Ġ<*>-<*>": 1061,
      "ached": 1062,
      "limit": 1063,
      "bor": 1064,
      "Ġneigh": 1065,
      "Ġneighbor": 1066,
      "96": 1067,
      "FS": 1068,
      "85": 1069,
      "Ġinit": 1070,
      "Ġsecond": 1071,
      "<*>]'": 1072,
      "ĠRead": 1073,
      "Ġacce": 1074,
      "Ġaccept": 1075,
      "IO": 1076,
      "Ġrun": 1077,
      "FO": 1078,
      "42": 1079,
      "clud": 1080,
      "cluded": 1081,
      "257": 1082,
      "=<*>]'": 1083,
      "line": 1084,
      "Ġincluded": 1085,
      "ĠReading": 1086,
      "Ġ}": 1087,
      "Ġpid": 1088,
      "632": 1089,
      "Ġremoving": 1090,
      "abl": 1091,
      "ith": 1092,
      "Ġwith": 1093,
      "Ġca": 1094,
      "Ġrunning": 1095,
      "713": 1096,
      "VFS": 1097,
      "ep": 1098,
      "Ġstep": 1099,
      "Ġpro": 1100,
      "ext": 1101,
      "ial": 1102,
      "<*>,": 1103,
      "ge": 1104,
      "vile": 1105,
      "Ġprivile": 1106,
      "Ġprivileges": 1107,
      "70": 1108,
      "ax": 1109,
      "df": 1110,
      "lient": 1111,
      "RD": 1112,
      "Ġsda": 1113,
      "ux": 1114,
      "fsck": 1115,
      "af": 1116,
      "gist": 1117,
      "gister": 1118,
      "Ġshut": 1119,
      "188": 1120,
      "ĠUs": 1121,
      "down": 1122,
      "Ġsync": 1123,
      "5946": 1124,
      "max": 1125,
      "Ġlimit": 1126,
      "Ġreached": 1127,
      "84713": 1128,
      "84713188": 1129,
      "IOS": 1130,
      "/<*>": 1131,
      "76": 1132,
      "IN": 1133,
      "Ġshutdown": 1134,
      "acb": 1135,
      "]:": 1136,
      "ening": 1137,
      "MI": 1138,
      "['/": 1139,
      "802": 1140,
      "Ġclient": 1141,
      "PU": 1142,
      "ĠCPU": 1143,
      "ĠBIOS": 1144,
      "assign": 1145,
      "che": 1146,
      "fe": 1147,
      "8187": 1148,
      "INFO": 1149,
      "update": 1150,
      "50": 1151,
      "ĠList": 1152,
      "ĠListening": 1153,
      "Ġ<*>)": 1154,
      "gmond": 1155,
      "Ġk": 1156,
      "Ġconnection": 1157,
      "<*>-": 1158,
      "ram": 1159,
      "ul": 1160,
      "ĠRRD": 1161,
      "120": 1162,
      "87120": 1163,
      "778": 1164,
      "Ġ<*>.<*>.<*>": 1165,
      "Ġinitial": 1166,
      "Ġbus": 1167,
      "73": 1168,
      "126": 1169,
      "098": 1170,
      "tions": 1171,
      "Ġoptions": 1172,
      "Ġcom": 1173,
      "sion": 1174,
      "Ġcache": 1175,
      "ont": 1176,
      "cde": 1177,
      "90": 1178,
      "gram": 1179,
      "ĠProgram": 1180,
      "864": 1181,
      "543": 1182,
      "669": 1183,
      "45": 1184,
      "527": 1185,
      "Ġsetup": 1186,
      "98": 1187,
      "ener": 1188,
      "046": 1189,
      "Ġro": 1190,
      "15": 1191,
      "33": 1192,
      "Ġdo": 1193,
      "Ġdoes": 1194,
      "Ġtft": 1195,
      "Ġtftp": 1196,
      "463": 1197,
      "tft": 1198,
      "tftpd": 1199,
      "ink": 1200,
      "MP": 1201,
      "pdated": 1202,
      "Ġtimestamp": 1203,
      "Ġbe": 1204,
      "rq": 1205,
      "ted": 1206,
      "IC": 1207,
      "Ġchange": 1208,
      "Ġpre": 1209,
      "Ġscsi": 1210,
      "XT": 1211,
      "nal": 1212,
      "ournal": 1213,
      "journal": 1214,
      "17": 1215,
      "Ġroot": 1216,
      "ock": 1217,
      "age": 1218,
      "Ġinitialized": 1219,
      "Ġwh": 1220,
      "Ġatt": 1221,
      "tim": 1222,
      "ĠEXT": 1223,
      "inux": 1224,
      "date": 1225,
      "Ġnew": 1226,
      "gistered": 1227,
      "Ġone": 1228,
      "empt": 1229,
      "gal": 1230,
      "mini": 1231,
      "mum": 1232,
      "Ġil": 1233,
      "legal": 1234,
      "Ġwhen": 1235,
      "Ġattempt": 1236,
      "minimum": 1237,
      "Ġillegal": 1238,
      "Ġver": 1239,
      "Ġversion": 1240,
      "Ġmount": 1241,
      "ĠSet": 1242,
      "ĠInter": 1243,
      "'\"": 1244,
      "Ġ<*>/<*>": 1245,
      "uth": 1246,
      "entic": 1247,
      "uthentic": 1248,
      "rip": 1249,
      "82": 1250,
      "94": 1251,
      "ĠUS": 1252,
      "Ġread": 1253,
      "<*>.<*>": 1254,
      "hal": 1255,
      "cca": 1256,
      "Ġhub": 1257,
      ":<*>.<*>:": 1258,
      "Ġ<*>-<*>:<*>.<*>:": 1259,
      "ET": 1260,
      "32": 1261,
      "usr": 1262,
      "Ġbehal": 1263,
      "Ġbehalf": 1264,
      "906": 1265,
      "Ġpam": 1266,
      "Ġupdated": 1267,
      "timestamp": 1268,
      "ĠDO": 1269,
      "ĠID": 1270,
      "WN": 1271,
      "ĠDOWN": 1272,
      "...": 1273,
      "286": 1274,
      "abled": 1275,
      "Ġ;": 1276,
      "20": 1277,
      "022": 1278,
      "050": 1279,
      "ĠLink": 1280,
      "Ġsw": 1281,
      "ting": 1282,
      "Ġfilesystem": 1283,
      "ĠLID": 1284,
      "Ġide": 1285,
      "ack": 1286,
      "PIC": 1287,
      "emory": 1288,
      "ĠV": 1289,
      "Ġprocess": 1290,
      "ision": 1291,
      "ĠSM": 1292,
      "sysinit": 1293,
      "ĠGID": 1294,
      "ĠGener": 1295,
      "ĠGenerate": 1296,
      "599": 1297,
      "tt": 1298,
      "990": 1299,
      "cy": 1300,
      "ency": 1301,
      ":'": 1302,
      "61": 1303,
      "udit": 1304,
      "anfs": 1305,
      "NMP": 1306,
      "sp": 1307,
      "Ġ@": 1308,
      "ĠDEL": 1309,
      "ĠDELL": 1310,
      "no": 1311,
      "ĠPE": 1312,
      "Ġaudit": 1313,
      "connec": 1314,
      "Ġdisconnec": 1315,
      "Ġdisconnected": 1316,
      ":<*>'": 1317,
      "Ġsub": 1318,
      "ĠH": 1319,
      "IRQ": 1320,
      "ĠInterrupt": 1321,
      "IRQs": 1322,
      "ĠUsing": 1323,
      "du": 1324,
      "dule": 1325,
      "ity": 1326,
      "Ġassign": 1327,
      "Ġassigned": 1328,
      "89": 1329,
      "41": 1330,
      "177": 1331,
      "1953": 1332,
      "ĠInt": 1333,
      "bb": 1334,
      "Ġ(<*>": 1335,
      "Ġmemory": 1336,
      "Ġrip": 1337,
      "Ġrsp": 1338,
      "ult": 1339,
      "...'": 1340,
      "24": 1341,
      "ĠMo": 1342,
      "<*>.<*>:": 1343,
      "ontext": 1344,
      "(<*>.<*>:": 1345,
      "(<*>.<*>:<*>):": 1346,
      "Ġmode": 1347,
      "use": 1348,
      "ĠUser": 1349,
      "Ġscontext": 1350,
      "ause": 1351,
      "ecause": 1352,
      "Ġbecause": 1353,
      "FT": 1354,
      "KC": 1355,
      "SFT": 1356,
      "ĠMSFT": 1357,
      "ĠBKC": 1358,
      "nox": 1359,
      "ae": 1360,
      "ash": 1361,
      "97": 1362,
      "ey": 1363,
      "ĠSNMP": 1364,
      "ĠUpdate": 1365,
      "Ġe": 1366,
      "Ġstarting": 1367,
      "bing": 1368,
      "Ġent": 1369,
      "ries": 1370,
      "Ġentries": 1371,
      "Ġex": 1372,
      "ug": 1373,
      "ĠFor": 1374,
      "ĠNET": 1375,
      "030": 1376,
      "ĠIntel": 1377,
      "419": 1378,
      "logd": 1379,
      "hy": 1380,
      "7030": 1381,
      "ĠO": 1382,
      "Ġauthentic": 1383,
      "291": 1384,
      "Ġtimer": 1385,
      "60": 1386,
      "ĠProbing": 1387,
      "Ġli": 1388,
      "Ġjournal": 1389,
      "net": 1390,
      "ĠUSB": 1391,
      "Ġgmond": 1392,
      "888": 1393,
      "tpd": 1394,
      "Ġntpd": 1395,
      "ĠUn": 1396,
      "ĠSetting": 1397,
      "ll": 1398,
      "Ġsubnet": 1399,
      "var": 1400,
      "dbcf": 1401,
      "ly": 1402,
      "gfa": 1403,
      "Ġsegfa": 1404,
      "Ġsegfault": 1405,
      "so": 1406,
      "CSI": 1407,
      "lock": 1408,
      "pe": 1409,
      "Ġfe": 1410,
      "Ġline": 1411,
      "ĠForce": 1412,
      "ĠSCSI": 1413,
      "ve": 1414,
      "ackage": 1415,
      "king": 1416,
      "thh": 1417,
      "23": 1418,
      "['<*>": 1419,
      "tes": 1420,
      "ating": 1421,
      "016": 1422,
      "Ġlost": 1423,
      "bad": 1424,
      "<*>[<*>]:": 1425,
      "Ġcoming": 1426,
      "Ġauthenticated": 1427,
      "badfe": 1428,
      "aad": 1429,
      "ĠNow": 1430,
      "7053": 1431,
      "Ġkey": 1432,
      "Ġall": 1433,
      "Ġprefix": 1434,
      "ĠLocal": 1435,
      "28": 1436,
      ".'\"": 1437,
      "=<*>)": 1438,
      "950": 1439,
      "Connection": 1440,
      "1676": 1441,
      "Ġhash": 1442,
      "Ġtable": 1443,
      "<*>...'": 1444,
      "ĠIDE": 1445,
      "Ġfam": 1446,
      "ily": 1447,
      "col": 1448,
      "tocol": 1449,
      "ĠRegistered": 1450,
      "Ġprotocol": 1451,
      "Ġfamily": 1452,
      "ana": 1453,
      "ĠMana": 1454,
      "Ġ...": 1455,
      "hys": 1456,
      "ded": 1457,
      "939": 1458,
      "226": 1459,
      "Ġirq": 1460,
      "Ġrole": 1461,
      "Ġsweep": 1462,
      "aaa": 1463,
      "bas": 1464,
      "mm": 1465,
      "453": 1466,
      "985": 1467,
      "768": 1468,
      "efd": 1469,
      "29768": 1470,
      "424": 1471,
      "Ġphys": 1472,
      "Ġlid": 1473,
      "Ġ*": 1474,
      "Ġaccepted": 1475,
      "Out": 1476,
      "Ġremoved": 1477,
      "Ġ:": 1478,
      "ĠServer": 1479,
      "ore": 1480,
      "bf": 1481,
      "panfs": 1482,
      "ell": 1483,
      "74": 1484,
      "Ġfil": 1485,
      "Ġfiles": 1486,
      "ips": 1487,
      "word": 1488,
      "Ġbytes": 1489,
      "14": 1490,
      "upport": 1491,
      "Ġseconds": 1492,
      "ann": 1493,
      "Ġblock": 1494,
      "Hz": 1495,
      "ra": 1496,
      "onso": 1497,
      "onsole": 1498,
      "irq": 1499,
      "26": 1500,
      "der": 1501,
      "ĠSt": 1502,
      "ĠStart": 1503,
      "vision": 1504,
      "801": 1505,
      "PS": 1506,
      "ables": 1507,
      "sts": 1508,
      "916": 1509,
      "Ġchann": 1510,
      "Ġchannel": 1511,
      "eg": 1512,
      "roll": 1513,
      "ontroll": 1514,
      "ontroller": 1515,
      "comm": 1516,
      "Ġmd": 1517,
      "ĠHost": 1518,
      "afa": 1519,
      "228": 1520,
      "76228": 1521,
      "ĠController": 1522,
      "Ġlat": 1523,
      "ĠConfiguration": 1524,
      "Ġsource": 1525,
      "88599": 1526,
      "Ġlatency": 1527,
      "110": 1528,
      "798": 1529,
      "90798": 1530,
      "dedc": 1531,
      "Ġstarted": 1532,
      "efa": 1533,
      "rv": 1534,
      "vcd": 1535,
      "insts": 1536,
      "vcdrv": 1537,
      "instsvcdrv": 1538,
      "322": 1539,
      "rite": 1540,
      "3225": 1541,
      "DT": 1542,
      "Ġaddr": 1543,
      "cdbas": 1544,
      "Ġdcdbas": 1545,
      "atch": 1546,
      "mount": 1547,
      "lug": 1548,
      "Ġusec": 1549,
      "Ġ(<*>)'": 1550,
      "ĠMon": 1551,
      "APIC": 1552,
      "Ġen": 1553,
      "UID": 1554,
      "ĠAn": 1555,
      "ĠGUID": 1556,
      "9918": 1557,
      "isting": 1558,
      "Ġexisting": 1559,
      "ber": 1560,
      "Ġsm": 1561,
      "805": 1562,
      "urity": 1563,
      "sec": 1564,
      "::": 1565,
      "SMI": 1566,
      "pr": 1567,
      "erpr": 1568,
      "ises": 1569,
      "enterpr": 1570,
      ".<*>.<*>.<*>": 1571,
      "ĠSNMPv": 1572,
      "enterprises": 1573,
      "oun": 1574,
      "Ġand": 1575,
      "Ġsystem": 1576,
      "Ġlog": 1577,
      "603": 1578,
      "pi": 1579,
      "acpi": 1580,
      "ĠLAPIC": 1581,
      "Ġregistered": 1582,
      "[<*>])'": 1583,
      "pre": 1584,
      "linux": 1585,
      "sc": 1586,
      "ĠPackage": 1587,
      "lib": 1588,
      "ages": 1589,
      "vert": 1590,
      "dri": 1591,
      "ntp": 1592,
      "drift": 1593,
      "Ġmodule": 1594,
      "ĠAPIC": 1595,
      "Ġhigh": 1596,
      "Ġ#<*>#@": 1597,
      "ĠLog": 1598,
      "its": 1599,
      "limits": 1600,
      "int": 1601,
      "04": 1602,
      "NMI": 1603,
      "Ġed": 1604,
      "Ġlint": 1605,
      "Ġedge": 1606,
      "Ġnum": 1607,
      "Ġnumber": 1608,
      "tty": 1609,
      "race": 1610,
      "Ġ$": 1611,
      "RO": 1612,
      "#<*>#/": 1613,
      "<*>.": 1614,
      "eleas": 1615,
      "Ġserver": 1616,
      "elease": 1617,
      "Ġid": 1618,
      "808": 1619,
      "Ġdiscovered": 1620,
      "Ġdown": 1621,
      "ype": 1622,
      "Ġconsole": 1623,
      "zon": 1624,
      "Ġzon": 1625,
      "etfilter": 1626,
      "bus": 1627,
      "/#<*>#/": 1628,
      "Ġenabled": 1629,
      "ĠRA": 1630,
      "Ġblocks": 1631,
      "Ġdivert": 1632,
      "780": 1633,
      "ĠCom": 1634,
      "089": 1635,
      "75916": 1636,
      "08975916": 1637,
      "iting": 1638,
      "ecking": 1639,
      "Ġcore": 1640,
      "Ġcomp": 1641,
      "ĠStarting": 1642,
      "val": 1643,
      "mit": 1644,
      "Ġorder": 1645,
      "Ġinterval": 1646,
      "journald": 1647,
      "Ġmounted": 1648,
      "ĠCommit": 1649,
      "Ġordered": 1650,
      "tern": 1651,
      "ĠFS": 1652,
      "Ġintern": 1653,
      "Ġinternal": 1654,
      "),": 1655,
      "ase": 1656,
      "eam": 1657,
      "tables": 1658,
      "Ġteam": 1659,
      "ĠNetfilter": 1660,
      "ean": 1661,
      "48": 1662,
      "onf": 1663,
      "Ġqu": 1664,
      "Ġfs": 1665,
      "wa": 1666,
      "ACPI": 1667,
      "730": 1668,
      "aaca": 1669,
      "051": 1670,
      "Ġclean": 1671,
      "uting": 1672,
      "ware": 1673,
      "191": 1674,
      "42191": 1675,
      "99042191": 1676,
      "381": 1677,
      "6599": 1678,
      "Ġ[/": 1679,
      "775": 1680,
      "Ġkjournald": 1681,
      "Ġfsck": 1682,
      "73028": 1683,
      "381775": 1684,
      "659999": 1685,
      "622": 1686,
      "6888": 1687,
      "42458": 1688,
      "pam": 1689,
      "Ġcaused": 1690,
      "Ġip": 1691,
      "11033": 1692,
      "00": 1693,
      "rd": 1694,
      "Ġwrite": 1695,
      "Ġrouting": 1696,
      "746": 1697,
      "ĠEx": 1698,
      "pc": 1699,
      "set": 1700,
      "ntpdate": 1701,
      "ht": 1702,
      "246": 1703,
      "cision": 1704,
      "Ġprecision": 1705,
      "24698": 1706,
      "534": 1707,
      "71": 1708,
      "ĠEDT": 1709,
      "<*>.<*>-": 1710,
      "ĠOct": 1711,
      "Ġ#<*>#@<*>.<*>-": 1712,
      "quency": 1713,
      "Ġfrequency": 1714,
      "ffset": 1715,
      "Ġoffset": 1716,
      "PM": 1717,
      "conf": 1718,
      "ĠPPM": 1719,
      "syslogd": 1720,
      "Ġpass": 1721,
      "Ġconfig": 1722,
      "Ġconfigu": 1723,
      "mod": 1724,
      "Ġpan": 1725,
      "Ġlocal": 1726,
      "21": 1727,
      "Ġrestart": 1728,
      "bea": 1729,
      "Ġ<*>.<*>.<*>:": 1730,
      "ĠPlug": 1731,
      "Ġfoun": 1732,
      "Ġfound": 1733,
      "gem": 1734,
      "ĠManagem": 1735,
      "ĠManagement": 1736,
      "ress": 1737,
      "ĠSystems": 1738,
      "Ġdue": 1739,
      "ish": 1740,
      "60339": 1741,
      "ops": 1742,
      "ished": 1743,
      "ĠDE": 1744,
      "ĠWarning": 1745,
      "ĠModule": 1746,
      "sg": 1747,
      "Ġsign": 1748,
      "Ġsignal": 1749,
      "proc": 1750,
      "msg": 1751,
      "etc": 1752,
      "kmsg": 1753,
      "Ġ<*>.<*>.<*>,": 1754,
      "Ġklogd": 1755,
      "domain": 1756,
      "701": 1757,
      "ml": 1758,
      "Ġ<*>:<*>": 1759,
      "AU": 1760,
      "FAU": 1761,
      "LT": 1762,
      "Ġprocessing": 1763,
      "ĠDEFAU": 1764,
      "ĠDEFAULT": 1765,
      "7751": 1766,
      "687751": 1767,
      "prefix": 1768,
      "68775170": 1769,
      "izing": 1770,
      "ĠUnable": 1771,
      "hh": 1772,
      "ird": 1773,
      "part": 1774,
      "xhh": 1775,
      "Ġmnt": 1776,
      "thca": 1777,
      "third": 1778,
      "mlxhh": 1779,
      "party": 1780,
      "Ġdisabled": 1781,
      "Ġ#<*>": 1782,
      "Ġ#<*>#": 1783,
      "Ġalloc": 1784,
      "ĠTrace": 1785,
      "Ġuops": 1786,
      "oMI": 1787,
      "Ġnon": 1788,
      "Ġpages": 1789,
      "ĠBog": 1790,
      "oMIPS": 1791,
      "ĠBogoMIPS": 1792,
      "814": 1793,
      "ELinux": 1794,
      "and": 1795,
      "Ġ*<*>,": 1796,
      "ĠNetwork": 1797,
      "MA": 1798,
      "LB": 1799,
      "Ġfilesystems": 1800,
      "=<*>)'": 1801,
      "ĠUSER": 1802,
      "sud": 1803,
      "sudo": 1804,
      "IFO": 1805,
      "Ġbatch": 1806,
      "ĠLIFO": 1807,
      "Ġzone": 1808,
      "Ġgener": 1809,
      "form": 1810,
      "otal": 1811,
      "93": 1812,
      "Ġlun": 1813,
      "ttached": 1814,
      "Ġrevision": 1815,
      "uil": 1816,
      "ĠPRO": 1817,
      "60814": 1818,
      "rig": 1819,
      "ete": 1820,
      "aed": 1821,
      "296": 1822,
      "lete": 1823,
      "ernet": 1824,
      "Ġcomplete": 1825,
      "cti": 1826,
      "lease": 1827,
      "649": 1828,
      "ĠDriver": 1829,
      "091": 1830,
      "512": 1831,
      "310": 1832,
      "613": 1833,
      "ĠCle": 1834,
      "unting": 1835,
      "aid": 1836,
      "araid": 1837,
      "egaraid": 1838,
      "480": 1839,
      "511": 1840,
      "Ġbin": 1841,
      "ced": 1842,
      "ĠSA": 1843,
      "sources": 1844,
      "Ġresources": 1845,
      "Ġforced": 1846,
      "51250": 1847,
      "ĠClean": 1848,
      "51151250": 1849,
      "Ġbind": 1850,
      "2091": 1851,
      "network": 1852,
      "253": 1853,
      "850": 1854,
      "61370": 1855,
      "ĠAttached": 1856,
      "499": 1857,
      "Ġpar": 1858,
      "fddf": 1859,
      "ĠSELinux": 1860,
      "cbc": 1861,
      "Ġregister": 1862,
      "4252": 1863,
      "149": 1864,
      "ĠBring": 1865,
      "14973": 1866,
      "ĠBringing": 1867,
      "config": 1868,
      "ol": 1869,
      "oot": 1870,
      "ccess": 1871,
      "fea": 1872,
      "Ġmegaraid": 1873,
      "Ġrecover": 1874,
      "3596": 1875,
      "Ġrecovering": 1876,
      "359676": 1877,
      "Ġadd": 1878,
      "629": 1879,
      "Ġpanfs": 1880,
      "Ġerr": 1881,
      "Ġmet": 1882,
      "821": 1883,
      "te": 1884,
      "db": 1885,
      "342": 1886,
      "08": 1887,
      "-<*>'": 1888,
      "TP": 1889,
      "hob": 1890,
      "bda": 1891,
      "Ġmi": 1892,
      "cept": 1893,
      "accept": 1894,
      "Ġpassword": 1895,
      "78": 1896,
      "authentic": 1897,
      "Ġign": 1898,
      "ored": 1899,
      "esc": 1900,
      "Ġkeyword": 1901,
      "Ġconfigure": 1902,
      "authenticate": 1903,
      "Ġignored": 1904,
      "right": 1905,
      "yright": 1906,
      "ĠTo": 1907,
      "WA": 1908,
      "954": 1909,
      "Ġ,": 1910,
      "Ġap": 1911,
      "Ġ<*>:<*>'": 1912,
      "Ġdesc": 1913,
      "smux": 1914,
      "19954": 1915,
      "ĠMIB": 1916,
      "Ġoid": 1917,
      "ĠManager": 1918,
      "Ġsmux": 1919,
      ".<*>.<*>.<*>,": 1920,
      "Ġdescr": 1921,
      "19954342": 1922,
      "cessor": 1923,
      "security": 1924,
      "<*>.<*>.<*>": 1925,
      "opyright": 1926,
      "=/": 1927,
      "ĠX": 1928,
      "Ġlocalhost": 1929,
      "938": 1930,
      "ĠCopyright": 1931,
      "exiting": 1932,
      "ility": 1933,
      "Ġaddress": 1934,
      "Ġinstall": 1935,
      "RM": 1936,
      "Ġinstallation": 1937,
      "064": 1938,
      "6805": 1939,
      "BI": 1940,
      "IRM": 1941,
      "Yast": 1942,
      "inished": 1943,
      "ĠTBI": 1944,
      "ĠFIRM": 1945,
      "ĠFinished": 1946,
      "ĠDell": 1947,
      "localdomain": 1948,
      "828": 1949,
      "WARE": 1950,
      "064828": 1951,
      "ĠTBIRD": 1952,
      "ĠFIRMWARE": 1953,
      "ĠNTP": 1954,
      "devel": 1955,
      "6295": 1956,
      "ĠSMP": 1957,
      "Ġas": 1958,
      "ply": 1959,
      "ĠDis": 1960,
      "Ġbu": 1961,
      "928": 1962,
      "Ġupdates": 1963,
      "Ġapply": 1964,
      "ĠProcessor": 1965,
      "546": 1966,
      "Ġavail": 1967,
      "!'": 1968,
      "que": 1969,
      "Ġload": 1970,
      "itial": 1971,
      "itializing": 1972,
      "itch": 1973,
      "Ġswitch": 1974,
      "Ġcomm": 1975,
      "Ġ<*>:": 1976,
      "io": 1977,
      "erio": 1978,
      "ath": 1979,
      "Ġpath": 1980,
      "ersion": 1981,
      "ĠVersion": 1982,
      "link": 1983,
      "36": 1984,
      "ĠSupport": 1985,
      "ĠIO": 1986,
      "Ġprocessor": 1987,
      "572": 1988,
      "Dell": 1989,
      "package": 1990,
      "sps": 1991,
      "support": 1992,
      "etup": 1993,
      "ĠDesc": 1994,
      "ĠRelease": 1995,
      "updatepackage": 1996,
      "ription": 1997,
      "spsetup": 1998,
      "ĠDescription": 1999,
      "Ġth": 2000,
      "bl": 2001,
      "Ġallocating": 2002,
      "blk": 2003,
      "_<*>_": 2004,
      "Ġrhel": 2005,
      "release": 2006,
      "lp": 2007,
      "rating": 2008,
      "ibrating": 2009,
      "alibrating": 2010,
      "Ġloop": 2011,
      "lpj": 2012,
      "GHz": 2013,
      "TM": 2014,
      "eon": 2015,
      "Ġstepping": 2016,
      "ĠXeon": 2017,
      "Ġsock": 2018,
      "Ġsocket": 2019,
      "ttyS": 2020,
      "ard": 2021,
      "TLB": 2022,
      "Ġtype": 2023,
      "ĠIP": 2024,
      "ĠMHz": 2025,
      "ke": 2026,
      "apab": 2027,
      "end": 2028,
      "LO": 2029,
      "Ġavailable": 2030,
      "RA": 2031,
      "31": 2032,
      "inal": 2033,
      "Ġdisk": 2034,
      "272": 2035,
      "<*>,<*>": 2036,
      "RC": 2037,
      "SRC": 2038,
      "lob": 2039,
      "Ġglob": 2040,
      "ĠINT": 2041,
      "OVR": 2042,
      "Ġglobal": 2043,
      "PET": 2044,
      "ĠHPET": 2045,
      "468": 2046,
      "ĠRAM": 2047,
      "Ġback": 2048,
      "Ġal": 2049,
      "ready": 2050,
      "ary": 2051,
      "ethernet": 2052,
      "fixup": 2053,
      "Ġsecondary": 2054,
      "apability": 2055,
      "Ġalready": 2056,
      "Ġso": 2057,
      "Ġdevices": 2058,
      "olog": 2059,
      "ology": 2060,
      "NSI": 2061,
      "ĠANSI": 2062,
      "ftware": 2063,
      "Ġsoftware": 2064,
      "by": 2065,
      "del": 2066,
      "roug": 2067,
      "Ġ<*>,<*>": 2068,
      "Ġsg": 2069,
      "ĠPB": 2070,
      "ĠRev": 2071,
      "ĠModel": 2072,
      "Ġsmartd": 2073,
      "Ġgeneric": 2074,
      "endor": 2075,
      "Ġnet": 2076,
      "Ġ*<*>'": 2077,
      "Ġnetlink": 2078,
      "<*>/<*>": 2079,
      "probe": 2080,
      "ĠNMI": 2081,
      "65": 2082,
      "ĠCPUs": 2083,
      "ĠAdd": 2084,
      "uild": 2085,
      "913": 2086,
      "nil": 2087,
      "iginal": 2088,
      "Ġchanging": 2089,
      "Ġoriginal": 2090,
      "9133": 2091,
      "Ġdri": 2092,
      "uming": 2093,
      "Ġpage": 2094,
      ".<*>.<*>.<*>'": 2095,
      "ind": 2096,
      "Ġqui": 2097,
      "av": 2098,
      "<*>.<*>'": 2099,
      "ĠPri": 2100,
      "ĠHat": 2101,
      "386": 2102,
      "Ġchecking": 2103,
      "RT": 2104,
      "Ġspe": 2105,
      "Ġmice": 2106,
      "Ġspeed": 2107,
      "PI": 2108,
      "Ġcf": 2109,
      "Ġ<*>-": 2110,
      "ĠInitializing": 2111,
      "Ġ<*>.<*>.<*>-": 2112,
      "ĠMounting": 2113,
      "Ġclock": 2114,
      "build": 2115,
      "ering": 2116,
      "otas": 2117,
      "Ġquotas": 2118,
      "ctive": 2119,
      "4024": 2120,
      "Release": 2121,
      "aRA": 2122,
      "anning": 2123,
      "ĠDate": 2124,
      "ĠMeg": 2125,
      "Ġscanning": 2126,
      "aRAID": 2127,
      "ĠMegaRAID": 2128,
      "67": 2129,
      "gb": 2130,
      "hgb": 2131,
      "reating": 2132,
      "Ġtsc": 2133,
      "Ġrhgb": 2134,
      "Ġquiet": 2135,
      "545": 2136,
      "ĠBoot": 2137,
      "1769": 2138,
      "222": 2139,
      "ĠLinux": 2140,
      "62310": 2141,
      "62310222": 2142,
      "#<*>#@#<*>#": 2143,
      "ĠCalibrating": 2144,
      "695": 2145,
      "fbcdf": 2146,
      "ĠUni": 2147,
      "eed": 2148,
      "Ġib": 2149,
      "Ġ<*>!'": 2150,
      "eedff": 2151,
      "452": 2152,
      "eead": 2153,
      "ĠTotal": 2154,
      "327": 2155,
      "ebe": 2156,
      "ĠType": 2157,
      "12327": 2158,
      "efebe": 2159,
      "123274": 2160,
      "Ġserio": 2161,
      "ĠMST": 2162,
      "ĠVendor": 2163,
      "895": 2164,
      "1410": 2165,
      "5729": 2166,
      "898": 2167,
      "779": 2168,
      "ĠChecking": 2169,
      "485": 2170,
      "558": 2171,
      "735": 2172,
      "ers": 2173,
      "eters": 2174,
      "ameters": 2175,
      "6457": 2176,
      "70594": 2177,
      "414": 2178,
      "Ġparameters": 2179,
      "735485": 2180,
      "ved": 2181,
      "ĠIPS": 2182,
      "ĠEST": 2183,
      "cache": 2184,
      "Ġbindcache": 2185,
      "271": 2186,
      "04271": 2187,
      "ful": 2188,
      "Ġsuccess": 2189,
      "Ġsuccessful": 2190,
      "25": 2191,
      "ea": 2192,
      "806": 2193,
      "ceec": 2194,
      "Ġsuccessfully": 2195,
      "987": 2196,
      "ĠTop": 2197,
      "ĠTopology": 2198,
      "85558": 2199,
      "Ġrecovery": 2200,
      "rpc": 2201,
      "<<*>": 2202,
      "Ġhard": 2203,
      "Ġhardware": 2204,
      ":/": 2205,
      "get": 2206,
      "pan": 2207,
      "CPU": 2208,
      "://#<*>#/": 2209,
      "loc": 2210,
      "bd": 2211,
      "aaf": 2212,
      "ĠSTA": 2213,
      "37": 2214,
      ":<*>:": 2215,
      "Ġdev": 2216,
      "idm": 2217,
      "apd": 2218,
      "idmapd": 2219,
      "MM": 2220,
      "job": 2221,
      "Ġjob": 2222,
      "anac": 2223,
      "1922": 2224,
      "ĠUpdated": 2225,
      "Ġ<*>-<*>-<*>'": 2226,
      "anacron": 2227,
      "44": 2228,
      "etec": 2229,
      "mr": 2230,
      "95": 2231,
      "ĠActive": 2232,
      "ome": 2233,
      "only": 2234,
      "Ġman": 2235,
      "Ġmany": 2236,
      "ustre": 2237,
      "43": 2238,
      "ser": 2239,
      "269": 2240,
      "quest": 2241,
      "out": 2242,
      "Ġopening": 2243,
      "825": 2244,
      "ĠToo": 2245,
      "Ġreser": 2246,
      "Ġreserved": 2247,
      "Ġtimeout": 2248,
      "8450": 2249,
      "tor": 2250,
      "Ġsector": 2251,
      "<*>.<*>.<*>'": 2252,
      "ip": 2253,
      "ĠAll": 2254,
      "syslog": 2255,
      "lve": 2256,
      "Ġreso": 2257,
      "Ġwe": 2258,
      "93872": 2259,
      "Ġresolve": 2260,
      "Ġtimes": 2261,
      "Ġhtt": 2262,
      "ĠUnknown": 2263,
      "Ġhttp": 2264,
      "etected": 2265,
      "ERM": 2266,
      "Th": 2267,
      "876": 2268,
      "Ġsetting": 2269,
      "ĠPID": 2270,
      "017": 2271,
      "Se": 2272,
      "ĠCli": 2273,
      "3911": 2274,
      "ssionTh": 2275,
      "SessionTh": 2276,
      "ĠCliSessionTh": 2277,
      "39111": 2278,
      "ĠCliSessionThread": 2279,
      "903": 2280,
      "<<*>>": 2281,
      "Ġpo": 2282,
      "5017": 2283,
      "ric": 2284,
      "585017": 2285,
      "Ġmeta": 2286,
      "Ġmetric": 2287,
      "Ġdetected": 2288,
      "ide": 2289,
      "In": 2290,
      "NA": 2291,
      "ired": 2292,
      "Ġrequ": 2293,
      "Ġrequired": 2294,
      "Ġbuff": 2295,
      "117": 2296,
      "cad": 2297,
      "02": 2298,
      "ĠW": 2299,
      "Ġtain": 2300,
      "ĠVol": 2301,
      "eea": 2302,
      "ty": 2303,
      "Ġtty": 2304,
      "por": 2305,
      "Ġprobe": 2306,
      "SM": 2307,
      "gn": 2308,
      "ĠNFS": 2309,
      "Ġdecl": 2310,
      "kip": 2311,
      "ull": 2312,
      "Ġy": 2313,
      "Ġover": 2314,
      "Ġ<*>.<*>.<*>'": 2315,
      "bdd": 2316,
      "TERM": 2317,
      "register": 2318,
      "SNMP": 2319,
      "sl": 2320,
      "py": 2321,
      "plug": 2322,
      "otplug": 2323,
      "hotplug": 2324,
      "lop": 2325,
      "loppy": 2326,
      "6269": 2327,
      "cre": 2328,
      "orun": 2329,
      "Ġaut": 2330,
      "Ġautorun": 2331,
      "Ġsys": 2332,
      "ride": 2333,
      "Ġ<*>.<*>.<*>-<*>": 2334,
      "Ġoverride": 2335,
      ").'": 2336,
      "def": 2337,
      "eds": 2338,
      "cab": 2339,
      "fda": 2340,
      "Ġwa": 2341,
      "keup": 2342,
      "Ġwakeup": 2343,
      "cro": 2344,
      "uto": 2345,
      "Ġaddresses": 2346,
      "base": 2347,
      "DP": 2348,
      "rr": 2349,
      "ĠBad": 2350,
      "ons": 2351,
      "ffa": 2352,
      "Re": 2353,
      "Ġ...'": 2354,
      "Ġlist": 2355,
      "establ": 2356,
      "617": 2357,
      "Ġsel": 2358,
      "038": 2359,
      "map": 2360,
      "ĠExiting": 2361,
      "Ġcommand": 2362,
      "029": 2363,
      "tl": 2364,
      "octl": 2365,
      "Ġlogical": 2366,
      "ĠRAID": 2367,
      "SB": 2368,
      "Ġper": 2369,
      "ask": 2370,
      "ĠJ": 2371,
      "Ġ<*>/": 2372,
      "Ġuse": 2373,
      "ĠKernel": 2374,
      "floppy": 2375,
      "ĠMA": 2376,
      "ime": 2377,
      "Ġmpt": 2378,
      "Ġif": 2379,
      "Ġexce": 2380,
      "762": 2381,
      "PR": 2382,
      "Pl": 2383,
      "bca": 2384,
      "md": 2385,
      "faba": 2386,
      "MDIS": 2387,
      "fababca": 2388,
      "MDISK": 2389,
      "ew": 2390,
      "een": 2391,
      "ioctl": 2392,
      "ween": 2393,
      "etween": 2394,
      "Ġbetween": 2395,
      "dcd": 2396,
      "Ġim": 2397,
      "ĠTh": 2398,
      "ĠPA": 2399,
      "ĠMemory": 2400,
      "time": 2401,
      "Ġimage": 2402,
      "Ġskip": 2403,
      "established": 2404,
      "wrap": 2405,
      "Ġxinetd": 2406,
      "rote": 2407,
      "ibwrap": 2408,
      "iled": 2409,
      "Ġlibwrap": 2410,
      "aafb": 2411,
      "5045": 2412,
      "Ġcompiled": 2413,
      "Ġloadav": 2414,
      "ĠWrote": 2415,
      "Ġloadavg": 2416,
      "bps": 2417,
      "dog": 2418,
      "watch": 2419,
      "orts": 2420,
      "orpor": 2421,
      "ĠCorpor": 2422,
      "ĠFull": 2423,
      "ĠDup": 2424,
      "ĠMbps": 2425,
      "ĠNIC": 2426,
      "lex": 2427,
      "ĠLSI": 2428,
      "ĠUp": 2429,
      "watchdog": 2430,
      "ĠCorporation": 2431,
      "ĠDuplex": 2432,
      "Kernel": 2433,
      "ph": 2434,
      "aring": 2435,
      "ization": 2436,
      "sal": 2437,
      "orking": 2438,
      "Ġag": 2439,
      "Ġworking": 2440,
      "ĠStarted": 2441,
      "dad": 2442,
      "fst": 2443,
      "ia": 2444,
      "nc": 2445,
      "ints": 2446,
      "sync": 2447,
      "Ġmap": 2448,
      "6949": 2449,
      "Ġgenerated": 2450,
      "Ġpoints": 2451,
      "fstab": 2452,
      "afc": 2453,
      "data": 2454,
      "Ġrequest": 2455,
      "Ġnow": 2456,
      "130": 2457,
      "bios": 2458,
      "01130": 2459,
      "Ġ::": 2460,
      ":[": 2461,
      "sent": 2462,
      "Ġpresent": 2463,
      "Red": 2464,
      "SDP": 2465,
      "gcc": 2466,
      "pages": 2467,
      "Ġ)": 2468,
      "atd": 2469,
      "statd": 2470,
      "ree": 2471,
      "Ġtotal": 2472,
      "ĠTue": 2473,
      "vided": 2474,
      "provided": 2475,
      "Ġinform": 2476,
      "ĠLustre": 2477,
      "ĠRSDP": 2478,
      "Ġok": 2479,
      "Ġphysical": 2480,
      "command": 2481,
      "Ġconfigured": 2482,
      "Ġmptable": 2483,
      "Ġtotalpages": 2484,
      "Ġinformation": 2485,
      "tu": 2486,
      "ves": 2487,
      "Ġtask": 2488,
      "dec": 2489,
      "ĠDisabled": 2490,
      "new": 2491,
      "Ġtables": 2492,
      "ĠDa": 2493,
      "Ġbase": 2494,
      "Ġmodes": 2495,
      "MADT": 2496,
      "SW": 2497,
      "elist": 2498,
      "392": 2499,
      "273": 2500,
      "Ġzonelist": 2501,
      "uilt": 2502,
      "Ġzonelists": 2503,
      "853": 2504,
      "GA": 2505,
      "SC": 2506,
      "lour": 2507,
      "rame": 2508,
      "Ġ<*><*>'": 2509,
      "ere": 2510,
      "Ġframe": 2511,
      "ĠTLB": 2512,
      "ĠCreating": 2513,
      "ĠSca": 2514,
      "Ġcolour": 2515,
      "ecurity": 2516,
      "))']": 2517,
      "ĠPS": 2518,
      "ĠBind": 2519,
      "Ġsynchronization": 2520,
      "acing": 2521,
      "Ġcapability": 2522,
      "eff": 2523,
      "ĠLSM": 2524,
      "624": 2525,
      "ffol": 2526,
      "ĠRegister": 2527,
      "Ġsecurity": 2528,
      "Ġswap": 2529,
      "ĠVGA": 2530,
      "ĠTopspin": 2531,
      "Ġthroug": 2532,
      "ĠAddress": 2533,
      "Ġdrive": 2534,
      "84508": 2535,
      "Ġlistening": 2536,
      "Ġframework": 2537,
      "ĠScaffol": 2538,
      "ĠRegistering": 2539,
      "Ġthrough": 2540,
      "ĠScaffold": 2541,
      "318": 2542,
      "ration": 2543,
      "Ġext": 2544,
      "Ġdec": 2545,
      "lice": 2546,
      "Ġmig": 2547,
      "Ġmsec": 2548,
      "Ġcuto": 2549,
      "Ġusecs": 2550,
      "Ġtimeslice": 2551,
      "31892": 2552,
      "Ġdecay": 2553,
      "Ġmigration": 2554,
      "Ġmsecs": 2555,
      "Ġcutoff": 2556,
      "457": 2557,
      "929": 2558,
      "DE": 2559,
      "HI": 2560,
      "KS": 2561,
      "Kby": 2562,
      "MHz": 2563,
      "PV": 2564,
      "VS": 2565,
      "bce": 2566,
      "bbc": 2567,
      "dw": 2568,
      "gart": 2569,
      "pgart": 2570,
      "uge": 2571,
      "vated": 2572,
      "xx": 2573,
      "ze": 2574,
      "atform": 2575,
      "Ġ(<*>.<*>": 2576,
      "ones": 2577,
      "alph": 2578,
      "Ġsched": 2579,
      "ĠTCP": 2580,
      "ĠTime": 2581,
      "ssuming": 2582,
      "ĠClock": 2583,
      "Ġports": 2584,
      "ets": 2585,
      "ĠAssuming": 2586,
      "Ġacti": 2587,
      "size": 2588,
      "IDE": 2589,
      "Ġ<*>.<*>.": 2590,
      "ĠPIO": 2591,
      "ĠPIC": 2592,
      "ĠMB": 2593,
      "ĠMD": 2594,
      "ĠMult": 2595,
      "ĠBP": 2596,
      "ouse": 2597,
      "Ġhdw": 2598,
      "Ġunused": 2599,
      "Ġmouse": 2600,
      "224": 2601,
      "DISKS": 2602,
      "ĠRem": 2603,
      "Ġsharing": 2604,
      "Ġfreed": 2605,
      "ĠRevision": 2606,
      "Ġio": 2607,
      "ckets": 2608,
      "uler": 2609,
      "Ġidebus": 2610,
      "ĠVPR": 2611,
      "Ġsubsystem": 2612,
      "ĠHash": 2613,
      "ĠHuge": 2614,
      "Ġblocksize": 2615,
      "ĠLogic": 2616,
      "Ġallocated": 2617,
      "Ġbuckets": 2618,
      "Ġcommon": 2619,
      "Ġprocessors": 2620,
      "ĠIPsec": 2621,
      "Ġdisks": 2622,
      "byte": 2623,
      "ĠPBLO": 2624,
      "ĠPBHI": 2625,
      "Ġcfq": 2626,
      "Ġsectors": 2627,
      "Revision": 2628,
      "ĠJones": 2629,
      "ĠMAX": 2630,
      "Platform": 2631,
      "ĠPALO": 2632,
      "Ġagpgart": 2633,
      "reeing": 2634,
      "newide": 2635,
      "ĠDave": 2636,
      "DEVS": 2637,
      "Kbytes": 2638,
      "alpha": 2639,
      "Ġscheduler": 2640,
      "Ġactivated": 2641,
      "ĠPICH": 2642,
      "ĠMulti": 2643,
      "Ġhdwr": 2644,
      "ĠHugeTLB": 2645,
      ".<<*>>": 2646,
      ":-<*>": 2647,
      "CRO": 2648,
      "DMA": 2649,
      "Id": 2650,
      "UP": 2651,
      "_<*>.<*>.<*>'": 2652,
      "grap": 2653,
      "pto": 2654,
      "rand": 2655,
      "trr": 2656,
      "Ġem": 2657,
      "ority": 2658,
      "Ġdqu": 2659,
      "-<*>)": 2660,
      "-<*>-<*>)": 2661,
      "ised": 2662,
      "ĠCry": 2663,
      "ĠCore": 2664,
      "ents": 2665,
      "<*>/<*>/<*>": 2666,
      "ĠAPI": 2667,
      "disabled": 2668,
      "Ġak": 2669,
      "Ġboun": 2670,
      "IOTLB": 2671,
      "7041": 2672,
      "ulation": 2673,
      "Ġinitializing": 2674,
      "Ġinitialised": 2675,
      "<*>.<*>)'": 2676,
      "ĠHot": 2677,
      "Ġ(<*>-<*>-<*>)": 2678,
      "Ġ$'": 2679,
      "ĠExp": 2680,
      "pci": 2681,
      "ĠDisk": 2682,
      "ĠPriority": 2683,
      "RTUP": 2684,
      "ĠSTARTUP": 2685,
      "Ġbuffering": 2686,
      "mapper": 2687,
      "Ġ<*>/<*>/<*>": 2688,
      "SWIOTLB": 2689,
      "Ġextents": 2690,
      "CRON": 2691,
      "graphic": 2692,
      "ptographic": 2693,
      "random": 2694,
      "Ġemulation": 2695,
      "Ġdquot": 2696,
      "ĠCryptographic": 2697,
      "Ġbounce": 2698,
      "ĠTSC": 2699,
      "ĠSub": 2700,
      "Ġacro": 2701,
      "Ġinitram": 2702,
      "Ġpassed": 2703,
      "rought": 2704,
      "ĠSubsystem": 2705,
      "Ġacross": 2706,
      "Ġinitramfs": 2707,
      ".<*>'": 2708,
      "ĠInterpre": 2709,
      "ĠInterpreter": 2710,
      "Ġ>": 2711,
      "PG": 2712,
      "ĠGPG": 2713,
      "ĠAdding": 2714,
      "ive": 2715,
      "arget": 2716,
      "alm": 2717,
      "Ġass": 2718,
      "Ġassuming": 2719,
      "))": 2720,
      "175": 2721,
      "249": 2722,
      "7117": 2723,
      "977": 2724,
      "9051": 2725,
      "write": 2726,
      ".<*>))": 2727,
      "Ġ(#<*>#@#<*>#": 2728,
      "4943": 2729,
      "6935": 2730,
      "333": 2731,
      "ĠOn": 2732,
      "ĠBootdata": 2733,
      "Ġ<*>.<*>.<*>-<*>.<*>))": 2734,
      "24971": 2735,
      "977175": 2736,
      "Ġ(#<*>#@#<*>#)": 2737,
      "49436935": 2738,
      "Phy": 2739,
      "fun": 2740,
      "rtu": 2741,
      "Ġbios": 2742,
      "Ġ<*>]": 2743,
      "Ġfw": 2744,
      "ions": 2745,
      "virtu": 2746,
      "Ġhw": 2747,
      "ĠLD": 2748,
      "Ġ<*>:<*>:<*>:<*>:": 2749,
      "raid": 2750,
      "Ġasking": 2751,
      "Ġdrives": 2752,
      "slot": 2753,
      "func": 2754,
      "virtual": 2755,
      "264": 2756,
      "ĠDMI": 2757,
      "345": 2758,
      "925": 2759,
      "85925": 2760,
      "7085925": 2761,
      "1103": 2762,
      "ĠRemo": 2763,
      "tens": 2764,
      "vac": 2765,
      "Ġsupport": 2766,
      "versal": 2767,
      "ĠBuilt": 2768,
      "874": 2769,
      "ĠInterface": 2770,
      "ĠExtens": 2771,
      "ĠPrivac": 2772,
      "ĠUniversal": 2773,
      "ĠExtensions": 2774,
      "ĠPrivacy": 2775,
      "083": 2776,
      "7098": 2777,
      "957": 2778,
      "lacing": 2779,
      "order": 2780,
      "cef": 2781,
      "ĠConsole": 2782,
      "ĠCapability": 2783,
      "entry": 2784,
      "ĠSecurity": 2785,
      "ĠDentry": 2786,
      "293": 2787,
      "ĠPlacing": 2788,
      "090": 2789,
      "9288": 2790,
      "330": 2791,
      "237": 2792,
      "546083": 2793,
      "Ġselinux": 2794,
      "ĠThere": 2795,
      "ĠRemounting": 2796,
      "9578": 2797,
      "018": 2798,
      "3713": 2799,
      "licens": 2800,
      "4733": 2801,
      "5442": 2802,
      "ĠBooting": 2803,
      "eaf": 2804,
      "hat": 2805,
      "ru": 2806,
      "Ġ<": 2807,
      "<*>_<*>-": 2808,
      "ĠBru": 2809,
      "646": 2810,
      "ĠRed": 2811,
      "51646": 2812,
      "redhat": 2813,
      "ĠAllen": 2814,
      "gnu": 2815,
      "ffaa": 2816,
      "Ġ>'": 2817,
      "ĠBruce": 2818,
      "483": 2819,
      "55": 2820,
      "7519": 2821,
      "8344": 2822,
      "pen": 2823,
      "sed": 2824,
      "Ġlicens": 2825,
      "Ġmtrr": 2826,
      "1742": 2827,
      "ĠHome": 2828,
      "ĠOpen": 2829,
      "Ġparsed": 2830,
      "://#<*>#/'": 2831,
      "Ġtaints": 2832,
      "ĠttyS": 2833,
      "75193": 2834,
      "Ġlicense": 2835,
      "ĠOpened": 2836,
      "219": 2837,
      "201": 2838,
      "306": 2839,
      "387": 2840,
      "439": 2841,
      "712": 2842,
      "953": 2843,
      "922": 2844,
      "aac": 2845,
      "fed": 2846,
      "Ġit": 2847,
      "Ġfind": 2848,
      "ĠFreeing": 2849,
      "ume": 2850,
      "724": 2851,
      "ĠSerial": 2852,
      "3459": 2853,
      "ĠBrought": 2854,
      "350": 2855,
      "Ġusb": 2856,
      "526": 2857,
      "bace": 2858,
      "8431": 2859,
      "692": 2860,
      "ffc": 2861,
      "localtime": 2862,
      "ĠReal": 2863,
      "Ġ<*>-<*>:": 2864,
      "15345": 2865,
      "Ġsystems": 2866,
      "ĠLogical": 2867,
      "ĠRAMDISK": 2868,
      "7839": 2869,
      "5461": 2870,
      "6556": 2871,
      "ĠUniform": 2872,
      "NAPI": 2873,
      "cadf": 2874,
      "ĠVolume": 2875,
      "6171": 2876,
      "3878431": 2877,
      "4395": 2878,
      "92274": 2879,
      "-#<*>#@#<*>#": 2880,
      "086": 2881,
      "6778": 2882,
      "HCI": 2883,
      "May": 2884,
      "aeb": 2885,
      "ĠVFS": 2886,
      "emon": 2887,
      "Ġdm": 2888,
      "Ġdur": 2889,
      "Ġtarget": 2890,
      "cfg": 2891,
      "ĠIA": 2892,
      "ĠEHCI": 2893,
      "Ġ<*>.<*>,": 2894,
      "7276": 2895,
      "3500": 2896,
      "1809": 2897,
      "send": 2898,
      "hcd": 2899,
      "hci": 2900,
      "03264": 2901,
      "6946": 2902,
      "24850": 2903,
      "aecf": 2904,
      "Ġehci": 2905,
      "1459": 2906,
      "Ġcfg": 2907,
      "Ġsupported": 2908,
      "-#<*>#@#<*>#'": 2909,
      "0866": 2910,
      "Ġduring": 2911,
      "72761459": 2912,
      "248507": 2913,
      "506": 2914,
      "8806": 2915,
      "nabl": 2916,
      "ĠEnt": 2917,
      "ĠEnabl": 2918,
      "579": 2919,
      "Ġrunlevel": 2920,
      "ĠEntering": 2921,
      "ĠEnabling": 2922,
      "ĠInc": 2923,
      "aemon": 2924,
      "Ġdaemon": 2925,
      "ium": 2926,
      "ĠCons": 2927,
      "ortium": 2928,
      "ĠInternet": 2929,
      "ĠConsortium": 2930,
      "Ġsuit": 2931,
      "Ġsuitable": 2932,
      "213": 2933,
      "890": 2934,
      "EC": 2935,
      "fn": 2936,
      "ox": 2937,
      "udev": 2938,
      "<*>\"": 2939,
      "anox": 2940,
      "ĠTav": 2941,
      "ĠMell": 2942,
      "Ġudev": 2943,
      "Ġcreating": 2944,
      "1482": 2945,
      "Ġdevfn": 2946,
      "InfiniHost": 2947,
      "2131482": 2948,
      "89048": 2949,
      "udevsend": 2950,
      "ĠTavor": 2951,
      "ĠMellanox": 2952,
      "Ġudevd": 2953,
      "077": 2954,
      "609": 2955,
      "bfa": 2956,
      ").": 2957,
      "irect": 2958,
      "ou": 2959,
      "ĠDirect": 2960,
      "4686": 2961,
      "Ġremovable": 2962,
      "ĠDirective": 2963,
      "212": 2964,
      "3077": 2965,
      "SMA": 2966,
      "ĠIEC": 2967,
      "faf": 2968,
      "ĠMar": 2969,
      "40609": 2970,
      "Ġcmm": 2971,
      "2739": 2972,
      "85026": 2973,
      "eaff": 2974,
      "39240609": 2975,
      "SMART": 2976,
      "ĠON": 2977,
      "242": 2978,
      "812": 2979,
      "aff": 2980,
      "Ġaccess": 2981,
      "Ġreadonly": 2982,
      "2420": 2983,
      "realm": 2984,
      "Ġske": 2985,
      "Ġrejec": 2986,
      "Ġyou": 2987,
      "Ġexceeds": 2988,
      "Ġskew": 2989,
      "Ġrejected": 2990,
      "IP": 2991,
      "Ġloaded": 2992,
      "Int": 2993,
      "Intel": 2994,
      "79": 2995,
      "ped": 2996,
      "uid": 2997,
      "ceda": 2998,
      "Ġrpc": 2999,
      "rpcidmapd": 3000,
      "baf": 3001,
      "Ġreal": 3002,
      "KL": 3003,
      "key": 3004,
      "ĠVIP": 3005,
      "create": 3006,
      "keys": 3007,
      "ĠVIPKL": 3008,
      "ĠPan": 3009,
      "<*>:<*>": 3010,
      "Ġdrop": 3011,
      "if": 3012,
      "673": 3013,
      "TS": 3014,
      "Ġplease": 3015,
      "4217": 3016,
      "ĠSTATS": 3017,
      "Ġdropped": 3018,
      "ĠPanFS": 3019,
      "'t": 3020,
      "Ġguid": 3021,
      "16673": 3022,
      ":(": 3023,
      "())": 3024,
      "Ġ<*>:<*>:(": 3025,
      "Ġtrace": 3026,
      "<*>']": 3027,
      "Ġdecls": 3028,
      "ace": 3029,
      "Ġthe": 3030,
      "ERT": 3031,
      "Ġcan": 3032,
      "ited": 3033,
      "Ġexited": 3034,
      "859": 3035,
      "244": 3036,
      "common": 3037,
      "Ġturn": 3038,
      "Ġturned": 3039,
      "tage": 3040,
      "bafc": 3041,
      "684": 3042,
      "uine": 3043,
      "enuine": 3044,
      "Ġab": 3045,
      "ĠGenuine": 3046,
      "ĠGenuineIntel": 3047,
      "Ġauthentication": 3048,
      "LERT": 3049,
      "normal": 3050,
      "tate": 3051,
      "rotate": 3052,
      "ĠALERT": 3053,
      "167": 3054,
      "logrotate": 3055,
      "Ġabnormal": 3056,
      "Ġabnormally": 3057,
      "047": 3058,
      "797": 3059,
      "EMP": 3060,
      "TEMP": 3061,
      "ĠExit": 3062,
      "Reb": 3063,
      "743": 3064,
      "Reboot": 3065,
      "ĠIf": 3066,
      "cmd": 3067,
      "cmdif": 3068,
      "881": 3069,
      "smatch": 3070,
      "Ġmismatch": 3071,
      "278": 3072,
      "Ġsp": 3073,
      "min": 3074,
      "Ġused": 3075,
      "ess": 3076,
      "Ġmess": 3077,
      "Ġmax": 3078,
      "PA": 3079,
      "ĠAF": 3080,
      "Ġexiting": 3081,
      "0278": 3082,
      "]'": 3083,
      "home": 3084,
      "aration": 3085,
      "Ġ**": 3086,
      "Ġdeclaration": 3087,
      "fo": 3088,
      "128": 3089,
      "Ġshutting": 3090,
      "soc": 3091,
      "last": 3092,
      "client": 3093,
      "knal": 3094,
      "socknal": 3095,
      "116": 3096,
      "Ġ<*>>": 3097,
      "Ġ#<*>#@#<*>#": 3098,
      "8711": 3099,
      "6968": 3100,
      "716": 3101,
      "fbb": 3102,
      "/'": 3103,
      "005": 3104,
      "1128": 3105,
      "hts": 3106,
      "Ġrig": 3107,
      "Ġ<<*>": 3108,
      "isit": 3109,
      "Ġvisit": 3110,
      "196": 3111,
      "Ġinfo": 3112,
      "869": 3113,
      "dhcp": 3114,
      "331": 3115,
      "955": 3116,
      "11614": 3117,
      "Ġrights": 3118,
      "request": 3119,
      "Ġreading": 3120,
      "Ġend": 3121,
      "Ġsettings": 3122,
      "71694": 3123,
      "No": 3124,
      "put": 3125,
      "admin": 3126,
      "656": 3127,
      "Pro": 3128,
      "lustre": 3129,
      "Ġrepe": 3130,
      "941": 3131,
      "Ġmessage": 3132,
      "Ġrepeated": 3133,
      "ĠPublic": 3134,
      "ĠAuthentic": 3135,
      "ĠRO": 3136,
      "uld": 3137,
      "queue": 3138,
      "Ġget": 3139,
      "Ġmay": 3140,
      "ived": 3141,
      "ĠRece": 3142,
      "ĠReceived": 3143,
      "BIOS": 3144,
      "Error": 3145,
      "ĠLustreError": 3146,
      "asas": 3147,
      "(<*>)": 3148,
      "Ġgo": 3149,
      "Ġspace": 3150,
      "ould": 3151,
      "ach": 3152,
      "achable": 3153,
      "AS": 3154,
      "ange": 3155,
      "\")'": 3156,
      "GIN": 3157,
      "SAS": 3158,
      "kmod": 3159,
      "Ġfac": 3160,
      "Ġ(\"": 3161,
      "Ġsubdev": 3162,
      "NASAS": 3163,
      "PANASAS": 3164,
      "Ġfacility": 3165,
      "module": 3166,
      "erber": 3167,
      "ĠKerber": 3168,
      "ebd": 3169,
      "ĠKerberos": 3170,
      "bird": 3171,
      "Ġma": 3172,
      "822": 3173,
      "GT": 3174,
      "ĠTGT": 3175,
      "lict": 3176,
      "722": 3177,
      "bcca": 3178,
      "Ġconf": 3179,
      "Ġ#<*>#@#<*>#.'": 3180,
      "Ġconflict": 3181,
      "tbird": 3182,
      "Ġbut": 3183,
      "Ġ<<*>>": 3184,
      "Ġdel": 3185,
      "27629": 3186,
      "7801": 3187,
      "=<*>/": 3188,
      "OGIN": 3189,
      "eted": 3190,
      "ĠLOGIN": 3191,
      "=<*>/<*>,": 3192,
      "nam": 3193,
      "ynam": 3194,
      "Ġdynam": 3195,
      "773": 3196,
      "ecd": 3197,
      "Ġdeleted": 3198,
      "Ġdynamic": 3199,
      "Nov": 3200,
      "266": 3201,
      "4085": 3202,
      "ĠClient": 3203,
      "edb": 3204,
      "2975": 3205,
      "Ġpanasas": 3206,
      "Ġpoll": 3207,
      "MB": 3208,
      "ead": 3209,
      "head": 3210,
      "kB": 3211,
      "uct": 3212,
      "struct": 3213,
      "1703": 3214,
      "289": 3215,
      "jor": 3216,
      "yte": 3217,
      "Ġlocking": 3218,
      "ĠByte": 3219,
      "Ġrange": 3220,
      "748": 3221,
      "7416": 3222,
      "Ġmajor": 3223,
      "AMD": 3224,
      "IX": 3225,
      "NIX": 3226,
      "UNIX": 3227,
      "evel": 3228,
      "atter": 3229,
      "ĠAhead": 3230,
      "Ġvol": 3231,
      "Ġlevel": 3232,
      "ĠBatter": 3233,
      "ĠDiscre": 3234,
      "Ġloading": 3235,
      "Ġtainted": 3236,
      "ĠVoltage": 3237,
      "ĠAuthenticAMD": 3238,
      "ĠROMB": 3239,
      "408546": 3240,
      "Ġvoltage": 3241,
      "ĠBattery": 3242,
      "ĠDiscrete": 3243,
      "trace": 3244,
      "Ġreachable": 3245,
      "Ġshould": 3246,
      "Ġservers": 3247,
      "Ġadded": 3248,
      "Ġbuffer": 3249,
      "6562": 3250,
      "Ġare": 3251,
      "Ġoops": 3252,
      "NET": 3253,
      "ure": 3254,
      "ailure": 3255,
      "Ġactive": 3256,
      "cb": 3257,
      "Ġfailure": 3258,
      "402": 3259,
      "1768": 3260,
      "=<*>:": 3261,
      "EXT": 3262,
      "ken": 3263,
      "Ġ'-": 3264,
      "hich": 3265,
      "Ġwhich": 3266,
      "ute": 3267,
      "oring": 3268,
      "roken": 3269,
      "cho": 3270,
      "5982": 3271,
      "598232": 3272,
      "006": 3273,
      "Ġfl": 3274,
      "bac": 3275,
      "serio": 3276,
      "Ġreop": 3277,
      "Ġbroken": 3278,
      "<*>:<*>),": 3279,
      "INET": 3280,
      "0003": 3281,
      "Probing": 3282,
      "Ġreopening": 3283,
      "IL": 3284,
      "ill": 3285,
      "Ġyour": 3286,
      "OP": 3287,
      "ant": 3288,
      "Ġdhc": 3289,
      "ĠIgn": 3290,
      "gment": 3291,
      "Ġreque": 3292,
      "Ġ(<*>).'": 3293,
      "Ġwant": 3294,
      "498": 3295,
      "Ġsegment": 3296,
      "ccd": 3297,
      "shut": 3298,
      "4668": 3299,
      "628": 3300,
      "Ġaccepting": 3301,
      "421": 3302,
      "Ġconnections": 3303,
      "178": 3304,
      "Ġwhat": 3305,
      "Ġattached": 3306,
      "Ġthis": 3307,
      "02628": 3308,
      "<*>:<*>.": 3309,
      "Ġ**'": 3310,
      "Ġdhcpd": 3311,
      "ĠIgnoring": 3312,
      "Ġrequests": 3313,
      "shutdown": 3314,
      "466893": 3315,
      "PCI": 3316,
      "Initializing": 3317,
      "conn": 3318,
      "iate": 3319,
      "ksocknal": 3320,
      "Ġ!'": 3321,
      "route": 3322,
      "ociate": 3323,
      "associate": 3324,
      "obd": 3325,
      "locked": 3326,
      "TOP": 3327,
      "<*>)'": 3328,
      "ĠTERM": 3329,
      "ĠSTOP": 3330,
      "01188": 3331,
      "Ġ'--": 3332,
      "ait": 3333,
      "fore": 3334,
      "-<*>.<*>.<*>.": 3335,
      "Ġbefore": 3336,
      "Ġready": 3337,
      "ĠWait": 3338,
      "ran": 3339,
      "annot": 3340,
      "assword": 3341,
      "abf": 3342,
      "323": 3343,
      "897": 3344,
      "atus": 3345,
      "Ġqueue": 3346,
      "ĠPassword": 3347,
      "ports": 3348,
      "Ġstatus": 3349,
      "SELinux": 3350,
      "call": 3351,
      "sup": 3352,
      "Ġ#<*>#'": 3353,
      "supports": 3354,
      "OT": 3355,
      "ql": 3356,
      "sql": 3357,
      "ĠTran": 3358,
      "5722": 3359,
      "ON": 3360,
      "600": 3361,
      "EM": 3362,
      "NG": 3363,
      "fct": 3364,
      "my": 3365,
      "-<*>.<*>.<*>-": 3366,
      "ĠPhys": 3367,
      "690": 3368,
      "perfct": 3369,
      "Ġ<*>-<*>'": 3370,
      "mysql": 3371,
      "ĠPhysical": 3372,
      "perfctr": 3373,
      "AEM": 3374,
      "DAEM": 3375,
      "bba": 3376,
      "echo": 3377,
      "mqueue": 3378,
      "ool": 3379,
      "Ġ+": 3380,
      "als": 3381,
      "Ġneeds": 3382,
      "spool": 3383,
      "SMTP": 3384,
      "clientmqueue": 3385,
      "DAEMON": 3386,
      "Ġcannot": 3387,
      "BU": 3388,
      "di": 3389,
      "sad": 3390,
      "Ġtput": 3391,
      "omsad": 3392,
      "bo": 3393,
      "login": 3394,
      "Ġisa": 3395,
      "divert": 3396,
      "board": 3397,
      "1309": 3398,
      "130940": 3399,
      "Ġresp": 3400,
      "gid": 3401,
      "Ġnlink": 3402,
      "ĠAT": 3403,
      "Ġlef": 3404,
      "Ġkeyboard": 3405,
      "slated": 3406,
      "ĠTranslated": 3407,
      "Ġleft": 3408,
      "Ġbringup": 3409,
      "Us": 3410,
      "usbc": 3411,
      "ĠRNG": 3412,
      "ĠOK": 3413,
      "Using": 3414,
      "usbcore": 3415,
      "#<*>'": 3416,
      "364": 3417,
      "663": 3418,
      "918": 3419,
      "Boot": 3420,
      "Calibrating": 3421,
      "Failed": 3422,
      "SER": 3423,
      "YSER": 3424,
      "od": 3425,
      "ood": 3426,
      "apic": 3427,
      "ĠCritical": 3428,
      "-<*>.<*>.<*>-<*>.<*>.<*>.": 3429,
      "ĠSYSER": 3430,
      "Ġlapic": 3431,
      "ĠGood": 3432,
      "34663": 3433,
      "1205": 3434,
      "5635": 3435,
      "0966": 3436,
      "115635": 3437,
      "596": 3438,
      "Ġspec": 3439,
      "Processor": 3440,
      "ĠSYSERR": 3441,
      "0966805": 3442,
      "142": 3443,
      "Normal": 3444,
      "Ġtry": 3445,
      "Ġinput": 3446,
      "ĠBY": 3447,
      "bug": 3448,
      "PC": 3449,
      "*<*>": 3450,
      "BD": 3451,
      "bee": 3452,
      "hut": 3453,
      "Ġ<*>*<*>": 3454,
      "smp": 3455,
      "ĠSkip": 3456,
      "ĠShut": 3457,
      "debug": 3458,
      "portals": 3459,
      "ĠOBD": 3460,
      "Ġ#<*>#[<*>]:": 3461,
      "ĠShutting": 3462,
      "kill": 3463,
      "killall": 3464,
      "nfs": 3465,
      "Ġpack": 3466,
      "mounting": 3467,
      "Ġpacket": 3468,
      "TH": 3469,
      "VPA": 3470,
      "aug": 3471,
      "fce": 3472,
      "kjournald": 3473,
      "null": 3474,
      "pology": 3475,
      "ale": 3476,
      "ĠCaug": 3477,
      "Ġtopology": 3478,
      "Ġstale": 3479,
      "7417": 3480,
      "ĠDEVPA": 3481,
      "registering": 3482,
      "onse": 3483,
      "Ġresponse": 3484,
      "ĠCaught": 3485,
      "ĠDEVPATH": 3486,
      "547": 3487,
      "Attached": 3488,
      "RN": 3489,
      "megaraid": 3490,
      "473": 3491,
      "scsi": 3492,
      "WARN": 3493,
      "Ġexceeded": 3494,
      "mi": 3495,
      "ĠAC": 3496,
      "Ġstack": 3497,
      "103": 3498,
      "74881": 3499,
      "Ġ#<*>#@#<*>#'": 3500,
      "onding": 3501,
      "Ġmad": 3502,
      "usted": 3503,
      "Ġbring": 3504,
      "Ġsyslog": 3505,
      "563": 3506,
      "073": 3507,
      "IV": 3508,
      "TIV": 3509,
      "ified": 3510,
      "outing": 3511,
      "Ġgsi": 3512,
      "fbba": 3513,
      "file": 3514,
      "107073": 3515,
      "bacf": 3516,
      "Ġcmd": 3517,
      "Ġinitrd": 3518,
      "IOAPIC": 3519,
      "761": 3520,
      "acbf": 3521,
      "455": 3522,
      "82656": 3523,
      "207": 3524,
      "744": 3525,
      "Ġapic": 3526,
      "ĠIOAPIC": 3527,
      "36424": 3528,
      "Booting": 3529,
      "ĠACTIV": 3530,
      "1070732": 3531,
      "82656547": 3532,
      "ĠACTIVE": 3533,
      "ĠWARN": 3534,
      "ING": 3535,
      "Ġspecified": 3536,
      "ĠWARNING": 3537,
      "pec": 3538,
      "pected": 3539,
      "->": 3540,
      "119": 3541,
      "audit": 3542,
      "Ġhas": 3543,
      "ffff": 3544,
      "Ġmessages": 3545,
      "11931": 3546,
      "422": 3547,
      "LID": 3548,
      "Ġstill": 3549,
      "3261": 3550,
      "4223261": 3551,
      "uff": 3552,
      "ermin": 3553,
      "Ġsim": 3554,
      "ilar": 3555,
      "Ġprevious": 3556,
      "Ġrelease": 3557,
      "clean": 3558,
      "ĠUnmounting": 3559,
      "Ġskipped": 3560,
      "Ġsimilar": 3561,
      "Ġpreviously": 3562,
      "cleanup": 3563,
      "ccf": 3564,
      "ĠDetec": 3565,
      "ĠDetect": 3566,
      "472": 3567,
      "QL": 3568,
      "SQL": 3569,
      "dle": 3570,
      "Ġ<*>;": 3571,
      "install": 3572,
      "Ġtermin": 3573,
      "ĠIdle": 3574,
      "ĠMySQL": 3575,
      "9780": 3576,
      "ĠAuthentication": 3577,
      "ĠROOT": 3578,
      "Ġterminating": 3579,
      "070": 3580,
      "Ġping": 3581,
      "Ġexpected": 3582,
      "Ġtrying": 3583,
      ")[<*>]:": 3584,
      "LA": 3585,
      "afda": 3586,
      "eco": 3587,
      "ix": 3588,
      "osen": 3589,
      "urnt": 3590,
      "Ġreturnt": 3591,
      "ect": 3592,
      "upcall": 3593,
      "ĠLBU": 3594,
      "unix": 3595,
      "Ġselect": 3596,
      "osender": 3597,
      "Ġreturntosender": 3598,
      "ĠLBUG": 3599,
      "360": 3600,
      "resp": 3601,
      "ĠCA": 3602,
      "Ġeuid": 3603,
      "Ġ<*>.<*>.<*>-<*>.": 3604,
      "3607": 3605,
      "responding": 3606,
      "Ġtick": 3607,
      "Ġsome": 3608,
      "ntab": 3609,
      "crontab": 3610,
      "ifup": 3611,
      "Ġticks": 3612,
      "4486": 3613,
      "706": 3614,
      "OR": 3615,
      "SCSI": 3616,
      "Type": 3617,
      "Vendor": 3618,
      "ir": 3619,
      "ook": 3620,
      "Ġfloppy": 3621,
      "eda": 3622,
      "Ġnetfilter": 3623,
      "Ġhook": 3624,
      "Ġcap": 3625,
      "843": 3626,
      "fff": 3627,
      "996": 3628,
      "548": 3629,
      "385": 3630,
      "81446": 3631,
      "buildir": 3632,
      "ILD": 3633,
      "BUILD": 3634,
      "448662": 3635,
      "Ġhooks": 3636,
      "ĠRPC": 3637,
      "iti": 3638,
      "Ġioc": 3639,
      "056": 3640,
      "158": 3641,
      "334": 3642,
      "ED": 3643,
      "Linux": 3644,
      "NE": 3645,
      "Total": 3646,
      "bfb": 3647,
      "boot": 3648,
      "detec": 3649,
      "fer": 3650,
      "justed": 3651,
      "oad": 3652,
      "oib": 3653,
      "sur": 3654,
      "xt": 3655,
      "Ġad": 3656,
      "Ġnfs": 3657,
      "Ġpast": 3658,
      "etting": 3659,
      "ĠFOR": 3660,
      "ĠAuto": 3661,
      "Ġarr": 3662,
      "esetting": 3663,
      "eck": 3664,
      "ĠBuff": 3665,
      "ays": 3666,
      "logsur": 3667,
      "ĠResetting": 3668,
      "Ġcheck": 3669,
      "Ġnext": 3670,
      "71372": 3671,
      "ĠDONE": 3672,
      "RAMDISK": 3673,
      "ipoib": 3674,
      "Ġpermi": 3675,
      "detecting": 3676,
      "Ġadjusted": 3677,
      "ĠAutodetecting": 3678,
      "Ġarrays": 3679,
      "ĠBuffer": 3680,
      "logsurfer": 3681,
      "288": 3682,
      "481": 3683,
      "786": 3684,
      "AL": 3685,
      "BEL": 3686,
      "GE": 3687,
      "IA": 3688,
      "IMA": 3689,
      "OOT": 3690,
      "afb": 3691,
      "uz": 3692,
      "vml": 3693,
      "Ġ)'": 3694,
      "inuz": 3695,
      "Ġfast": 3696,
      "Ġdadmin": 3697,
      "ĠFRO": 3698,
      "checking": 3699,
      "Ġlustre": 3700,
      "ĠFAIL": 3701,
      "ĠNAL": 3702,
      "ĠBOOT": 3703,
      "3516": 3704,
      "Ġmem": 3705,
      "imum": 3706,
      "84455": 3707,
      "ĠRouting": 3708,
      "99392": 3709,
      "initrd": 3710,
      "Ġmaximum": 3711,
      "mysqld": 3712,
      "nfsd": 3713,
      "LABEL": 3714,
      "IMAGE": 3715,
      "vmlinuz": 3716,
      "Ġfastboot": 3717,
      "ĠFROM": 3718,
      "ĠFAILED": 3719,
      ")']": 3720,
      "mon": 3721,
      "device": 3722,
      "2262": 3723,
      "ĠMount": 3724,
      "back": 3725,
      "eab": 3726,
      "try": 3727,
      "retry": 3728,
      "ĠCould": 3729,
      "Ġmore": 3730,
      "netfs": 3731,
      "084": 3732,
      "LIN": 3733,
      "TNET": 3734,
      "reachable": 3735,
      "Ġanswers": 3736,
      "ĠFrom": 3737,
      "Ġunreachable": 3738,
      "ĠRTNET": 3739,
      "ĠUDP": 3740,
      "Ġ#<*>#:<*>'": 3741,
      "LINK": 3742,
      "ĠRTNETLINK": 3743,
      "07": 3744,
      "rg": 3745,
      "ĠSO": 3746,
      "disall": 3747,
      "Ġrealm": 3748,
      "Ġarg": 3749,
      "ese": 3750,
      "90030": 3751,
      "200": 3752,
      "Ġthese": 3753,
      "ĠThis": 3754,
      "ĠPanasas": 3755,
      "lastlog": 3756,
      "callback": 3757,
      "disallow": 3758,
      "788": 3759,
      "=-<*>": 3760,
      "CK": 3761,
      "RPC": 3762,
      "[[": 3763,
      "]]'": 3764,
      "context": 3765,
      "reate": 3766,
      "Ġfp": 3767,
      "Ġtclass": 3768,
      "Ġtcontext": 3769,
      "ump": 3770,
      "objec": 3771,
      "Ġcreate": 3772,
      "8478": 3773,
      "Ġqueueup": 3774,
      "->[[": 3775,
      "ĠSOCK": 3776,
      "=-<*>,": 3777,
      "object": 3778,
      "Ġout": 3779,
      "ĠNode": 3780,
      "606": 3781,
      "840": 3782,
      ":<*>):": 3783,
      "act": 3784,
      "ging": 3785,
      "tr": 3786,
      "{<*>": 3787,
      "ĠY": 3788,
      "<*>(": 3789,
      "attr": 3790,
      "inas": 3791,
      "usb": 3792,
      "chr": 3793,
      "340": 3794,
      "ĠPow": 3795,
      "Ġseem": 3796,
      "6252": 3797,
      "Ġthread": 3798,
      "salinas": 3799,
      "Ġgetattr": 3800,
      "070340": 3801,
      "Ġoutput": 3802,
      "{<*>}": 3803,
      "ĠPower": 3804,
      "KIL": 3805,
      "kd": 3806,
      "ication": 3807,
      "Ġlockd": 3808,
      "6829": 3809,
      "ification": 3810,
      "nfslock": 3811,
      "KILL": 3812,
      "!!'": 3813,
      "USB": 3814,
      "cbd": 3815,
      "gent": 3816,
      "ment": 3817,
      "ward": 3818,
      "Ġunt": 3819,
      "input": 3820,
      "ote": 3821,
      "ssed": 3822,
      "viron": 3823,
      "ĠAgent": 3824,
      "Ġforward": 3825,
      "change": 3826,
      "ested": 3827,
      "rootsmp": 3828,
      "Ġunex": 3829,
      "owing": 3830,
      ".']": 3831,
      "Ġmounting": 3832,
      "2077": 3833,
      "24778": 3834,
      "Ġexchange": 3835,
      "Ġenviron": 3836,
      "ĠIPv": 3837,
      "Ġuntested": 3838,
      "Ġforwarding": 3839,
      "Ġenvironment": 3840,
      "stable": 3841,
      "ĠCall": 3842,
      "Ġlon": 3843,
      ",/": 3844,
      ",<*>'": 3845,
      "-#<*>#/": 3846,
      "218": 3847,
      "NO": 3848,
      "SS": 3849,
      "dump": 3850,
      "failed": 3851,
      "fcount": 3852,
      "kport": 3853,
      "run": 3854,
      "ued": 3855,
      "vok": 3856,
      "ertion": 3857,
      "stack": 3858,
      "adce": 3859,
      "refcount": 3860,
      "Ġfffff": 3861,
      ".<*>.<*>/": 3862,
      "ername": 3863,
      "decho": 3864,
      "ĠInvok": 3865,
      "assertion": 3866,
      "ĠASS": 3867,
      "Ġportals": 3868,
      "Ġlctl": 3869,
      "Ġ==": 3870,
      "obdecho": 3871,
      "Ġusername": 3872,
      "Ġbad": 3873,
      "836": 3874,
      "Ġshowing": 3875,
      "Ġupcall": 3876,
      "ddd": 3877,
      "ION": 3878,
      "45836": 3879,
      "82548": 3880,
      "queued": 3881,
      "ERTION": 3882,
      "70663": 3883,
      "NOTLB": 3884,
      "dumpstack": 3885,
      "kportal": 3886,
      "Ġffffffff": 3887,
      "ĠInvoked": 3888,
      "ĠASSERTION": 3889,
      "ify": 3890,
      "verify": 3891,
      "Ġwrit": 3892,
      "osing": 3893,
      "und": 3894,
      "Ġverification": 3895,
      "biosverify": 3896,
      "080": 3897,
      "041": 3898,
      "254": 3899,
      "363": 3900,
      "454": 3901,
      "442": 3902,
      "552": 3903,
      "634": 3904,
      "639": 3905,
      "6107": 3906,
      "793": 3907,
      "816": 3908,
      "886": 3909,
      "969": 3910,
      "Add": 3911,
      "Copyright": 3912,
      "DIT": 3913,
      "FF": 3914,
      "Freeing": 3915,
      "Load": 3916,
      "PW": 3917,
      "RF": 3918,
      "Ser": 3919,
      "TCP": 3920,
      "Un": 3921,
      "acf": 3922,
      "dfb": 3923,
      "hw": 3924,
      "iform": 3925,
      "nel": 3926,
      "pyright": 3927,
      "ton": 3928,
      "Ġbi": 3929,
      "Ġkn": 3930,
      "err": 3931,
      "inser": 3932,
      "adb": 3933,
      "cecc": 3934,
      "Ġtun": 3935,
      "cfbbc": 3936,
      "copyright": 3937,
      "swb": 3938,
      "fdf": 3939,
      "anging": 3940,
      "ĠEDIT": 3941,
      "ortIn": 3942,
      "7273": 3943,
      "ĠChanging": 3944,
      "19254": 3945,
      "Ġinstable": 3946,
      "299": 3947,
      "ĠPortIn": 3948,
      "ĠNS": 3949,
      "ĠBut": 3950,
      "6465": 3951,
      "Ġhog": 3952,
      "untime": 3953,
      "75969": 3954,
      "ssions": 3955,
      "5273": 3956,
      "ceaf": 3957,
      "babc": 3958,
      "537": 3959,
      "5320": 3960,
      "upts": 3961,
      "630": 3962,
      "5620": 3963,
      "566107": 3964,
      "565273": 3965,
      "Ġcontroller": 3966,
      "05552": 3967,
      "ĠKey": 3968,
      "0906": 3969,
      "2258": 3970,
      "aabae": 3971,
      "6244": 3972,
      "Ġinterupts": 3973,
      "0682": 3974,
      "stalling": 3975,
      "6959": 3976,
      "ffcc": 3977,
      "fsd": 3978,
      "Ġruntime": 3979,
      "4796": 3980,
      "ebb": 3981,
      "4218": 3982,
      "1260": 3983,
      "9018": 3984,
      "982": 3985,
      "32673": 3986,
      "Ġkeyring": 3987,
      "pressed": 3988,
      "430": 3989,
      "Installing": 3990,
      "Real": 3991,
      "02927": 3992,
      "Ġ<*>/<*>'": 3993,
      "762558": 3994,
      ":[<*>": 3995,
      "IPv": 3996,
      "85960": 3997,
      "Ġgoing": 3998,
      "Ġspecial": 3999,
      "mice": 4000,
      "Ġpermissions": 4001,
      "monad": 4002,
      "Ġseems": 4003,
      "3637": 4004,
      "Adding": 4005,
      "Loading": 4006,
      "PWRF": 4007,
      "Serial": 4008,
      "Uniform": 4009,
      "neling": 4010,
      "Ġknfsd": 4011,
      "inserting": 4012,
      "Ġtunneling": 4013,
      "1925421": 4014,
      "ĠPortInfo": 4015,
      "ĠButton": 4016,
      "Ġhogging": 4017,
      "56527310": 4018,
      "Ġcontrollers": 4019,
      "6244278": 4020,
      "06825620": 4021,
      ".\"": 4022,
      "Sing": 4023,
      "ĠLosing": 4024,
      "06070": 4025,
      "Ġroute": 4026,
      "Ġbit": 4027,
      "Single": 4028,
      ");": 4029,
      "-.": 4030,
      ".#<*>#": 4031,
      "145": 4032,
      "287": 4033,
      "3046": 4034,
      "429": 4035,
      "4344": 4036,
      "416": 4037,
      "575": 4038,
      "668": 4039,
      "611": 4040,
      "6730": 4041,
      "792": 4042,
      "872": 4043,
      "972": 4044,
      "934": 4045,
      "986": 4046,
      "Built": 4047,
      "Brought": 4048,
      "Ch": 4049,
      "Console": 4050,
      "Capability": 4051,
      "Detected": 4052,
      "Memory": 4053,
      "OS": 4054,
      "On": 4055,
      "Routing": 4056,
      "Security": 4057,
      "TIN": 4058,
      "UMA": 4059,
      "ag": 4060,
      "aca": 4061,
      "arent": 4062,
      "bec": 4063,
      "car": 4064,
      "core": 4065,
      "dda": 4066,
      "driver": 4067,
      "final": 4068,
      "gic": 4069,
      "hid": 4070,
      "keeping": 4071,
      "load": 4072,
      "mailed": 4073,
      "mtrr": 4074,
      "nation": 4075,
      "rid": 4076,
      "rusted": 4077,
      "sel": 4078,
      "tal": 4079,
      "task": 4080,
      "ertu": 4081,
      "reset": 4082,
      "Ġ(#<*>#@": 4083,
      "-<*>-": 4084,
      "-<*>[<*>]:": 4085,
      "Ġtrusted": 4086,
      "ssive": 4087,
      "isk": 4088,
      "ĠCent": 4089,
      "ĠCannot": 4090,
      "cfc": 4091,
      ".<*>.<*>.": 4092,
      "fdisk": 4093,
      "using": 4094,
      "ĠDetected": 4095,
      "ĠESM": 4096,
      "ĠEcho": 4097,
      "Ġves": 4098,
      "720": 4099,
      "723": 4100,
      "725": 4101,
      "7269": 4102,
      "Ġ<*>.<*>']": 4103,
      "Ġincar": 4104,
      "<*>))": 4105,
      "295": 4106,
      "cffc": 4107,
      "cffcfc": 4108,
      "Ġ-<*>'": 4109,
      "ĠPDT": 4110,
      "ased": 4111,
      "ĠNUMA": 4112,
      "ĠBuild": 4113,
      "645": 4114,
      "eebec": 4115,
      "Ġhad": 4116,
      "394": 4117,
      "396730": 4118,
      "4958": 4119,
      "Ġbrid": 4120,
      "Ġbased": 4121,
      "52273": 4122,
      "Ġunload": 4123,
      "Ġmwa": 4124,
      "ogin": 4125,
      "abb": 4126,
      "Ġcpi": 4127,
      "841": 4128,
      "847": 4129,
      "8435": 4130,
      "ISTIN": 4131,
      "0661": 4132,
      "Ġtimekeeping": 4133,
      "99701": 4134,
      "fcb": 4135,
      "porting": 4136,
      "Ġlooks": 4137,
      "5412": 4138,
      "Ġisn": 4139,
      "426": 4140,
      "707": 4141,
      "Ġ<*>.<*>.<*>-<*>.<*>.<*>.": 4142,
      "908": 4143,
      "15636": 4144,
      "8236": 4145,
      "sparent": 4146,
      "ĠHID": 4147,
      "Ġlike": 4148,
      "9391": 4149,
      "Ġidle": 4150,
      "ĠCompressed": 4151,
      "007": 4152,
      "Ġ#<*>#-<*>-": 4153,
      "acceptor": 4154,
      "Ġapertu": 4155,
      "There": 4156,
      "defbcf": 4157,
      "0292": 4158,
      "ĠJun": 4159,
      "ĠMAIL": 4160,
      "7626": 4161,
      "PRISTIN": 4162,
      "Placing": 4163,
      "vesafb": 4164,
      "(<*>){<*>}": 4165,
      "Ġmagic": 4166,
      "7228435": 4167,
      "Ġflag": 4168,
      "ĠTransparent": 4169,
      "364792": 4170,
      "Bootdata": 4171,
      "ffffda": 4172,
      "548107": 4173,
      "Ġpermissive": 4174,
      "ĠMounted": 4175,
      "60650": 4176,
      "ĠYour": 4177,
      "Ġthreads": 4178,
      "Ġunexporting": 4179,
      "Ġwriting": 4180,
      "537990": 4181,
      "ffccb": 4182,
      ".#<*>#.": 4183,
      "429841": 4184,
      "8725412": 4185,
      "97266": 4186,
      "9348": 4187,
      "98632": 4188,
      "Checking": 4189,
      "drivers": 4190,
      "selinux": 4191,
      "talogin": 4192,
      "ĠCentOS": 4193,
      "Ġvesafb": 4194,
      "Ġincarnation": 4195,
      "Ġbridge": 4196,
      "Ġunloaded": 4197,
      "Ġmwait": 4198,
      "Ġcpio": 4199,
      "Ġaperture": 4200,
      "PRISTINE": 4201,
      "Ġflags": 4202,
      "203": 4203,
      "sock": 4204,
      "sted": 4205,
      "ĠSee": 4206,
      "Ġcommands": 4207,
      "\".'": 4208,
      "0091": 4209,
      "ANG": 4210,
      "LIA": 4211,
      "NS": 4212,
      "pping": 4213,
      "Ġgmetad": 4214,
      "ĠSto": 4215,
      "Ġ['": 4216,
      "ĠDNS": 4217,
      "ĠGANG": 4218,
      "arp": 4219,
      "Ġ<*>)']": 4220,
      "3532": 4221,
      "Ġcall": 4222,
      "#<*>#\".'": 4223,
      "Ġinode": 4224,
      "Ġlookup": 4225,
      "Ġ\"#<*>#\".'": 4226,
      "Ġevent": 4227,
      "0218": 4228,
      "ĠStopping": 4229,
      "ĠGANGLIA": 4230,
      "2323": 4231,
      "9017": 4232,
      "IMM": 4233,
      "eaa": 4234,
      "gg": 4235,
      "her": 4236,
      "man": 4237,
      "oss": 4238,
      "oid": 4239,
      "Ġestabl": 4240,
      "Ġestablished": 4241,
      "orage": 4242,
      "ible": 4243,
      "other": 4244,
      "Ġdet": 4245,
      "elow": 4246,
      "Ġanother": 4247,
      "Ġsend": 4248,
      "ails": 4249,
      "listed": 4250,
      "ĠDIMM": 4251,
      "Ġstorage": 4252,
      "icate": 4253,
      "Ġcould": 4254,
      "ĠPoss": 4255,
      "ript": 4256,
      "ests": 4257,
      "752323": 4258,
      "Ġbelow": 4259,
      "Ġsugg": 4260,
      "Ġsucceed": 4261,
      "ĠUmounting": 4262,
      "address": 4263,
      "unicate": 4264,
      "Ġavoid": 4265,
      "Ġinterfaces": 4266,
      "4250": 4267,
      "cluding": 4268,
      "Ġcause": 4269,
      "Ġbeen": 4270,
      "Ġexcluded": 4271,
      "ĠExcluding": 4272,
      "Ġ#<*>#:<*>": 4273,
      "Ġcommunicate": 4274,
      "Ġthat": 4275,
      "Ġresponding": 4276,
      "Ġlong": 4277,
      "901718": 4278,
      "Ġestablish": 4279,
      "Ġdetails": 4280,
      "Ġsends": 4281,
      "Ġcouldn": 4282,
      "ĠPossible": 4283,
      "Ġsuggests": 4284,
      "375": 4285,
      "437": 4286,
      "ART": 4287,
      "bff": 4288,
      "fcf": 4289,
      "name": 4290,
      "trip": 4291,
      "endm": 4292,
      "Ġsendm": 4293,
      "ĠATA": 4294,
      "Ġportmap": 4295,
      "Ġ-<*>).'": 4296,
      "Ġuid": 4297,
      "acity": 4298,
      "Ġcont": 4299,
      "8454": 4300,
      "2269": 4301,
      "itor": 4302,
      "itoring": 4303,
      "9173": 4304,
      "698454": 4305,
      "portmap": 4306,
      "Ġnear": 4307,
      "Ġrhost": 4308,
      "Ġruser": 4309,
      "ĠSMART": 4310,
      "ĠMonitoring": 4311,
      "Ġlogname": 4312,
      "LOGIN": 4313,
      "ĠPAM": 4314,
      "ĠRemote": 4315,
      "Ġcapable": 4316,
      "Ġcapacity": 4317,
      "monitor": 4318,
      "errno": 4319,
      "39410": 4320,
      "37538": 4321,
      "43739410": 4322,
      "Ġsendmsg": 4323,
      "Ġcontact": 4324,
      "&<*>)'": 4325,
      "435": 4326,
      "417": 4327,
      "={": 4328,
      "PT": 4329,
      "Target": 4330,
      "VOT": 4331,
      "eec": 4332,
      "fm": 4333,
      "gro": 4334,
      "wRe": 4335,
      "}'": 4336,
      "Ġdon": 4337,
      "Ġ(/": 4338,
      "Ġ(#<*>#": 4339,
      "edcf": 4340,
      "iliti": 4341,
      "ĠCapab": 4342,
      "usion": 4343,
      "ĠFwRe": 4344,
      "ĠFusion": 4345,
      "ĠIniti": 4346,
      "Ġfork": 4347,
      "ecda": 4348,
      "Ġinto": 4349,
      "ĠPorts": 4350,
      "ĠMax": 4351,
      "ĠMPT": 4352,
      "ĠNew": 4353,
      "3576": 4354,
      "=<*>.'": 4355,
      "092": 4356,
      "cdb": 4357,
      "Ġrate": 4358,
      "8875": 4359,
      "script": 4360,
      "5125": 4361,
      "escing": 4362,
      "Ġbackgro": 4363,
      "Ġquiescing": 4364,
      "Initi": 4365,
      "Ġmptbase": 4366,
      "Ġ<*>>&<*>)'": 4367,
      "ĠRPCs": 4368,
      "43517": 4369,
      "4171": 4370,
      "VOTD": 4371,
      "Ġdone": 4372,
      "Ġ(#<*>#)": 4373,
      "edcfea": 4374,
      "ilities": 4375,
      "ĠCapabilities": 4376,
      "ĠFwRev": 4377,
      "ĠInitiating": 4378,
      "ĠMaxQ": 4379,
      "Ġbackground": 4380,
      "Initiator": 4381,
      ")\"": 4382,
      "4386": 4383,
      "635": 4384,
      "983": 4385,
      "active": 4386,
      "cap": 4387,
      "rub": 4388,
      "sact": 4389,
      "Ġcustom": 4390,
      "aned": 4391,
      "cell": 4392,
      "77635": 4393,
      "Ġgid": 4394,
      "rch": 4395,
      "Ġinactive": 4396,
      "5256": 4397,
      "ĠRE": 4398,
      "6947": 4399,
      "Ġorph": 4400,
      "Ġscrub": 4401,
      "4535": 4402,
      "Ġ#<*>#.'": 4403,
      "ĠClearing": 4404,
      "Ġcancell": 4405,
      "ransact": 4406,
      "Ġcaps": 4407,
      "9838": 4408,
      "Ġorphaned": 4409,
      "Ġcancelled": 4410,
      "ransaction": 4411,
      "TY": 4412,
      "ĠTTY": 4413,
      "'\"]": 4414,
      "605": 4415,
      "671": 4416,
      "SH": 4417,
      "aon": 4418,
      "dia": 4419,
      "ient": 4420,
      "mote": 4421,
      "suff": 4422,
      "Ġsaon": 4423,
      "<*>/<*>'": 4424,
      "ĠSSH": 4425,
      "Ġreset": 4426,
      "Ġremote": 4427,
      "icient": 4428,
      "omdia": 4429,
      "357": 4430,
      "Ġcritical": 4431,
      "Ġconnec": 4432,
      "Ġ<*>.']": 4433,
      "8889": 4434,
      "Ġlater": 4435,
      "Insuff": 4436,
      "Ġagain": 4437,
      "60558": 4438,
      "omdiag": 4439,
      "Ġconnecting": 4440,
      "Insufficient": 4441,
      "7092": 4442,
      "[]:": 4443,
      "aim": 4444,
      "tec": 4445,
      "recl": 4446,
      "fba": 4447,
      "Ġmin": 4448,
      "unrecl": 4449,
      "Ġprotec": 4450,
      "337092": 4451,
      "74337092": 4452,
      "anned": 4453,
      "scanned": 4454,
      "443": 4455,
      "aimable": 4456,
      "unreclaimable": 4457,
      "Ġprotections": 4458,
      "/<*>/<*>'": 4459,
      "012": 4460,
      "749": 4461,
      "717": 4462,
      "940": 4463,
      "='": 4464,
      "CE": 4465,
      "Key": 4466,
      "LI": 4467,
      "PLA": 4468,
      "arch": 4469,
      "cn": 4470,
      "ipe": 4471,
      "lin": 4472,
      "pack": 4473,
      "sul": 4474,
      "sarp": 4475,
      "rewrite": 4476,
      "ancy": 4477,
      "Ġtransaction": 4478,
      "ĠCLI": 4479,
      "Ġpipe": 4480,
      "Ġresul": 4481,
      "<*>){<*>}": 4482,
      "1365": 4483,
      "341": 4484,
      "customize": 4485,
      "ĠBroken": 4486,
      "eebdd": 4487,
      "Ġsearch": 4488,
      ":<*>\"": 4489,
      "5677": 4490,
      ":<*>:<*>:<*>\"": 4491,
      "03717": 4492,
      "Ġ<*>:<*>:<*>:<*>:<*>:<*>\"": 4493,
      "Ġioctl": 4494,
      "ulp": 4495,
      "7313": 4496,
      "602": 4497,
      ".'\"]": 4498,
      "bfca": 4499,
      "ROR": 4500,
      "5638": 4501,
      "ĠYou": 4502,
      "Ġlonger": 4503,
      "undancy": 4504,
      "ĠREPLA": 4505,
      "01203717": 4506,
      "9407313": 4507,
      "cnf": 4508,
      "linpack": 4509,
      "Ġresulted": 4510,
      "ĠREPLACE": 4511,
      "/#<*>#": 4512,
      "4345": 4513,
      "583": 4514,
      "7409": 4515,
      "968": 4516,
      "933": 4517,
      "Mem": 4518,
      "ND": 4519,
      "from": 4520,
      "fcd": 4521,
      "Ġ]'": 4522,
      "Ġfatal": 4523,
      "Ġdump": 4524,
      "Ġts": 4525,
      "ĠFree": 4526,
      "ĠInval": 4527,
      "Ġrece": 4528,
      "Ġauth": 4529,
      "fbfcd": 4530,
      "ERROR": 4531,
      "648": 4532,
      "751": 4533,
      "7548": 4534,
      "524": 4535,
      "upply": 4536,
      "694085": 4537,
      "fcad": 4538,
      "Ġdelaying": 4539,
      "ighMem": 4540,
      "Ġ<*>).'": 4541,
      "Ġinitialization": 4542,
      "73648": 4543,
      "9480": 4544,
      "Ġsubprocess": 4545,
      "ĠHighMem": 4546,
      "419933": 4547,
      "Ġlogging": 4548,
      "679": 4549,
      "ĠRedundancy": 4550,
      "PAM": 4551,
      "Ġunexpected": 4552,
      "740979": 4553,
      "ĠInvalid": 4554,
      "Ġauths": 4555,
      "[\"": 4556,
      "ared": 4557,
      "critical": 4558,
      "023": 4559,
      "078": 4560,
      "0237": 4561,
      "112": 4562,
      "553": 4563,
      "747": 4564,
      "883": 4565,
      "8394": 4566,
      "Administrator": 4567,
      "Authentic": 4568,
      "CR": 4569,
      "HO": 4570,
      "MMA": 4571,
      "OMMA": 4572,
      "PON": 4573,
      "SE": 4574,
      "SPON": 4575,
      "WD": 4576,
      "__": 4577,
      "_#<*>#": 4578,
      "ak": 4579,
      "afd": 4580,
      "aee": 4581,
      "bre": 4582,
      "cbe": 4583,
      "for": 4584,
      "kbd": 4585,
      "mup": 4586,
      "password": 4587,
      "su": 4588,
      "test": 4589,
      "transaction": 4590,
      "uter": 4591,
      "ving": 4592,
      "war": 4593,
      "Ġ.": 4594,
      "Ġ.'": 4595,
      "Ġ__": 4596,
      "Ġ'#<*>#": 4597,
      "eren": 4598,
      "atkbd": 4599,
      "stress": 4600,
      "Ġfull": 4601,
      "ench": 4602,
      "ces": 4603,
      "isation": 4604,
      "ĠCOMMA": 4605,
      "entification": 4606,
      "ĠSea": 4607,
      "ĠSupply": 4608,
      "Ġtoo": 4609,
      "ĠDid": 4610,
      "orted": 4611,
      "Ġstop": 4612,
      "Ġreports": 4613,
      "ĠPWD": 4614,
      "ĠNO": 4615,
      "3581": 4616,
      "Ġsynchronisation": 4617,
      "Ġstring": 4618,
      "3937": 4619,
      "4921": 4620,
      "Ġusers": 4621,
      "523581": 4622,
      "Ġoption": 4623,
      "=<*>:'": 4624,
      "ows": 4625,
      "Ġcd": 4626,
      "227": 4627,
      "8702": 4628,
      "0318": 4629,
      "0332": 4630,
      "81749": 4631,
      "Ġreferen": 4632,
      "ebde": 4633,
      "700332": 4634,
      "Ġrouter": 4635,
      "Ġpressed": 4636,
      "connect": 4637,
      "ĠHCR": 4638,
      "ĠOSC": 4639,
      "Ġkeys": 4640,
      "Ġidentification": 4641,
      "Ġcleanup": 4642,
      "0854": 4643,
      "78523581": 4644,
      "Ġbusy": 4645,
      "indows": 4646,
      "://#<*>#": 4647,
      "9510": 4648,
      "ĠWindows": 4649,
      "ĠJournal": 4650,
      "Ġrequested": 4651,
      "ĠDaemon": 4652,
      "ECHO": 4653,
      "Ġaborted": 4654,
      "mysqladmin": 4655,
      "ĠSkipping": 4656,
      "Ġargument": 4657,
      "ĠKeyboard": 4658,
      "Ġcustomization": 4659,
      "rching": 4660,
      "ĠRESPON": 4661,
      "Ġreceive": 4662,
      "07881749": 4663,
      "7470318": 4664,
      "839448": 4665,
      "Authentication": 4666,
      "_#<*>#_": 4667,
      "akfix": 4668,
      "aeef": 4669,
      "breakfix": 4670,
      "force": 4671,
      "testing": 4672,
      "warmup": 4673,
      "Ġ'#<*>#[<*>]:": 4674,
      "ĠCOMMAND": 4675,
      "ĠSearching": 4676,
      "Ġreferences": 4677,
      "7003324": 4678,
      "Ġrouters": 4679,
      "://#<*>#'": 4680,
      "ĠRESPONSE": 4681,
      "+<*>'": 4682,
      "339": 4683,
      ":']": 4684,
      "aget": 4685,
      "cp": 4686,
      "rty": 4687,
      "wap": 4688,
      "Ġempt": 4689,
      "Ġ<*>+<*>'": 4690,
      "cec": 4691,
      "Ġpaget": 4692,
      "ĠSwap": 4693,
      "7713": 4694,
      "beb": 4695,
      "Ġdirty": 4696,
      "Ġunstable": 4697,
      "846": 4698,
      "627713": 4699,
      "Ġshared": 4700,
      "ffe": 4701,
      "Ġslab": 4702,
      "Ġrace": 4703,
      "eback": 4704,
      "24339": 4705,
      "Ġ<*>:<*>,": 4706,
      "Ġ<*>/<*>,": 4707,
      "Ġmapped": 4708,
      "Ġdelete": 4709,
      "Ġwriteback": 4710,
      "Ġ#<*>#:<*>\"": 4711,
      "cpu": 4712,
      "Ġempty": 4713,
      "Ġpagetables": 4714,
      "2433987": 4715,
      "\"]": 4716,
      "+<*>/<*>'": 4717,
      "183": 4718,
      "2038": 4719,
      "30": 4720,
      "316": 4721,
      "3636": 4722,
      "369": 4723,
      "484": 4724,
      "427": 4725,
      "433": 4726,
      "580": 4727,
      "513": 4728,
      "556": 4729,
      "742": 4730,
      "7649": 4731,
      "813": 4732,
      "839": 4733,
      "851": 4734,
      "984": 4735,
      ":\"": 4736,
      "=<<*>>": 4737,
      "AT": 4738,
      "BS": 4739,
      "CO": 4740,
      "CMD": 4741,
      "Dis": 4742,
      "DCO": 4743,
      "EAS": 4744,
      "EMB": 4745,
      "Failure": 4746,
      "GUID": 4747,
      "HE": 4748,
      "HW": 4749,
      "IF": 4750,
      "Im": 4751,
      "ILB": 4752,
      "Losing": 4753,
      "LEAS": 4754,
      "Net": 4755,
      "OX": 4756,
      "ORD": 4757,
      "RROR": 4758,
      "SSW": 4759,
      "UT": 4760,
      "VOR": 4761,
      "XHH": 4762,
      "Your": 4763,
      "acc": 4764,
      "ave": 4765,
      "bench": 4766,
      "cv": 4767,
      "do": 4768,
      "ddc": 4769,
      "dcdbas": 4770,
      "dundancy": 4771,
      "fter": 4772,
      "fca": 4773,
      "iving": 4774,
      "ks": 4775,
      "lace": 4776,
      "leted": 4777,
      "mar": 4778,
      "mand": 4779,
      "ode": 4780,
      "oll": 4781,
      "pm": 4782,
      "plic": 4783,
      "pared": 4784,
      "qpm": 4785,
      "rint": 4786,
      "rply": 4787,
      "server": 4788,
      "tting": 4789,
      "ual": 4790,
      "warning": 4791,
      "wall": 4792,
      "ying": 4793,
      "Ġ`": 4794,
      "Ġhel": 4795,
      "Ġob": 4796,
      "Ġright": 4797,
      "ines": 4798,
      "inode": 4799,
      "adca": 4800,
      "resen": 4801,
      "remov": 4802,
      "Ġfoll": 4803,
      "routing": 4804,
      "roadca": 4805,
      "ems": 4806,
      "Ġ(<*>,": 4807,
      "elem": 4808,
      "Ġdatabase": 4809,
      "Ġnam": 4810,
      "Ġtbird": 4811,
      "Ġspin": 4812,
      "Ġsup": 4813,
      "Ġsupply": 4814,
      "ĠTO": 4815,
      "ĠTermin": 4816,
      "ĠTHE": 4817,
      "ssue": 4818,
      "ĠCan": 4819,
      "cfb": 4820,
      "80632": 4821,
      "Ġplace": 4822,
      "Ġprint": 4823,
      "ĠSET": 4824,
      "litting": 4825,
      "Ġtoken": 4826,
      "Ġgiving": 4827,
      "ĠFailure": 4828,
      "ĠFill": 4829,
      "ĠEND": 4830,
      "ĠERROR": 4831,
      "ĠARM": 4832,
      "atest": 4833,
      "Ġrecv": 4834,
      "Ġredundancy": 4835,
      "Ġafter": 4836,
      "Ġlink": 4837,
      "Ġlines": 4838,
      "Ġlatest": 4839,
      "Ġcopy": 4840,
      "193": 4841,
      "ecified": 4842,
      "Ġinstruct": 4843,
      "Ġ(<*>),": 4844,
      "132": 4845,
      "opt": 4846,
      "ars": 4847,
      "files": 4848,
      "TAVOR": 4849,
      "ĠPlease": 4850,
      "ĠPLEAS": 4851,
      "ĠPresen": 4852,
      "Ġwall": 4853,
      "Ġweb": 4854,
      "cac": 4855,
      "355": 4856,
      "ĠSystemIm": 4857,
      "405": 4858,
      "Ġhome": 4859,
      "Ġhave": 4860,
      "493": 4861,
      "Ġboot": 4862,
      "Ġbench": 4863,
      "Ġbroadca": 4864,
      "ceaa": 4865,
      "acde": 4866,
      "acdf": 4867,
      "baa": 4868,
      "53839": 4869,
      "1891": 4870,
      "1853839": 4871,
      "Ġunit": 4872,
      "568": 4873,
      "576": 4874,
      "5768": 4875,
      "ĠKill": 4876,
      "Ġ[<*>]']": 4877,
      "ĠREM": 4878,
      "itted": 4879,
      "58568": 4880,
      "dcb": 4881,
      "Ġchassis": 4882,
      "Ġchdi": 4883,
      "Ġchars": 4884,
      "ĠInstalling": 4885,
      "Ġfreeing": 4886,
      "5151": 4887,
      "3844": 4888,
      "ftirq": 4889,
      "Ġmysql": 4890,
      "unsp": 4891,
      "exit": 4892,
      "Ġsetsock": 4893,
      "Ġissue": 4894,
      "Ġdrivers": 4895,
      "Ġscript": 4896,
      "5985": 4897,
      "4232": 4898,
      "Ġprobl": 4899,
      "Ġ<*>.<*>.<*>']": 4900,
      "Ġcommit": 4901,
      "3323": 4902,
      "Ġtftpboot": 4903,
      "MPT": 4904,
      "MPAT": 4905,
      "Ġprepared": 4906,
      "ageGUID": 4907,
      "8203": 4908,
      "8230": 4909,
      "944": 4910,
      "ĠOut": 4911,
      "ĠOUT": 4912,
      "solete": 4913,
      "softirq": 4914,
      "26742": 4915,
      "ĠStatus": 4916,
      "committed": 4917,
      "ĠCommand": 4918,
      "Ġcompleted": 4919,
      "Ġapplic": 4920,
      "Ġinstalling": 4921,
      "ĠDisconnect": 4922,
      "Ġbuying": 4923,
      "Ġthen": 4924,
      "65355": 4925,
      "Ġmanual": 4926,
      "Ġhttps": 4927,
      "ĠMAILB": 4928,
      "ĠThe": 4929,
      "ĠPASSW": 4930,
      "2641": 4931,
      "ĠRemoving": 4932,
      "licenses": 4933,
      "555151": 4934,
      "0777": 4935,
      "6092641": 4936,
      "Ġabout": 4937,
      "8815": 4938,
      "Ġsplitting": 4939,
      "ĠReceive": 4940,
      "mysqlbug": 4941,
      "adceb": 4942,
      "53764": 4943,
      "ffccc": 4944,
      "Ġcallback": 4945,
      "74911": 4946,
      "/#<*>#:": 4947,
      "Ġreceived": 4948,
      "3168": 4949,
      "363604": 4950,
      "4848": 4951,
      "4273323": 4952,
      "5135": 4953,
      "81311": 4954,
      "851180": 4955,
      "BSDCO": 4956,
      "Disconnect": 4957,
      "EMBER": 4958,
      "fcaf": 4959,
      "marks": 4960,
      "Ġhelp": 4961,
      "Ġobsolete": 4962,
      "remove": 4963,
      "Ġfollowing": 4964,
      "Ġ(<*>,<*>),": 4965,
      "Ġspine": 4966,
      "Ġsuppressed": 4967,
      "ĠTerminated": 4968,
      "Ġprintk": 4969,
      "ĠARMED": 4970,
      "Ġinstructions": 4971,
      "ĠPLEASE": 4972,
      "ĠPresence": 4973,
      "ĠSystemImageGUID": 4974,
      "Ġbenchmarks": 4975,
      "Ġbroadcasted": 4976,
      "576887": 4977,
      "ĠKilled": 4978,
      "ĠREMEMBER": 4979,
      "Ġchdir": 4980,
      "Ġmysqld": 4981,
      "unspecified": 4982,
      "Ġsetsockopt": 4983,
      "598509": 4984,
      "Ġproblems": 4985,
      "2674204": 4986,
      "Ġapplication": 4987,
      "ĠMAILBOX": 4988,
      "ĠPASSWORD": 4989,
      "BSDCOMPAT": 4990,
      "--": 4991,
      "234": 4992,
      "osi": 4993,
      "Ġ<*>.": 4994,
      "ĠTim": 4995,
      "Ġhotplug": 4996,
      ":<*>,": 4997,
      "['--": 4998,
      "ĠRebas": 4999,
      "=<*>']": 5000,
      "hald": 5001,
      "...']": 5002,
      "Ġallocation": 5003,
      "Ġallocate": 5004,
      "Ġwaiting": 5005,
      "\")']": 5006,
      "Ġbiosi": 5007,
      "23468": 5008,
      "ĠTimed": 5009,
      "ĠRebasing": 5010,
      "Ġbiosie": 5011
    },
    "merges": [
      "* >",
      "< *>",
      "Ġ <*>",
      "Ġ '",
      "e r",
      "a t",
      "s t",
      "o r",
      "i n",
      "<*> ]",
      "a d",
      "r e",
      "<*>] :",
      "Ġ f",
      ". <*>",
      "r o",
      "i b",
      "e n",
      "[ <*>]:",
      "a n",
      "e m",
      "at a",
      "Ġ<*> ,",
      "o t",
      "c e",
      "Ġ d",
      "Ġ (",
      "o n",
      "a p",
      "e d",
      "e l",
      "Ġ<*> '",
      "- <*>",
      "p s",
      "Ġd ata",
      "Ġ an",
      "a l",
      "Ġ n",
      "Ġ t",
      "Ġ s",
      "Ġ T",
      "i l",
      "m ad",
      "ro m",
      "Ġf rom",
      "s m",
      "<*> _",
      "u r",
      "s s",
      "i s",
      "Ġ C",
      "c f",
      "8 0",
      "en t",
      "em p",
      "ĠT emp",
      "en s",
      "ens or",
      "c o",
      "at u",
      "st r",
      "a il",
      "Ġ p",
      "s y",
      ".<*> .<*>",
      "<*> /",
      "i on",
      "-<*> .<*>.<*>",
      "ap ps",
      "ail ed",
      "st em",
      "s w",
      "v i",
      "v er",
      "f d",
      "er n",
      "ern el",
      "k ernel",
      "Ġ S",
      "at ion",
      "er atu",
      "ĠTemp eratu",
      "ĠTemperatu re",
      "Ġs ensor",
      "e t",
      "Ġ [",
      "u s",
      "Ġ I",
      "d e",
      "t s",
      "l i",
      "Ġt o",
      "an g",
      "7 7",
      "t h",
      "b in",
      "sy stem",
      "g m",
      "s bin",
      "o ur",
      "et ad",
      "gm etad",
      "Ġn ot",
      "<*>_ <*>/",
      "g ang",
      "-<*>.<*>.<*> /",
      "li a",
      "gang lia",
      "re ad",
      "Ġ' /",
      "our ce",
      "Ġ g",
      "s ource",
      "( )",
      "Ġan sw",
      "Ġansw er",
      "Ġg ot",
      "Ġan y",
      "9 80",
      "Ġdata source",
      "th read",
      "Ġ F",
      "Ġ D",
      "ĠI n",
      "o c",
      "vi ce",
      "a ss",
      "in i",
      "Ġ E",
      "ĠD e",
      ") :",
      "r or",
      "p d",
      "Ġ A",
      "u e",
      "Ġ v",
      "al ue",
      "Ġv alue",
      "n t",
      "u m",
      "d is",
      "or t",
      "Ġp ort",
      "o st",
      "Ġ st",
      "at e",
      "f a",
      ") '",
      "r c",
      "p in",
      ": <*>]:",
      "Ġ re",
      "Ġst ate",
      "t o",
      "Ġf ailed",
      "p ro",
      "ps pin",
      "s rc",
      "to pspin",
      "] [",
      "i c",
      "Ġf or",
      "Ġ a",
      "Ġre t",
      "c h",
      "ĠF ailed",
      "co ver",
      "ur n",
      "Ġret urn",
      "Ġ l",
      "d m",
      "e s",
      "s i",
      "Ġ on",
      "el si",
      "ĠC elsi",
      "ĠCelsi us",
      "Ġ G",
      "s n",
      "I D",
      "Ġ<*> .<*>",
      "er ver",
      "r ap",
      "7 2",
      "at or",
      "str ator",
      "ini strator",
      "dm inistrator",
      "ĠA dministrator",
      "Ġt rap",
      "m pd",
      "sn mpd",
      "ĠS er",
      "b cf",
      "v ent",
      "um ent",
      "str ument",
      "ĠIn strument",
      "ĠE vent",
      "ĠSer vice",
      "ĠInstrument ation",
      "ĠEvent ID",
      "S erver",
      "Ġl oc",
      "e er",
      "Ġp eer",
      "ĠC h",
      "Ġ<*>.<*> '",
      "Ġf d",
      "ass is",
      "ĠCh assis",
      "g re",
      "ĠDe gre",
      "ĠDegre es",
      "Ġloc ation",
      "ĠG ot",
      "Ġ co",
      "Ġ er",
      "Ġer ror",
      "Ġco de",
      "p at",
      "1 9",
      "Ġn o",
      "Ġno de",
      "cover y",
      "f b",
      "dis covery",
      "a m",
      "c l",
      "e c",
      "Ġ in",
      "<*> )",
      "h ost",
      "t er",
      "in g",
      "E R",
      "Ġ( <*>)",
      "sy s",
      "o m",
      "oc al",
      "Ġ =",
      "i d",
      "cl ass",
      "ĠDe vice",
      "2 9",
      "h el",
      "1 3",
      "ro p",
      "o p",
      "ce ss",
      "3 4",
      "<*> ):",
      "E L",
      "o b",
      "a r",
      "H ost",
      "Ġ<*> )'",
      "L ocal",
      "r hel",
      "am d",
      "( <*>):",
      "u st",
      "H H",
      "ĠT HH",
      "f il",
      "j ec",
      "fil ter",
      "c ust",
      "cust om",
      "-<*>.<*>.<*> -<*>",
      "m nt",
      "pro jec",
      "sys apps",
      "ob j",
      "-<*>.<*>.<*>-<*> /",
      "projec ts",
      "f ini",
      "fini Host",
      "T A",
      "I B",
      "ĠIn finiHost",
      "n g",
      "h ic",
      "5 19",
      "34 4",
      "cf f",
      "ĠF A",
      "TA L",
      "ĠFA TAL",
      "r ror",
      "ĠE rror",
      "pro cess",
      "Ġ -<*>",
      "ata l",
      ") )'",
      "F atal",
      "st rop",
      "ata strop",
      "ĠC atastrop",
      "ĠCatastrop hic",
      ": <*>]",
      "][ /",
      "K ER",
      "N EL",
      "P N",
      "Q PN",
      "Ġ QPN",
      "ap i",
      "dis pat",
      "fa fa",
      "Ġa id",
      "KER NEL",
      "dispat ch",
      "Ġ P",
      "r i",
      "a s",
      "Ġ M",
      "Ġ w",
      "Ġ N",
      "c a",
      "n ing",
      "Ġ B",
      "a in",
      "6 4",
      "ar ning",
      "e e",
      "3 5",
      "Ġw as",
      "y stem",
      "ĠS ystem",
      "ri t",
      "or m",
      "ic al",
      "W arning",
      "o us",
      "Ġreturn ed",
      "re vi",
      "revi ous",
      "64 35",
      "ĠP revious",
      "ĠM ain",
      "b i",
      "orm al",
      "M C",
      "ĠS ensor",
      "ĠB MC",
      "rit ical",
      "Ġn ormal",
      "C ritical",
      "f fb",
      "m bi",
      "ĠA mbi",
      "ĠN on",
      "ĠAmbi ent",
      "ee p",
      "ro n",
      "sw eep",
      "nt pd",
      "i z",
      "Ġs y",
      "Ġsy n",
      "iz ed",
      "ch ron",
      "Ġsyn chron",
      "1 80",
      "Ġ str",
      "atu m",
      "Ġsynchron ized",
      "180 0",
      "Ġstr atum",
      "Ġ -",
      "c t",
      "4 0",
      "b e",
      "Ġd i",
      "Ġ h",
      "1 6",
      "re ct",
      "Ġdi rect",
      "e st",
      "3 9",
      "u nt",
      "Ġd is",
      "1 0",
      "4 9",
      "Ġdis cover",
      "40 16",
      "10 7",
      "co unt",
      "Ġh op",
      "80 9",
      "pat h",
      "n um",
      "Ġt est",
      "7 5",
      "Ġ' <*>",
      "Ġ us",
      "Ġs e",
      "ss ion",
      "Ġus er",
      "Ġse ssion",
      "Ġ b",
      "Ġb y",
      "5 2",
      "Ġ op",
      "<*> '",
      "Ġop en",
      "fb c",
      "Ġopen ed",
      "e ce",
      "ce a",
      "ece cea",
      "h d",
      "ss hd",
      "8 6",
      "c c",
      "s h",
      "4 86",
      "Ġs sh",
      "8 3",
      "75 0",
      "83 75",
      "= <*>",
      "Ġ u",
      "a c",
      "ro ot",
      "b a",
      "5 3",
      ": <*>",
      "ĠI B",
      "C P",
      "b c",
      "ĠI N",
      "I T",
      "ĠIN IT",
      "19 7",
      "ba e",
      "ar t",
      "a y",
      "1 8",
      "Ġu n",
      "=<*> ,",
      "u p",
      "o w",
      "6 3",
      "l e",
      "1 2",
      "s en",
      "dm ail",
      "sen dmail",
      "h c",
      "[ '",
      "d hc",
      "et h",
      "dhc pd",
      "Ġ eth",
      "Ġ m",
      "Ġ vi",
      "Ġvi a",
      "ow n",
      "Ġ cl",
      ". '",
      "Ġs u",
      "o s",
      "Ġcl os",
      "Ġclos ed",
      "o g",
      "il e",
      "f i",
      "8 18",
      "a b",
      "' ]",
      "am e",
      "5 6",
      "Ġn ame",
      "Ġ c",
      "l ay",
      "H CP",
      "ĠD HCP",
      "0 5",
      "c ce",
      "63 6",
      "12 56",
      "1256 636",
      "e f",
      ":<*> :<*>",
      "<*> :",
      "l og",
      "ic k",
      "M D",
      "5 7",
      "c ron",
      "cron d",
      "Ġf ile",
      "ĠC MD",
      "i m",
      "CP I",
      "ĠA CPI",
      "t ion",
      "e as",
      "q u",
      "g er",
      "ab le",
      "ed ed",
      "Ġsu cce",
      "Ġsucce eded",
      "Ġl eas",
      "on n",
      "onn ec",
      "log ger",
      "Ġt im",
      "st art",
      "8 4",
      "Ġ K",
      "0 9",
      "el ay",
      "2 2",
      "ick start",
      "ĠK ickstart",
      "Ġ[ <*>]",
      "k n",
      "Ġre lay",
      "=<*> :<*>:<*>",
      "=<*>:<*>:<*> ,",
      "al i",
      "qu ali",
      "ct l",
      "kn own",
      "a a",
      "onnec tion",
      "Ġun known",
      "C I",
      "I S",
      "c d",
      "O V",
      "ĠP CI",
      "D IS",
      "Ġ L",
      "w or",
      "d a",
      "C OV",
      "ĠDHCP DIS",
      "COV ER",
      "ĠDHCPDIS COVER",
      "Ġ R",
      "al l",
      "4 6",
      "Ġun able",
      "i t",
      "5 8",
      "d c",
      "x in",
      "et d",
      "xin etd",
      "# <*>",
      "6 2",
      "wor k",
      "et work",
      "i g",
      "Ġin ter",
      "Ġs h",
      "0 6",
      "6 8",
      "st all",
      "#<*> #",
      "p ost",
      "9 1",
      "Ġp ri",
      "Ġf re",
      "Ġtim e",
      "pd ate",
      "Ġ ch",
      "Ġ /",
      "Ġst art",
      "ĠIn stall",
      "1 1",
      "8 7",
      "Ġ U",
      "Ġ- -",
      "0 3",
      "Ġ- >",
      "Ġleas es",
      "Ġn etwork",
      "6 9",
      "Ġus ing",
      "f f",
      "Ġfre e",
      "09 62",
      "0962 05",
      "2 7",
      "[ <*>]",
      "ĠC onnection",
      "de v",
      "S T",
      "8 1",
      "Ġch ang",
      "ad d",
      "art d",
      "u b",
      "9 9",
      "R E",
      "#<*># @",
      "a st",
      "Ġ or",
      "i st",
      "5 1",
      "9 2",
      "fi x",
      "us ed",
      "Ġ o",
      "add r",
      "sm artd",
      "E ST",
      "Q U",
      "ĠDHCP RE",
      "QU EST",
      "ĠDHCPRE QUEST",
      "f c",
      "l ocal",
      "re d",
      ".<*>.<*> ,",
      "om ain",
      "Ġl ast",
      "f s",
      "m o",
      "r y",
      "Ġstart up",
      "pin g",
      "iz e",
      "Ġs ize",
      "or y",
      "on d",
      "Ġd elay",
      "7 05",
      "s da",
      "p ort",
      "S I",
      "Ġu p",
      "R Q",
      "Ġ host",
      "on fi",
      "onfi g",
      "5 57",
      "Ġ[<*>] '",
      ".<*> :",
      "Ġd e",
      "fi ed",
      "ĠM y",
      "<*>) ,",
      "ee ping",
      "u t",
      "Ġs l",
      "Ġret ry",
      "Ġun quali",
      "Ġsl eeping",
      "Ġunquali fied",
      "Ġ class",
      "p ts",
      "3 84",
      "= #<*>#@",
      "f t",
      "Ġn rc",
      "57 384",
      "local host",
      "Ġnrc pts",
      "Ġst at",
      "re lay",
      "ail er",
      "Ġm ailer",
      "Ġre f",
      "7 81",
      "= [<*>]",
      "D ef",
      "d elay",
      "x delay",
      "Ġ ctl",
      "Ġ xdelay",
      "er red",
      "Ġd sn",
      "Ġ( <*>/",
      "=<*> .<*>.<*>,",
      "Ġ[<*>] ,",
      "705 4",
      "Ġref used",
      "Def erred",
      "Ġctl addr",
      "Ġ(<*>/ <*>),",
      "Ġsh ort",
      "sys ctl",
      "aa fa",
      "f y",
      "40 9",
      "Ġm y",
      "Ġ own",
      "Ġ quali",
      "Ġd omain",
      "68 409",
      "Ġquali fy",
      "Ġn e",
      "r up",
      "rup t",
      "ĠR e",
      "Ġ r",
      "u d",
      "ini t",
      "6 6",
      "u n",
      "Ġl o",
      "Ġde vice",
      ". .",
      "us er",
      "= <*>'",
      "ĠN o",
      "Ġa v",
      "li c",
      "4 7",
      "Ġ<*> .'",
      "e x",
      "Ġs et",
      "Ġo f",
      "ub lic",
      "Ġleas e",
      "Ġ at",
      "Ġp ublic",
      "Ġ<*> :<*>:<*>",
      "re nt",
      "ur rent",
      "Ġc urrent",
      "Ġin o",
      "Ġ i",
      "0 1",
      "ri ver",
      "i ed",
      "en ied",
      "Ġd enied",
      "in e",
      "Ġs ec",
      "Ġ kernel",
      "Ġ {",
      "Ġchang ed",
      "Ġav c",
      "8 8",
      "ur ation",
      "onfig uration",
      "r ing",
      "mo v",
      "Ġre mov",
      "Ġu pdate",
      "e b",
      "o k",
      "Ġw arning",
      "Ġlo ok",
      "Ġdirect ory",
      "Ġsu ch",
      "li m",
      "d rop",
      "p ick",
      "post fix",
      "post drop",
      "pick up",
      "5 4",
      "ig h",
      "Ġ<*>' ]",
      "v el",
      "fa ce",
      "ĠI RQ",
      "Ġre port",
      "in ce",
      "Ġs ince",
      "75 91",
      "7591 40",
      "le vel",
      "Ġm o",
      "Ġ is",
      "ĠP ro",
      "at ed",
      "Ġinter face",
      "p t",
      "Ġl ow",
      "ĠG SI",
      "Ġd river",
      "Ġ \"",
      "Ġinter rupt",
      "am p",
      "est amp",
      "d d",
      "ig n",
      "c k",
      "p er",
      "ring up",
      "22 47",
      "3 8",
      "Ġs c",
      "b ringup",
      "g es",
      "ch ed",
      "5 9",
      "hel per",
      "user helper",
      "Ġc onfiguration",
      "Ġ<*> -<*>",
      "a ched",
      "lim it",
      "b or",
      "Ġne igh",
      "Ġneigh bor",
      "9 6",
      "F S",
      "8 5",
      "Ġ init",
      "Ġsec ond",
      "<*>] '",
      "ĠRe ad",
      "Ġa cce",
      "Ġacce pt",
      "I O",
      "Ġr un",
      "F O",
      "4 2",
      "cl ud",
      "clud ed",
      "2 57",
      "= <*>]'",
      "l ine",
      "Ġin cluded",
      "ĠRead ing",
      "Ġ }",
      "Ġp id",
      "63 2",
      "Ġremov ing",
      "ab l",
      "i th",
      "Ġw ith",
      "Ġ ca",
      "Ġrun ning",
      "7 13",
      "V FS",
      "e p",
      "Ġst ep",
      "Ġp ro",
      "ex t",
      "i al",
      "<*> ,",
      "g e",
      "v ile",
      "Ġpri vile",
      "Ġprivile ges",
      "7 0",
      "a x",
      "d f",
      "li ent",
      "R D",
      "Ġs da",
      "u x",
      "fs ck",
      "a f",
      "g ist",
      "gist er",
      "Ġsh ut",
      "18 8",
      "ĠU s",
      "d own",
      "Ġsyn c",
      "59 46",
      "m ax",
      "Ġ limit",
      "Ġre ached",
      "84 713",
      "84713 188",
      "IO S",
      "/ <*>",
      "7 6",
      "I N",
      "Ġshut down",
      "ac b",
      "] :",
      "en ing",
      "M I",
      "[' /",
      "80 2",
      "Ġc lient",
      "P U",
      "ĠC PU",
      "ĠB IOS",
      "ass ign",
      "ch e",
      "f e",
      "818 7",
      "IN FO",
      "u pdate",
      "5 0",
      "ĠL ist",
      "ĠList ening",
      "Ġ<*> )",
      "gm ond",
      "Ġ k",
      "Ġc onnection",
      "<*> -",
      "r am",
      "u l",
      "ĠR RD",
      "12 0",
      "87 120",
      "77 8",
      "Ġ<*> .<*>.<*>",
      "Ġinit ial",
      "Ġb us",
      "7 3",
      "12 6",
      "09 8",
      "tion s",
      "Ġop tions",
      "Ġco m",
      "s ion",
      "Ġca che",
      "on t",
      "c de",
      "9 0",
      "g ram",
      "ĠPro gram",
      "8 64",
      "54 3",
      "6 69",
      "4 5",
      "52 7",
      "Ġset up",
      "9 8",
      "en er",
      "0 46",
      "Ġ ro",
      "1 5",
      "3 3",
      "Ġd o",
      "Ġdo es",
      "Ġt ft",
      "Ġtft p",
      "4 63",
      "t ft",
      "tft pd",
      "in k",
      "M P",
      "pd ated",
      "Ġtim estamp",
      "Ġ be",
      "r q",
      "t ed",
      "I C",
      "Ġchang e",
      "Ġp re",
      "Ġsc si",
      "X T",
      "n al",
      "our nal",
      "j ournal",
      "1 7",
      "Ġ root",
      "oc k",
      "a ge",
      "Ġinitial ized",
      "Ġw h",
      "Ġat t",
      "t im",
      "ĠE XT",
      "in ux",
      "d ate",
      "Ġne w",
      "gister ed",
      "Ġon e",
      "emp t",
      "g al",
      "m ini",
      "m um",
      "Ġ il",
      "le gal",
      "Ġwh en",
      "Ġatt empt",
      "mini mum",
      "Ġil legal",
      "Ġ ver",
      "Ġver sion",
      "Ġmo unt",
      "ĠS et",
      "ĠIn ter",
      "' \"",
      "Ġ<*> /<*>",
      "u th",
      "ent ic",
      "uth entic",
      "ri p",
      "8 2",
      "9 4",
      "ĠU S",
      "Ġ read",
      "<*> .<*>",
      "h al",
      "c ca",
      "Ġh ub",
      ":<*> .<*>:",
      "Ġ<*>-<*> :<*>.<*>:",
      "E T",
      "3 2",
      "us r",
      "Ġbe hal",
      "Ġbehal f",
      "9 06",
      "Ġp am",
      "Ġu pdated",
      "tim estamp",
      "ĠD O",
      "ĠI D",
      "W N",
      "ĠDO WN",
      ".. .",
      "2 86",
      "abl ed",
      "Ġ ;",
      "2 0",
      "0 22",
      "05 0",
      "ĠL ink",
      "Ġs w",
      "t ing",
      "Ġfile system",
      "ĠL ID",
      "Ġi de",
      "ac k",
      "P IC",
      "em ory",
      "Ġ V",
      "Ġpro cess",
      "is ion",
      "ĠS M",
      "sys init",
      "ĠG ID",
      "ĠG ener",
      "ĠGener ate",
      "5 99",
      "t t",
      "99 0",
      "c y",
      "en cy",
      ": '",
      "6 1",
      "ud it",
      "an fs",
      "N MP",
      "s p",
      "Ġ @",
      "ĠD EL",
      "ĠDEL L",
      "n o",
      "ĠP E",
      "Ġa udit",
      "c onnec",
      "Ġdis connec",
      "Ġdisconnec ted",
      ": <*>'",
      "Ġsu b",
      "Ġ H",
      "I RQ",
      "ĠInter rupt",
      "IRQ s",
      "ĠUs ing",
      "d u",
      "du le",
      "it y",
      "Ġ assign",
      "Ġassign ed",
      "8 9",
      "4 1",
      "1 77",
      "19 53",
      "ĠIn t",
      "b b",
      "Ġ( <*>",
      "Ġm emory",
      "Ġ rip",
      "Ġr sp",
      "ul t",
      ".. .'",
      "2 4",
      "ĠM o",
      "<*> .<*>:",
      "ont ext",
      "( <*>.<*>:",
      "(<*>.<*>: <*>):",
      "Ġmo de",
      "us e",
      "ĠUs er",
      "Ġsc ontext",
      "a use",
      "ec ause",
      "Ġb ecause",
      "F T",
      "K C",
      "S FT",
      "ĠM SFT",
      "ĠB KC",
      "no x",
      "a e",
      "as h",
      "9 7",
      "e y",
      "ĠS NMP",
      "ĠU pdate",
      "Ġ e",
      "Ġstart ing",
      "bin g",
      "Ġ ent",
      "ri es",
      "Ġent ries",
      "Ġ ex",
      "u g",
      "ĠF or",
      "ĠN ET",
      "03 0",
      "ĠInt el",
      "4 19",
      "log d",
      "h y",
      "7 030",
      "Ġ O",
      "Ġa uthentic",
      "29 1",
      "Ġtim er",
      "6 0",
      "ĠPro bing",
      "Ġ li",
      "Ġ journal",
      "n et",
      "ĠUS B",
      "Ġ gmond",
      "88 8",
      "t pd",
      "Ġn tpd",
      "ĠU n",
      "ĠSet ting",
      "l l",
      "Ġsub net",
      "v ar",
      "d bcf",
      "l y",
      "g fa",
      "Ġse gfa",
      "Ġsegfa ult",
      "s o",
      "C SI",
      "l ock",
      "p e",
      "Ġf e",
      "Ġl ine",
      "ĠFor ce",
      "ĠS CSI",
      "v e",
      "ack age",
      "k ing",
      "th h",
      "2 3",
      "[' <*>",
      "t es",
      "at ing",
      "0 16",
      "Ġl ost",
      "b ad",
      "<*> [<*>]:",
      "Ġcom ing",
      "Ġauthentic ated",
      "bad fe",
      "a ad",
      "ĠN ow",
      "70 53",
      "Ġk ey",
      "Ġ all",
      "Ġpre fix",
      "Ġ Local",
      "2 8",
      ".' \"",
      "= <*>)",
      "9 50",
      "C onnection",
      "16 76",
      "Ġh ash",
      "Ġt able",
      "<*> ...'",
      "ĠID E",
      "Ġf am",
      "il y",
      "co l",
      "to col",
      "ĠRe gistered",
      "Ġpro tocol",
      "Ġfam ily",
      "an a",
      "ĠM ana",
      "Ġ ...",
      "hy s",
      "d ed",
      "9 39",
      "22 6",
      "Ġi rq",
      "Ġro le",
      "Ġsw eep",
      "aa a",
      "b as",
      "m m",
      "4 53",
      "9 85",
      "7 68",
      "e fd",
      "29 768",
      "42 4",
      "Ġp hys",
      "Ġli d",
      "Ġ *",
      "Ġaccept ed",
      "O ut",
      "Ġremov ed",
      "Ġ :",
      "ĠS erver",
      "or e",
      "b f",
      "p anfs",
      "el l",
      "7 4",
      "Ġf il",
      "Ġfil es",
      "i ps",
      "wor d",
      "Ġby tes",
      "1 4",
      "up port",
      "Ġsecond s",
      "an n",
      "Ġb lock",
      "H z",
      "r a",
      "on so",
      "onso le",
      "i rq",
      "2 6",
      "d er",
      "ĠS t",
      "ĠSt art",
      "v ision",
      "80 1",
      "P S",
      "abl es",
      "st s",
      "9 16",
      "Ġch ann",
      "Ġchann el",
      "e g",
      "ro ll",
      "ont roll",
      "ontroll er",
      "co mm",
      "Ġm d",
      "Ġ Host",
      "a fa",
      "22 8",
      "76 228",
      "ĠC ontroller",
      "Ġl at",
      "ĠC onfiguration",
      "Ġs ource",
      "88 599",
      "Ġlat ency",
      "1 10",
      "7 98",
      "90 798",
      "ded c",
      "Ġstart ed",
      "e fa",
      "r v",
      "v cd",
      "in sts",
      "vcd rv",
      "insts vcdrv",
      "3 22",
      "rit e",
      "322 5",
      "D T",
      "Ġ addr",
      "cd bas",
      "Ġd cdbas",
      "at ch",
      "mo unt",
      "l ug",
      "Ġus ec",
      "Ġ(<*> )'",
      "ĠM on",
      "A PIC",
      "Ġ en",
      "U ID",
      "ĠA n",
      "ĠG UID",
      "99 18",
      "ist ing",
      "Ġex isting",
      "b er",
      "Ġs m",
      "80 5",
      "ur ity",
      "s ec",
      ": :",
      "S MI",
      "p r",
      "er pr",
      "is es",
      "ent erpr",
      ".<*>.<*> .<*>",
      "ĠSNMP v",
      "enterpr ises",
      "o un",
      "Ġan d",
      "Ġs ystem",
      "Ġl og",
      "6 03",
      "p i",
      "ac pi",
      "ĠL APIC",
      "Ġre gistered",
      "[<*>] )'",
      "p re",
      "l inux",
      "s c",
      "ĠP ackage",
      "l ib",
      "a ges",
      "ver t",
      "d ri",
      "nt p",
      "dri ft",
      "Ġmo dule",
      "ĠA PIC",
      "Ġh igh",
      "Ġ #<*>#@",
      "ĠL og",
      "i ts",
      "lim its",
      "in t",
      "0 4",
      "N MI",
      "Ġ ed",
      "Ġl int",
      "Ġed ge",
      "Ġn um",
      "Ġnum ber",
      "tt y",
      "ra ce",
      "Ġ $",
      "R O",
      "#<*># /",
      "<*> .",
      "el eas",
      "Ġs erver",
      "eleas e",
      "Ġ id",
      "80 8",
      "Ġdiscover ed",
      "Ġd own",
      "y pe",
      "Ġc onsole",
      "z on",
      "Ġ zon",
      "et filter",
      "b us",
      "/ #<*>#/",
      "Ġen abled",
      "ĠR A",
      "Ġblock s",
      "Ġdi vert",
      "7 80",
      "ĠC om",
      "0 89",
      "75 916",
      "089 75916",
      "it ing",
      "ec king",
      "Ġc ore",
      "Ġcom p",
      "ĠStart ing",
      "v al",
      "m it",
      "Ġor der",
      "Ġinter val",
      "journal d",
      "Ġmount ed",
      "ĠCom mit",
      "Ġorder ed",
      "t ern",
      "ĠF S",
      "Ġin tern",
      "Ġintern al",
      ") ,",
      "as e",
      "e am",
      "t ables",
      "Ġt eam",
      "ĠN etfilter",
      "e an",
      "4 8",
      "on f",
      "Ġ qu",
      "Ġf s",
      "w a",
      "A CPI",
      "73 0",
      "aa ca",
      "05 1",
      "Ġcl ean",
      "ut ing",
      "wa re",
      "19 1",
      "42 191",
      "990 42191",
      "3 81",
      "6 599",
      "Ġ[ /",
      "77 5",
      "Ġk journald",
      "Ġfs ck",
      "730 28",
      "381 775",
      "6599 99",
      "6 22",
      "68 88",
      "424 58",
      "p am",
      "Ġca used",
      "Ġi p",
      "110 33",
      "0 0",
      "r d",
      "Ġw rite",
      "Ġro uting",
      "7 46",
      "ĠE x",
      "p c",
      "s et",
      "ntpd ate",
      "h t",
      "2 46",
      "c ision",
      "Ġpre cision",
      "246 98",
      "5 34",
      "7 1",
      "ĠE DT",
      "<*>.<*> -",
      "ĠO ct",
      "Ġ#<*>#@ <*>.<*>-",
      "qu ency",
      "Ġfre quency",
      "ff set",
      "Ġo ffset",
      "P M",
      "c onf",
      "ĠP PM",
      "sys logd",
      "Ġp ass",
      "Ġc onfig",
      "Ġconfig u",
      "mo d",
      "Ġp an",
      "Ġloc al",
      "2 1",
      "Ġre start",
      "be a",
      "Ġ<*>.<*>.<*> :",
      "ĠP lug",
      "Ġf oun",
      "Ġfoun d",
      "g em",
      "ĠMana gem",
      "ĠManagem ent",
      "re ss",
      "ĠSystem s",
      "Ġd ue",
      "is h",
      "603 39",
      "o ps",
      "ish ed",
      "ĠD E",
      "Ġ Warning",
      "ĠMo dule",
      "s g",
      "Ġs ign",
      "Ġsign al",
      "pro c",
      "m sg",
      "et c",
      "k msg",
      "Ġ<*> .<*>.<*>,",
      "Ġk logd",
      "d omain",
      "7 01",
      "m l",
      "Ġ<*> :<*>",
      "A U",
      "F AU",
      "L T",
      "Ġprocess ing",
      "ĠDE FAU",
      "ĠDEFAU LT",
      "77 51",
      "68 7751",
      "pre fix",
      "687751 70",
      "iz ing",
      "ĠUn able",
      "h h",
      "i rd",
      "p art",
      "x hh",
      "Ġ mnt",
      "th ca",
      "th ird",
      "ml xhh",
      "part y",
      "Ġdis abled",
      "Ġ #<*>",
      "Ġ #<*>#",
      "Ġall oc",
      "ĠT race",
      "Ġu ops",
      "o MI",
      "Ġn on",
      "Ġp ages",
      "ĠB og",
      "oMI PS",
      "ĠBog oMIPS",
      "81 4",
      "EL inux",
      "an d",
      "Ġ* <*>,",
      "ĠN etwork",
      "M A",
      "L B",
      "Ġfilesystem s",
      "=<*> )'",
      "ĠUS ER",
      "s ud",
      "sud o",
      "I FO",
      "Ġb atch",
      "ĠL IFO",
      "Ġzon e",
      "Ġg ener",
      "f orm",
      "ot al",
      "9 3",
      "Ġl un",
      "tt ached",
      "Ġre vision",
      "u il",
      "ĠP RO",
      "60 814",
      "ri g",
      "et e",
      "a ed",
      "29 6",
      "l ete",
      "ern et",
      "Ġcomp lete",
      "ct i",
      "le ase",
      "64 9",
      "ĠD river",
      "09 1",
      "5 12",
      "3 10",
      "6 13",
      "ĠC le",
      "unt ing",
      "a id",
      "ar aid",
      "eg araid",
      "4 80",
      "5 11",
      "Ġ bin",
      "ce d",
      "ĠS A",
      "source s",
      "Ġre sources",
      "Ġfor ced",
      "512 50",
      "ĠCle an",
      "511 51250",
      "Ġbin d",
      "2 091",
      "n etwork",
      "2 53",
      "85 0",
      "613 70",
      "ĠA ttached",
      "49 9",
      "Ġp ar",
      "fd df",
      "ĠS ELinux",
      "c bc",
      "Ġre gister",
      "42 52",
      "1 49",
      "ĠB ring",
      "149 73",
      "ĠBring ing",
      "c onfig",
      "o l",
      "o ot",
      "c cess",
      "fe a",
      "Ġm egaraid",
      "Ġre cover",
      "35 96",
      "Ġrecover ing",
      "3596 76",
      "Ġ add",
      "6 29",
      "Ġp anfs",
      "Ġer r",
      "Ġm et",
      "82 1",
      "t e",
      "d b",
      "34 2",
      "0 8",
      "-<*> '",
      "T P",
      "h ob",
      "b da",
      "Ġm i",
      "ce pt",
      "ac cept",
      "Ġpass word",
      "7 8",
      "a uthentic",
      "Ġ ign",
      "or ed",
      "es c",
      "Ġkey word",
      "Ġconfigu re",
      "authentic ate",
      "Ġign ored",
      "rig ht",
      "y right",
      "ĠT o",
      "W A",
      "9 54",
      "Ġ ,",
      "Ġ ap",
      "Ġ<*> :<*>'",
      "Ġd esc",
      "sm ux",
      "19 954",
      "ĠM IB",
      "Ġo id",
      "ĠMana ger",
      "Ġsm ux",
      ".<*>.<*>.<*> ,",
      "Ġdesc r",
      "19954 342",
      "cess or",
      "sec urity",
      "<*> .<*>.<*>",
      "op yright",
      "= /",
      "Ġ X",
      "Ġlocal host",
      "9 38",
      "ĠC opyright",
      "ex iting",
      "il ity",
      "Ġadd ress",
      "Ġin stall",
      "R M",
      "Ġinstall ation",
      "0 64",
      "6 805",
      "B I",
      "I RM",
      "Y ast",
      "in ished",
      "ĠT BI",
      "ĠF IRM",
      "ĠF inished",
      "ĠD ell",
      "local domain",
      "82 8",
      "WA RE",
      "064 828",
      "ĠTBI RD",
      "ĠFIRM WARE",
      "ĠN TP",
      "dev el",
      "629 5",
      "ĠS MP",
      "Ġa s",
      "p ly",
      "ĠD is",
      "Ġb u",
      "92 8",
      "Ġupdate s",
      "Ġap ply",
      "ĠPro cessor",
      "5 46",
      "Ġav ail",
      "! '",
      "q ue",
      "Ġlo ad",
      "it ial",
      "itial izing",
      "it ch",
      "Ġsw itch",
      "Ġcom m",
      "Ġ<*> :",
      "i o",
      "er io",
      "at h",
      "Ġp ath",
      "er sion",
      "ĠV ersion",
      "l ink",
      "3 6",
      "ĠS upport",
      "ĠI O",
      "Ġprocess or",
      "5 72",
      "D ell",
      "p ackage",
      "s ps",
      "s upport",
      "et up",
      "ĠDe sc",
      "ĠR elease",
      "update package",
      "rip tion",
      "sps etup",
      "ĠDesc ription",
      "Ġt h",
      "b l",
      "Ġalloc ating",
      "bl k",
      "_ <*>_",
      "Ġ rhel",
      "re lease",
      "l p",
      "r ating",
      "ib rating",
      "al ibrating",
      "Ġlo op",
      "lp j",
      "G Hz",
      "T M",
      "e on",
      "Ġstep ping",
      "ĠX eon",
      "Ġs ock",
      "Ġsock et",
      "tty S",
      "ar d",
      "T LB",
      "Ġt ype",
      "ĠI P",
      "ĠM Hz",
      "k e",
      "ap ab",
      "en d",
      "L O",
      "Ġavail able",
      "R A",
      "3 1",
      "in al",
      "Ġdis k",
      "2 72",
      "<*>, <*>",
      "R C",
      "S RC",
      "l ob",
      "Ġg lob",
      "ĠIN T",
      "OV R",
      "Ġglob al",
      "P ET",
      "ĠH PET",
      "46 8",
      "ĠRA M",
      "Ġb ack",
      "Ġ al",
      "read y",
      "ar y",
      "eth ernet",
      "fix up",
      "Ġsecond ary",
      "apab ility",
      "Ġal ready",
      "Ġs o",
      "Ġdevice s",
      "o log",
      "olog y",
      "N SI",
      "ĠA NSI",
      "ft ware",
      "Ġso ftware",
      "b y",
      "d el",
      "ro ug",
      "Ġ<*>, <*>",
      "Ġs g",
      "ĠP B",
      "ĠRe v",
      "ĠMo del",
      "Ġsm artd",
      "Ġgener ic",
      "end or",
      "Ġn et",
      "Ġ* <*>'",
      "Ġnet link",
      "<*>/ <*>",
      "pro be",
      "ĠN MI",
      "6 5",
      "ĠCPU s",
      "ĠA dd",
      "uil d",
      "9 13",
      "n il",
      "ig inal",
      "Ġchang ing",
      "Ġor iginal",
      "913 3",
      "Ġd ri",
      "um ing",
      "Ġp age",
      ".<*>.<*>.<*> '",
      "in d",
      "Ġqu i",
      "a v",
      "<*>.<*> '",
      "ĠP ri",
      "ĠH at",
      "3 86",
      "Ġch ecking",
      "R T",
      "Ġs pe",
      "Ġmi ce",
      "Ġspe ed",
      "P I",
      "Ġ cf",
      "Ġ<*> -",
      "ĠIn itializing",
      "Ġ<*>.<*>.<*> -",
      "ĠMo unting",
      "Ġcl ock",
      "b uild",
      "er ing",
      "ot as",
      "Ġqu otas",
      "cti ve",
      "40 24",
      "R elease",
      "a RA",
      "an ning",
      "ĠD ate",
      "ĠM eg",
      "Ġsc anning",
      "aRA ID",
      "ĠMeg aRAID",
      "6 7",
      "g b",
      "h gb",
      "re ating",
      "Ġt sc",
      "Ġr hgb",
      "Ġqui et",
      "54 5",
      "ĠB oot",
      "17 69",
      "22 2",
      "ĠL inux",
      "62 310",
      "62310 222",
      "#<*>#@ #<*>#",
      "ĠC alibrating",
      "69 5",
      "fbc df",
      "ĠUn i",
      "e ed",
      "Ġ ib",
      "Ġ<*> !'",
      "eed ff",
      "4 52",
      "ee ad",
      "ĠT otal",
      "3 27",
      "e be",
      "ĠT ype",
      "12 327",
      "ef ebe",
      "12327 4",
      "Ġs erio",
      "ĠM ST",
      "ĠV endor",
      "89 5",
      "14 10",
      "572 9",
      "8 98",
      "77 9",
      "ĠCh ecking",
      "4 85",
      "5 58",
      "7 35",
      "er s",
      "et ers",
      "am eters",
      "64 57",
      "705 94",
      "41 4",
      "Ġpar ameters",
      "735 485",
      "v ed",
      "ĠI PS",
      "ĠE ST",
      "ca che",
      "Ġbind cache",
      "27 1",
      "04 271",
      "f ul",
      "Ġsu ccess",
      "Ġsuccess ful",
      "2 5",
      "e a",
      "80 6",
      "ce ec",
      "Ġsuccessful ly",
      "9 87",
      "ĠT op",
      "ĠTop ology",
      "85 558",
      "Ġre covery",
      "r pc",
      "< <*>",
      "Ġh ard",
      "Ġhard ware",
      ": /",
      "g et",
      "p an",
      "CP U",
      ":/ /#<*>#/",
      "l oc",
      "b d",
      "aa f",
      "ĠS TA",
      "3 7",
      ":<*> :",
      "Ġde v",
      "i dm",
      "ap d",
      "idm apd",
      "M M",
      "j ob",
      "Ġ job",
      "an ac",
      "19 22",
      "ĠU pdated",
      "Ġ<*>-<*> -<*>'",
      "anac ron",
      "4 4",
      "et ec",
      "m r",
      "9 5",
      "ĠA ctive",
      "om e",
      "on ly",
      "Ġm an",
      "Ġman y",
      "ust re",
      "4 3",
      "s er",
      "2 69",
      "que st",
      "o ut",
      "Ġopen ing",
      "82 5",
      "ĠTo o",
      "Ġre ser",
      "Ġreser ved",
      "Ġtime out",
      "84 50",
      "t or",
      "Ġsec tor",
      "<*>.<*>.<*> '",
      "i p",
      "ĠA ll",
      "sys log",
      "l ve",
      "Ġre so",
      "Ġw e",
      "938 72",
      "Ġreso lve",
      "Ġtim es",
      "Ġh tt",
      "ĠUn known",
      "Ġhtt p",
      "etec ted",
      "ER M",
      "T h",
      "87 6",
      "Ġset ting",
      "ĠP ID",
      "01 7",
      "S e",
      "ĠC li",
      "39 11",
      "ssion Th",
      "Se ssionTh",
      "ĠCli SessionTh",
      "3911 1",
      "ĠCliSessionTh read",
      "9 03",
      "<<*> >",
      "Ġp o",
      "5 017",
      "r ic",
      "58 5017",
      "Ġmet a",
      "Ġmet ric",
      "Ġd etected",
      "i de",
      "I n",
      "N A",
      "i red",
      "Ġre qu",
      "Ġrequ ired",
      "Ġbu ff",
      "11 7",
      "c ad",
      "0 2",
      "Ġ W",
      "Ġt ain",
      "ĠV ol",
      "ee a",
      "t y",
      "Ġt ty",
      "p or",
      "Ġpro be",
      "S M",
      "g n",
      "ĠN FS",
      "Ġde cl",
      "k ip",
      "ul l",
      "Ġ y",
      "Ġo ver",
      "Ġ<*>.<*>.<*> '",
      "b dd",
      "T ERM",
      "re gister",
      "S NMP",
      "s l",
      "p y",
      "p lug",
      "ot plug",
      "h otplug",
      "l op",
      "lop py",
      "62 69",
      "c re",
      "or un",
      "Ġa ut",
      "Ġaut orun",
      "Ġsy s",
      "ri de",
      "Ġ<*>.<*>.<*> -<*>",
      "Ġover ride",
      ") .'",
      "de f",
      "ed s",
      "ca b",
      "fd a",
      "Ġw a",
      "ke up",
      "Ġwa keup",
      "c ro",
      "u to",
      "Ġaddress es",
      "bas e",
      "D P",
      "r r",
      "ĠB ad",
      "on s",
      "f fa",
      "R e",
      "Ġ ...'",
      "Ġli st",
      "est abl",
      "6 17",
      "Ġs el",
      "03 8",
      "m ap",
      "ĠEx iting",
      "Ġcomm and",
      "0 29",
      "t l",
      "oc tl",
      "Ġlog ical",
      "ĠRA ID",
      "S B",
      "Ġp er",
      "as k",
      "Ġ J",
      "Ġ<*> /",
      "Ġus e",
      "ĠK ernel",
      "f loppy",
      "ĠM A",
      "im e",
      "Ġm pt",
      "Ġi f",
      "Ġex ce",
      "7 62",
      "P R",
      "P l",
      "b ca",
      "m d",
      "fa ba",
      "MD IS",
      "faba bca",
      "MDIS K",
      "e w",
      "e en",
      "i octl",
      "w een",
      "et ween",
      "Ġb etween",
      "d cd",
      "Ġ im",
      "ĠT h",
      "ĠP A",
      "ĠM emory",
      "tim e",
      "Ġim age",
      "Ġs kip",
      "establ ished",
      "w rap",
      "Ġ xinetd",
      "ro te",
      "ib wrap",
      "il ed",
      "Ġl ibwrap",
      "aa fb",
      "50 45",
      "Ġcomp iled",
      "Ġload av",
      "ĠW rote",
      "Ġloadav g",
      "b ps",
      "d og",
      "w atch",
      "or ts",
      "or por",
      "ĠC orpor",
      "ĠF ull",
      "ĠD up",
      "ĠM bps",
      "ĠN IC",
      "le x",
      "ĠL SI",
      "ĠU p",
      "watch dog",
      "ĠCorpor ation",
      "ĠDup lex",
      "K ernel",
      "p h",
      "ar ing",
      "iz ation",
      "s al",
      "or king",
      "Ġa g",
      "Ġw orking",
      "ĠStart ed",
      "d ad",
      "f st",
      "i a",
      "n c",
      "in ts",
      "sy nc",
      "Ġm ap",
      "69 49",
      "Ġgener ated",
      "Ġpo ints",
      "fst ab",
      "a fc",
      "d ata",
      "Ġre quest",
      "Ġno w",
      "13 0",
      "bi os",
      "01 130",
      "Ġ: :",
      ": [",
      "s ent",
      "Ġpre sent",
      "R ed",
      "S DP",
      "g cc",
      "p ages",
      "Ġ )",
      "at d",
      "st atd",
      "re e",
      "Ġt otal",
      "ĠT ue",
      "vi ded",
      "pro vided",
      "Ġin form",
      "ĠL ustre",
      "ĠR SDP",
      "Ġo k",
      "Ġphys ical",
      "comm and",
      "Ġconfigu red",
      "Ġmpt able",
      "Ġtotal pages",
      "Ġinform ation",
      "t u",
      "v es",
      "Ġt ask",
      "de c",
      "ĠDis abled",
      "n ew",
      "Ġt ables",
      "ĠD a",
      "Ġb ase",
      "Ġmode s",
      "MA DT",
      "S W",
      "el ist",
      "39 2",
      "27 3",
      "Ġzon elist",
      "uil t",
      "Ġzonelist s",
      "8 53",
      "G A",
      "S C",
      "l our",
      "r ame",
      "Ġ<*> <*>'",
      "er e",
      "Ġf rame",
      "ĠT LB",
      "ĠC reating",
      "ĠS ca",
      "Ġco lour",
      "ec urity",
      "))' ]",
      "ĠP S",
      "ĠB ind",
      "Ġsynchron ization",
      "ac ing",
      "Ġc apability",
      "ef f",
      "ĠL SM",
      "62 4",
      "ff ol",
      "ĠRe gister",
      "Ġsec urity",
      "Ġsw ap",
      "ĠV GA",
      "ĠTo pspin",
      "Ġth roug",
      "ĠAdd ress",
      "Ġdri ve",
      "8450 8",
      "Ġlist ening",
      "Ġframe work",
      "ĠSca ffol",
      "ĠRegister ing",
      "Ġthroug h",
      "ĠScaffol d",
      "3 18",
      "r ation",
      "Ġ ext",
      "Ġd ec",
      "li ce",
      "Ġm ig",
      "Ġm sec",
      "Ġc uto",
      "Ġusec s",
      "Ġtimes lice",
      "318 92",
      "Ġdec ay",
      "Ġmig ration",
      "Ġmsec s",
      "Ġcuto ff",
      "4 57",
      "9 29",
      "D E",
      "H I",
      "K S",
      "K by",
      "M Hz",
      "P V",
      "V S",
      "b ce",
      "b bc",
      "d w",
      "g art",
      "p gart",
      "u ge",
      "v ated",
      "x x",
      "z e",
      "at form",
      "Ġ( <*>.<*>",
      "on es",
      "al ph",
      "Ġs ched",
      "ĠT CP",
      "ĠT ime",
      "ss uming",
      "ĠC lock",
      "Ġp orts",
      "et s",
      "ĠA ssuming",
      "Ġa cti",
      "si ze",
      "ID E",
      "Ġ<*>.<*> .",
      "ĠP IO",
      "ĠP IC",
      "ĠM B",
      "ĠM D",
      "ĠM ult",
      "ĠB P",
      "ous e",
      "Ġh dw",
      "Ġun used",
      "Ġm ouse",
      "22 4",
      "DIS KS",
      "ĠR em",
      "Ġsh aring",
      "Ġfre ed",
      "ĠRe vision",
      "Ġi o",
      "ck ets",
      "ul er",
      "Ġide bus",
      "ĠV PR",
      "Ġsub system",
      "ĠH ash",
      "ĠH uge",
      "Ġblock size",
      "ĠLog ic",
      "Ġalloc ated",
      "Ġbu ckets",
      "Ġcomm on",
      "Ġprocessor s",
      "ĠIP sec",
      "Ġdisk s",
      "by te",
      "ĠPB LO",
      "ĠPB HI",
      "Ġcf q",
      "Ġsector s",
      "Re vision",
      "ĠJ ones",
      "ĠMA X",
      "Pl atform",
      "ĠPA LO",
      "Ġag pgart",
      "ree ing",
      "new ide",
      "ĠDa ve",
      "DE VS",
      "Kby tes",
      "alph a",
      "Ġsched uler",
      "Ġacti vated",
      "ĠPIC H",
      "ĠMult i",
      "Ġhdw r",
      "ĠHuge TLB",
      ". <<*>>",
      ": -<*>",
      "C RO",
      "D MA",
      "I d",
      "U P",
      "_ <*>.<*>.<*>'",
      "g rap",
      "p to",
      "r and",
      "t rr",
      "Ġ em",
      "or ity",
      "Ġd qu",
      "-<*> )",
      "-<*> -<*>)",
      "is ed",
      "ĠC ry",
      "ĠC ore",
      "ent s",
      "<*>/ <*>/<*>",
      "ĠA PI",
      "dis abled",
      "Ġa k",
      "Ġb oun",
      "IO TLB",
      "70 41",
      "ul ation",
      "Ġinitial izing",
      "Ġinitial ised",
      "<*>.<*> )'",
      "ĠH ot",
      "Ġ(<*> -<*>-<*>)",
      "Ġ$ '",
      "ĠEx p",
      "pc i",
      "ĠDis k",
      "ĠPri ority",
      "RT UP",
      "ĠSTA RTUP",
      "Ġbuff ering",
      "map per",
      "Ġ<*>/ <*>/<*>",
      "SW IOTLB",
      "Ġext ents",
      "CRO N",
      "grap hic",
      "pto graphic",
      "rand om",
      "Ġem ulation",
      "Ġdqu ot",
      "ĠCry ptographic",
      "Ġboun ce",
      "ĠT SC",
      "ĠS ub",
      "Ġa cro",
      "Ġinit ram",
      "Ġpass ed",
      "roug ht",
      "ĠSub system",
      "Ġacro ss",
      "Ġinitram fs",
      ".<*> '",
      "ĠInter pre",
      "ĠInterpre ter",
      "Ġ >",
      "P G",
      "ĠG PG",
      "ĠAdd ing",
      "i ve",
      "ar get",
      "al m",
      "Ġ ass",
      "Ġass uming",
      ") )",
      "1 75",
      "2 49",
      "7 117",
      "9 77",
      "9 051",
      "w rite",
      ".<*> ))",
      "Ġ( #<*>#@#<*>#",
      "49 43",
      "69 35",
      "33 3",
      "ĠO n",
      "ĠBoot data",
      "Ġ<*>.<*>.<*>-<*> .<*>))",
      "249 71",
      "977 175",
      "Ġ(#<*>#@#<*># )",
      "4943 6935",
      "P hy",
      "f un",
      "r tu",
      "Ġ bios",
      "Ġ<*> ]",
      "Ġf w",
      "ion s",
      "vi rtu",
      "Ġh w",
      "ĠL D",
      "Ġ<*>:<*>:<*> :<*>:",
      "ra id",
      "Ġas king",
      "Ġdri ves",
      "sl ot",
      "fun c",
      "virtu al",
      "2 64",
      "ĠD MI",
      "34 5",
      "92 5",
      "85 925",
      "70 85925",
      "110 3",
      "ĠRem o",
      "t ens",
      "v ac",
      "Ġs upport",
      "ver sal",
      "ĠB uilt",
      "87 4",
      "ĠInter face",
      "ĠEx tens",
      "ĠPri vac",
      "ĠUni versal",
      "ĠExtens ions",
      "ĠPrivac y",
      "0 83",
      "7 098",
      "9 57",
      "l acing",
      "or der",
      "ce f",
      "ĠC onsole",
      "ĠC apability",
      "ent ry",
      "ĠS ecurity",
      "ĠD entry",
      "29 3",
      "ĠP lacing",
      "09 0",
      "92 88",
      "33 0",
      "23 7",
      "546 083",
      "Ġsel inux",
      "ĠTh ere",
      "ĠRemo unting",
      "957 8",
      "0 18",
      "3 713",
      "lic ens",
      "47 33",
      "54 42",
      "ĠBoot ing",
      "e af",
      "h at",
      "r u",
      "Ġ <",
      "<*>_ <*>-",
      "ĠB ru",
      "64 6",
      "ĠR ed",
      "51 646",
      "red hat",
      "ĠAll en",
      "gn u",
      "ffa a",
      "Ġ> '",
      "ĠBru ce",
      "4 83",
      "5 5",
      "7 519",
      "8 344",
      "p en",
      "s ed",
      "Ġ licens",
      "Ġm trr",
      "17 42",
      "ĠH ome",
      "ĠO pen",
      "Ġpar sed",
      "://#<*>#/ '",
      "Ġtain ts",
      "Ġtty S",
      "7519 3",
      "Ġlicens e",
      "ĠOpen ed",
      "2 19",
      "2 01",
      "3 06",
      "3 87",
      "4 39",
      "7 12",
      "9 53",
      "9 22",
      "a ac",
      "f ed",
      "Ġ it",
      "Ġf ind",
      "ĠF reeing",
      "um e",
      "72 4",
      "ĠSer ial",
      "34 59",
      "ĠB rought",
      "35 0",
      "Ġus b",
      "52 6",
      "ba ce",
      "84 31",
      "69 2",
      "ff c",
      "local time",
      "ĠRe al",
      "Ġ<*>-<*> :",
      "15 345",
      "Ġsystem s",
      "ĠLog ical",
      "ĠRA MDISK",
      "78 39",
      "546 1",
      "65 56",
      "ĠUni form",
      "NA PI",
      "cad f",
      "ĠVol ume",
      "617 1",
      "387 8431",
      "439 5",
      "922 74",
      "- #<*>#@#<*>#",
      "0 86",
      "6 778",
      "H CI",
      "M ay",
      "a eb",
      "Ġ VFS",
      "em on",
      "Ġd m",
      "Ġd ur",
      "Ġt arget",
      "cf g",
      "ĠI A",
      "ĠE HCI",
      "Ġ<*>.<*> ,",
      "72 76",
      "35 00",
      "180 9",
      "sen d",
      "hc d",
      "hc i",
      "03 264",
      "69 46",
      "24 850",
      "ae cf",
      "Ġe hci",
      "14 59",
      "Ġcf g",
      "Ġsupport ed",
      "-#<*>#@#<*># '",
      "086 6",
      "Ġdur ing",
      "7276 1459",
      "24850 7",
      "5 06",
      "8 806",
      "n abl",
      "ĠE nt",
      "ĠE nabl",
      "57 9",
      "Ġrun level",
      "ĠEnt ering",
      "ĠEnabl ing",
      "ĠIn c",
      "a emon",
      "Ġd aemon",
      "i um",
      "ĠC ons",
      "ort ium",
      "ĠInt ernet",
      "ĠCons ortium",
      "Ġsu it",
      "Ġsuit able",
      "2 13",
      "8 90",
      "E C",
      "f n",
      "o x",
      "u dev",
      "<*> \"",
      "an ox",
      "ĠT av",
      "ĠM ell",
      "Ġu dev",
      "Ġc reating",
      "14 82",
      "Ġdev fn",
      "In finiHost",
      "213 1482",
      "890 48",
      "udev send",
      "ĠTav or",
      "ĠMell anox",
      "Ġudev d",
      "0 77",
      "6 09",
      "b fa",
      ") .",
      "i rect",
      "o u",
      "ĠD irect",
      "46 86",
      "Ġremov able",
      "ĠDirect ive",
      "2 12",
      "3 077",
      "S MA",
      "ĠI EC",
      "fa f",
      "ĠM ar",
      "40 609",
      "Ġc mm",
      "27 39",
      "850 26",
      "ea ff",
      "392 40609",
      "SMA RT",
      "ĠO N",
      "2 42",
      "8 12",
      "a ff",
      "Ġa ccess",
      "Ġread only",
      "242 0",
      "re alm",
      "Ġs ke",
      "Ġre jec",
      "Ġy ou",
      "Ġexce eds",
      "Ġske w",
      "Ġrejec ted",
      "I P",
      "Ġload ed",
      "I nt",
      "Int el",
      "7 9",
      "p ed",
      "u id",
      "ce da",
      "Ġr pc",
      "rpc idmapd",
      "ba f",
      "Ġre al",
      "K L",
      "k ey",
      "ĠV IP",
      "cre ate",
      "key s",
      "ĠVIP KL",
      "ĠP an",
      "<*> :<*>",
      "Ġd rop",
      "i f",
      "6 73",
      "T S",
      "Ġp lease",
      "42 17",
      "ĠSTA TS",
      "Ġdrop ped",
      "ĠPan FS",
      "' t",
      "Ġg uid",
      "16 673",
      ": (",
      "() )",
      "Ġ<*>:<*> :(",
      "Ġt race",
      "<*>' ]",
      "Ġdecl s",
      "a ce",
      "Ġth e",
      "ER T",
      "Ġc an",
      "it ed",
      "Ġex ited",
      "8 59",
      "24 4",
      "comm on",
      "Ġt urn",
      "Ġturn ed",
      "t age",
      "ba fc",
      "6 84",
      "u ine",
      "en uine",
      "Ġa b",
      "ĠG enuine",
      "ĠGenuine Intel",
      "Ġauthentic ation",
      "L ERT",
      "n ormal",
      "t ate",
      "ro tate",
      "ĠA LERT",
      "16 7",
      "log rotate",
      "Ġab normal",
      "Ġabnormal ly",
      "0 47",
      "7 97",
      "E MP",
      "T EMP",
      "ĠEx it",
      "R eb",
      "74 3",
      "Reb oot",
      "ĠI f",
      "c md",
      "cmd if",
      "8 81",
      "sm atch",
      "Ġmi smatch",
      "27 8",
      "Ġs p",
      "m in",
      "Ġus ed",
      "e ss",
      "Ġm ess",
      "Ġm ax",
      "P A",
      "ĠA F",
      "Ġex iting",
      "0 278",
      "] '",
      "h ome",
      "ar ation",
      "Ġ* *",
      "Ġdecl aration",
      "f o",
      "12 8",
      "Ġshut ting",
      "s oc",
      "l ast",
      "c lient",
      "kn al",
      "soc knal",
      "1 16",
      "Ġ<*> >",
      "Ġ#<*>#@ #<*>#",
      "87 11",
      "69 68",
      "7 16",
      "fb b",
      "/ '",
      "0 05",
      "1 128",
      "h ts",
      "Ġ rig",
      "Ġ <<*>",
      "is it",
      "Ġv isit",
      "19 6",
      "Ġin fo",
      "86 9",
      "dhc p",
      "33 1",
      "95 5",
      "116 14",
      "Ġrig hts",
      "re quest",
      "Ġread ing",
      "Ġen d",
      "Ġsetting s",
      "716 94",
      "N o",
      "p ut",
      "ad min",
      "6 56",
      "P ro",
      "l ustre",
      "Ġre pe",
      "94 1",
      "Ġmess age",
      "Ġrepe ated",
      "ĠP ublic",
      "ĠA uthentic",
      "ĠR O",
      "ul d",
      "que ue",
      "Ġg et",
      "Ġm ay",
      "i ved",
      "ĠR ece",
      "ĠRece ived",
      "B IOS",
      "E rror",
      "ĠLustre Error",
      "as as",
      "( <*>)",
      "Ġg o",
      "Ġsp ace",
      "o uld",
      "a ch",
      "ach able",
      "A S",
      "ang e",
      "\" )'",
      "G IN",
      "S AS",
      "k mod",
      "Ġf ac",
      "Ġ( \"",
      "Ġsub dev",
      "NA SAS",
      "PA NASAS",
      "Ġfac ility",
      "mo dule",
      "er ber",
      "ĠK erber",
      "eb d",
      "ĠKerber os",
      "bi rd",
      "Ġm a",
      "8 22",
      "G T",
      "ĠT GT",
      "li ct",
      "72 2",
      "bc ca",
      "Ġc onf",
      "Ġ#<*>#@#<*># .'",
      "Ġconf lict",
      "t bird",
      "Ġb ut",
      "Ġ <<*>>",
      "Ġd el",
      "27 629",
      "7 801",
      "= <*>/",
      "O GIN",
      "et ed",
      "ĠL OGIN",
      "=<*>/ <*>,",
      "n am",
      "y nam",
      "Ġd ynam",
      "77 3",
      "ec d",
      "Ġdel eted",
      "Ġdynam ic",
      "No v",
      "2 66",
      "40 85",
      "ĠC lient",
      "ed b",
      "29 75",
      "Ġpan asas",
      "Ġpo ll",
      "M B",
      "e ad",
      "h ead",
      "k B",
      "u ct",
      "str uct",
      "17 03",
      "2 89",
      "j or",
      "y te",
      "Ġloc king",
      "ĠB yte",
      "Ġr ange",
      "74 8",
      "74 16",
      "Ġma jor",
      "A MD",
      "I X",
      "N IX",
      "U NIX",
      "e vel",
      "at ter",
      "ĠA head",
      "Ġv ol",
      "Ġl evel",
      "ĠB atter",
      "ĠDis cre",
      "Ġload ing",
      "Ġtain ted",
      "ĠVol tage",
      "ĠAuthentic AMD",
      "ĠRO MB",
      "4085 46",
      "Ġvol tage",
      "ĠBatter y",
      "ĠDiscre te",
      "t race",
      "Ġre achable",
      "Ġsh ould",
      "Ġserver s",
      "Ġadd ed",
      "Ġbuff er",
      "656 2",
      "Ġa re",
      "Ġo ops",
      "N ET",
      "u re",
      "ail ure",
      "Ġa ctive",
      "c b",
      "Ġf ailure",
      "40 2",
      "17 68",
      "=<*> :",
      "E XT",
      "k en",
      "Ġ' -",
      "hic h",
      "Ġw hich",
      "ut e",
      "or ing",
      "ro ken",
      "ch o",
      "59 82",
      "5982 32",
      "0 06",
      "Ġf l",
      "b ac",
      "s erio",
      "Ġre op",
      "Ġb roken",
      "<*>: <*>),",
      "IN ET",
      "00 03",
      "Pro bing",
      "Ġreop ening",
      "I L",
      "il l",
      "Ġy our",
      "O P",
      "an t",
      "Ġd hc",
      "ĠI gn",
      "gm ent",
      "Ġre que",
      "Ġ(<*>) .'",
      "Ġw ant",
      "49 8",
      "Ġse gment",
      "cc d",
      "sh ut",
      "46 68",
      "62 8",
      "Ġaccept ing",
      "42 1",
      "Ġconnection s",
      "17 8",
      "Ġwh at",
      "Ġatt ached",
      "Ġth is",
      "02 628",
      "<*>:<*> .",
      "Ġ** '",
      "Ġdhc pd",
      "ĠIgn oring",
      "Ġreque sts",
      "shut down",
      "4668 93",
      "P CI",
      "In itializing",
      "c onn",
      "i ate",
      "k socknal",
      "Ġ !'",
      "ro ute",
      "oc iate",
      "ass ociate",
      "ob d",
      "lock ed",
      "T OP",
      "<*> )'",
      "ĠT ERM",
      "ĠS TOP",
      "01 188",
      "Ġ'- -",
      "a it",
      "f ore",
      "-<*>.<*>.<*> .",
      "Ġbe fore",
      "Ġread y",
      "ĠW ait",
      "r an",
      "ann ot",
      "ass word",
      "ab f",
      "32 3",
      "89 7",
      "atu s",
      "Ġ queue",
      "ĠP assword",
      "por ts",
      "Ġst atus",
      "S ELinux",
      "c all",
      "s up",
      "Ġ#<*># '",
      "sup ports",
      "O T",
      "q l",
      "s ql",
      "ĠT ran",
      "572 2",
      "O N",
      "60 0",
      "E M",
      "N G",
      "f ct",
      "m y",
      "-<*>.<*>.<*> -",
      "ĠP hys",
      "69 0",
      "per fct",
      "Ġ<*>-<*> '",
      "my sql",
      "ĠPhys ical",
      "perfct r",
      "A EM",
      "D AEM",
      "b ba",
      "e cho",
      "m queue",
      "o ol",
      "Ġ +",
      "al s",
      "Ġne eds",
      "sp ool",
      "SM TP",
      "client mqueue",
      "DAEM ON",
      "Ġc annot",
      "B U",
      "d i",
      "s ad",
      "Ġt put",
      "om sad",
      "b o",
      "log in",
      "Ġis a",
      "di vert",
      "bo ard",
      "13 09",
      "1309 40",
      "Ġre sp",
      "g id",
      "Ġn link",
      "ĠA T",
      "Ġl ef",
      "Ġkey board",
      "sl ated",
      "ĠTran slated",
      "Ġlef t",
      "Ġb ringup",
      "U s",
      "us bc",
      "ĠR NG",
      "ĠO K",
      "Us ing",
      "usbc ore",
      "# <*>'",
      "3 64",
      "6 63",
      "9 18",
      "B oot",
      "C alibrating",
      "F ailed",
      "S ER",
      "Y SER",
      "o d",
      "o od",
      "ap ic",
      "ĠC ritical",
      "-<*>.<*>.<*> -<*>.<*>.<*>.",
      "ĠS YSER",
      "Ġl apic",
      "ĠG ood",
      "34 663",
      "12 05",
      "56 35",
      "09 66",
      "11 5635",
      "59 6",
      "Ġsp ec",
      "Pro cessor",
      "ĠSYSER R",
      "0966 805",
      "1 42",
      "N ormal",
      "Ġt ry",
      "Ġin put",
      "ĠB Y",
      "b ug",
      "P C",
      "* <*>",
      "B D",
      "b ee",
      "h ut",
      "Ġ<*> *<*>",
      "sm p",
      "ĠS kip",
      "ĠS hut",
      "de bug",
      "port als",
      "ĠO BD",
      "Ġ#<*># [<*>]:",
      "ĠShut ting",
      "k ill",
      "kill all",
      "n fs",
      "Ġp ack",
      "mount ing",
      "Ġpack et",
      "T H",
      "V PA",
      "a ug",
      "f ce",
      "k journald",
      "n ull",
      "p ology",
      "al e",
      "ĠC aug",
      "Ġto pology",
      "Ġst ale",
      "74 17",
      "ĠDE VPA",
      "register ing",
      "ons e",
      "Ġresp onse",
      "ĠCaug ht",
      "ĠDEVPA TH",
      "5 47",
      "A ttached",
      "R N",
      "m egaraid",
      "47 3",
      "sc si",
      "WA RN",
      "Ġexce eded",
      "m i",
      "ĠA C",
      "Ġst ack",
      "10 3",
      "74 881",
      "Ġ#<*>#@#<*># '",
      "ond ing",
      "Ġ mad",
      "ust ed",
      "Ġb ring",
      "Ġsys log",
      "5 63",
      "0 73",
      "I V",
      "T IV",
      "i fied",
      "o uting",
      "Ġg si",
      "fb ba",
      "fil e",
      "107 073",
      "ba cf",
      "Ġc md",
      "Ġinit rd",
      "IO APIC",
      "76 1",
      "acb f",
      "45 5",
      "82 656",
      "20 7",
      "74 4",
      "Ġap ic",
      "ĠIO APIC",
      "364 24",
      "Boot ing",
      "ĠAC TIV",
      "107073 2",
      "82656 547",
      "ĠACTIV E",
      "Ġ WARN",
      "IN G",
      "Ġspec ified",
      "ĠWARN ING",
      "p ec",
      "pec ted",
      "- >",
      "1 19",
      "a udit",
      "Ġh as",
      "ff ff",
      "Ġmess ages",
      "119 31",
      "4 22",
      "L ID",
      "Ġst ill",
      "32 61",
      "422 3261",
      "u ff",
      "er min",
      "Ġs im",
      "il ar",
      "Ġp revious",
      "Ġre lease",
      "cl ean",
      "ĠUn mounting",
      "Ġskip ped",
      "Ġsim ilar",
      "Ġprevious ly",
      "clean up",
      "c cf",
      "ĠD etec",
      "ĠDetec t",
      "4 72",
      "Q L",
      "S QL",
      "d le",
      "Ġ<*> ;",
      "in stall",
      "Ġt ermin",
      "ĠI dle",
      "ĠMy SQL",
      "97 80",
      "ĠAuthentic ation",
      "ĠRO OT",
      "Ġtermin ating",
      "0 70",
      "Ġp ing",
      "Ġex pected",
      "Ġtry ing",
      ") [<*>]:",
      "L A",
      "a fda",
      "e co",
      "i x",
      "o sen",
      "ur nt",
      "Ġret urnt",
      "ec t",
      "up call",
      "ĠL BU",
      "un ix",
      "Ġsel ect",
      "osen der",
      "Ġreturnt osender",
      "ĠLBU G",
      "3 60",
      "re sp",
      "ĠC A",
      "Ġe uid",
      "Ġ<*>.<*>.<*>-<*> .",
      "360 7",
      "resp onding",
      "Ġt ick",
      "Ġs ome",
      "nt ab",
      "cro ntab",
      "if up",
      "Ġtick s",
      "4 486",
      "7 06",
      "O R",
      "S CSI",
      "T ype",
      "V endor",
      "i r",
      "o ok",
      "Ġf loppy",
      "ed a",
      "Ġn etfilter",
      "Ġh ook",
      "Ġc ap",
      "84 3",
      "ff f",
      "99 6",
      "54 8",
      "38 5",
      "814 46",
      "build ir",
      "IL D",
      "BU ILD",
      "4486 62",
      "Ġhook s",
      "ĠR PC",
      "it i",
      "Ġi oc",
      "0 56",
      "1 58",
      "3 34",
      "E D",
      "L inux",
      "N E",
      "T otal",
      "b fb",
      "b oot",
      "d etec",
      "f er",
      "j usted",
      "o ad",
      "o ib",
      "s ur",
      "x t",
      "Ġ ad",
      "Ġn fs",
      "Ġp ast",
      "et ting",
      "ĠF OR",
      "ĠA uto",
      "Ġa rr",
      "es etting",
      "ec k",
      "ĠB uff",
      "ay s",
      "log sur",
      "ĠR esetting",
      "Ġch eck",
      "Ġne xt",
      "713 72",
      "ĠDO NE",
      "RA MDISK",
      "ip oib",
      "Ġper mi",
      "detec ting",
      "Ġad justed",
      "ĠAuto detecting",
      "Ġarr ays",
      "ĠBuff er",
      "logsur fer",
      "2 88",
      "4 81",
      "7 86",
      "A L",
      "B EL",
      "G E",
      "I A",
      "I MA",
      "O OT",
      "a fb",
      "u z",
      "v ml",
      "Ġ )'",
      "in uz",
      "Ġf ast",
      "Ġd admin",
      "ĠF RO",
      "ch ecking",
      "Ġl ustre",
      "ĠFA IL",
      "ĠN AL",
      "ĠB OOT",
      "35 16",
      "Ġm em",
      "im um",
      "84 455",
      "ĠR outing",
      "99 392",
      "init rd",
      "Ġmax imum",
      "mysql d",
      "nfs d",
      "LA BEL",
      "IMA GE",
      "vml inuz",
      "Ġfast boot",
      "ĠFRO M",
      "ĠFAIL ED",
      ")' ]",
      "m on",
      "de vice",
      "22 62",
      "ĠMo unt",
      "b ack",
      "e ab",
      "t ry",
      "re try",
      "ĠC ould",
      "Ġm ore",
      "net fs",
      "0 84",
      "L IN",
      "T NET",
      "re achable",
      "Ġanswer s",
      "ĠF rom",
      "Ġun reachable",
      "ĠR TNET",
      "ĠU DP",
      "Ġ#<*># :<*>'",
      "LIN K",
      "ĠRTNET LINK",
      "0 7",
      "r g",
      "ĠS O",
      "dis all",
      "Ġre alm",
      "Ġa rg",
      "es e",
      "90 030",
      "20 0",
      "Ġth ese",
      "ĠTh is",
      "ĠPan asas",
      "last log",
      "call back",
      "disall ow",
      "7 88",
      "= -<*>",
      "C K",
      "R PC",
      "[ [",
      "] ]'",
      "c ontext",
      "re ate",
      "Ġf p",
      "Ġt class",
      "Ġt context",
      "um p",
      "ob jec",
      "Ġc reate",
      "84 78",
      "Ġqueue up",
      "-> [[",
      "ĠSO CK",
      "=-<*> ,",
      "objec t",
      "Ġo ut",
      "ĠNo de",
      "6 06",
      "8 40",
      ": <*>):",
      "a ct",
      "g ing",
      "t r",
      "{ <*>",
      "Ġ Y",
      "<*> (",
      "at tr",
      "in as",
      "us b",
      "ch r",
      "34 0",
      "ĠP ow",
      "Ġse em",
      "62 52",
      "Ġth read",
      "sal inas",
      "Ġget attr",
      "070 340",
      "Ġout put",
      "{<*> }",
      "ĠPow er",
      "K IL",
      "k d",
      "ic ation",
      "Ġloc kd",
      "68 29",
      "if ication",
      "nfs lock",
      "KIL L",
      "! !'",
      "U SB",
      "c bd",
      "g ent",
      "m ent",
      "w ard",
      "Ġ unt",
      "in put",
      "ot e",
      "ss ed",
      "vi ron",
      "ĠA gent",
      "Ġfor ward",
      "ch ange",
      "est ed",
      "root smp",
      "Ġun ex",
      "ow ing",
      ".' ]",
      "Ġmount ing",
      "20 77",
      "24 778",
      "Ġex change",
      "Ġen viron",
      "ĠIP v",
      "Ġunt ested",
      "Ġforward ing",
      "Ġenviron ment",
      "st able",
      "ĠC all",
      "Ġl on",
      ", /",
      ", <*>'",
      "- #<*>#/",
      "2 18",
      "N O",
      "S S",
      "d ump",
      "f ailed",
      "f count",
      "k port",
      "r un",
      "u ed",
      "v ok",
      "er tion",
      "st ack",
      "ad ce",
      "re fcount",
      "Ġf ffff",
      ".<*>.<*> /",
      "ern ame",
      "de cho",
      "ĠIn vok",
      "ass ertion",
      "ĠA SS",
      "Ġport als",
      "Ġl ctl",
      "Ġ= =",
      "ob decho",
      "Ġus ername",
      "Ġb ad",
      "83 6",
      "Ġsh owing",
      "Ġup call",
      "dd d",
      "IO N",
      "45 836",
      "82 548",
      "que ued",
      "ERT ION",
      "706 63",
      "NO TLB",
      "dump stack",
      "kport al",
      "Ġfffff fff",
      "ĠInvok ed",
      "ĠASS ERTION",
      "i fy",
      "ver ify",
      "Ġw rit",
      "os ing",
      "un d",
      "Ġver ification",
      "bios verify",
      "0 80",
      "0 41",
      "2 54",
      "3 63",
      "4 54",
      "4 42",
      "5 52",
      "6 34",
      "6 39",
      "6 107",
      "7 93",
      "8 16",
      "8 86",
      "9 69",
      "A dd",
      "C opyright",
      "D IT",
      "F F",
      "F reeing",
      "L oad",
      "P W",
      "R F",
      "S er",
      "T CP",
      "U n",
      "a cf",
      "d fb",
      "h w",
      "i form",
      "n el",
      "p yright",
      "t on",
      "Ġ bi",
      "Ġ kn",
      "er r",
      "in ser",
      "ad b",
      "ce cc",
      "Ġt un",
      "cf bbc",
      "co pyright",
      "sw b",
      "fd f",
      "ang ing",
      "ĠE DIT",
      "ort In",
      "72 73",
      "ĠCh anging",
      "19 254",
      "Ġin stable",
      "29 9",
      "ĠP ortIn",
      "ĠN S",
      "ĠB ut",
      "64 65",
      "Ġh og",
      "unt ime",
      "75 969",
      "ssion s",
      "52 73",
      "cea f",
      "ba bc",
      "53 7",
      "53 20",
      "up ts",
      "63 0",
      "56 20",
      "56 6107",
      "56 5273",
      "Ġc ontroller",
      "05 552",
      "ĠK ey",
      "09 06",
      "22 58",
      "aa bae",
      "62 44",
      "Ġinter upts",
      "06 82",
      "stall ing",
      "69 59",
      "ff cc",
      "fs d",
      "Ġr untime",
      "47 96",
      "eb b",
      "42 18",
      "126 0",
      "90 18",
      "98 2",
      "32 673",
      "Ġkey ring",
      "pre ssed",
      "43 0",
      "In stalling",
      "Re al",
      "029 27",
      "Ġ<*>/ <*>'",
      "762 558",
      ":[ <*>",
      "IP v",
      "859 60",
      "Ġgo ing",
      "Ġspec ial",
      "mi ce",
      "Ġpermi ssions",
      "mon ad",
      "Ġseem s",
      "363 7",
      "Add ing",
      "Load ing",
      "PW RF",
      "Ser ial",
      "Un iform",
      "nel ing",
      "Ġkn fsd",
      "inser ting",
      "Ġtun neling",
      "19254 21",
      "ĠPortIn fo",
      "ĠBut ton",
      "Ġhog ging",
      "565273 10",
      "Ġcontroller s",
      "6244 278",
      "0682 5620",
      ". \"",
      "S ing",
      "ĠL osing",
      "06 070",
      "Ġro ute",
      "Ġbi t",
      "Sing le",
      ") ;",
      "- .",
      ". #<*>#",
      "1 45",
      "2 87",
      "3 046",
      "4 29",
      "4 344",
      "4 16",
      "5 75",
      "6 68",
      "6 11",
      "6 730",
      "7 92",
      "8 72",
      "9 72",
      "9 34",
      "9 86",
      "B uilt",
      "B rought",
      "C h",
      "C onsole",
      "C apability",
      "D etected",
      "M emory",
      "O S",
      "O n",
      "R outing",
      "S ecurity",
      "T IN",
      "U MA",
      "a g",
      "a ca",
      "a rent",
      "b ec",
      "c ar",
      "c ore",
      "d da",
      "d river",
      "f inal",
      "g ic",
      "h id",
      "k eeping",
      "l oad",
      "m ailed",
      "m trr",
      "n ation",
      "r id",
      "r usted",
      "s el",
      "t al",
      "t ask",
      "er tu",
      "re set",
      "Ġ( #<*>#@",
      "-<*> -",
      "-<*> [<*>]:",
      "Ġt rusted",
      "ss ive",
      "is k",
      "ĠC ent",
      "ĠC annot",
      "cf c",
      ".<*>.<*> .",
      "fd isk",
      "us ing",
      "ĠD etected",
      "ĠE SM",
      "ĠE cho",
      "Ġv es",
      "72 0",
      "72 3",
      "72 5",
      "72 69",
      "Ġ<*>.<*>' ]",
      "Ġin car",
      "<*>) )",
      "29 5",
      "cff c",
      "cff cfc",
      "Ġ-<*> '",
      "ĠP DT",
      "as ed",
      "ĠN UMA",
      "ĠB uild",
      "64 5",
      "ee bec",
      "Ġh ad",
      "39 4",
      "39 6730",
      "49 58",
      "Ġb rid",
      "Ġb ased",
      "52 273",
      "Ġun load",
      "Ġm wa",
      "og in",
      "ab b",
      "Ġc pi",
      "84 1",
      "84 7",
      "84 35",
      "IS TIN",
      "06 61",
      "Ġtime keeping",
      "99 701",
      "fc b",
      "port ing",
      "Ġlook s",
      "54 12",
      "Ġis n",
      "42 6",
      "70 7",
      "Ġ<*>.<*>.<*> -<*>.<*>.<*>.",
      "90 8",
      "15 636",
      "82 36",
      "sp arent",
      "ĠH ID",
      "Ġli ke",
      "939 1",
      "Ġid le",
      "ĠCom pressed",
      "00 7",
      "Ġ#<*># -<*>-",
      "accept or",
      "Ġap ertu",
      "Th ere",
      "def bcf",
      "029 2",
      "ĠJ un",
      "ĠMA IL",
      "762 6",
      "PR ISTIN",
      "Pl acing",
      "ves afb",
      "(<*>) {<*>}",
      "Ġma gic",
      "722 8435",
      "Ġfl ag",
      "ĠTran sparent",
      "364 792",
      "Boot data",
      "fff fda",
      "548 107",
      "Ġpermi ssive",
      "ĠMount ed",
      "606 50",
      "ĠY our",
      "Ġthread s",
      "Ġunex porting",
      "Ġwrit ing",
      "537 990",
      "ffcc b",
      ".#<*># .",
      "429 841",
      "872 5412",
      "972 66",
      "934 8",
      "986 32",
      "Ch ecking",
      "driver s",
      "sel inux",
      "tal ogin",
      "ĠCent OS",
      "Ġves afb",
      "Ġincar nation",
      "Ġbrid ge",
      "Ġunload ed",
      "Ġmwa it",
      "Ġcpi o",
      "Ġapertu re",
      "PRISTIN E",
      "Ġflag s",
      "2 03",
      "s ock",
      "st ed",
      "ĠS ee",
      "Ġcommand s",
      "\" .'",
      "0 091",
      "A NG",
      "L IA",
      "N S",
      "p ping",
      "Ġ gmetad",
      "ĠS to",
      "Ġ[ '",
      "ĠD NS",
      "ĠG ANG",
      "ar p",
      "Ġ<*>)' ]",
      "35 32",
      "Ġc all",
      "#<*># \".'",
      "Ġino de",
      "Ġlook up",
      "Ġ\" #<*>#\".'",
      "Ġe vent",
      "02 18",
      "ĠSto pping",
      "ĠGANG LIA",
      "2 323",
      "9 017",
      "I MM",
      "e aa",
      "g g",
      "h er",
      "m an",
      "o ss",
      "o id",
      "Ġ establ",
      "Ġ established",
      "or age",
      "ib le",
      "ot her",
      "Ġd et",
      "el ow",
      "Ġan other",
      "Ġs end",
      "ail s",
      "li sted",
      "ĠD IMM",
      "Ġst orage",
      "ic ate",
      "Ġco uld",
      "ĠP oss",
      "ri pt",
      "est s",
      "75 2323",
      "Ġb elow",
      "Ġsu gg",
      "Ġsucce ed",
      "ĠU mounting",
      "add ress",
      "un icate",
      "Ġav oid",
      "Ġinterface s",
      "42 50",
      "clud ing",
      "Ġca use",
      "Ġbe en",
      "Ġex cluded",
      "ĠEx cluding",
      "Ġ#<*># :<*>",
      "Ġcomm unicate",
      "Ġth at",
      "Ġresp onding",
      "Ġlon g",
      "9017 18",
      "Ġestabl ish",
      "Ġdet ails",
      "Ġsend s",
      "Ġcould n",
      "ĠPoss ible",
      "Ġsugg ests",
      "3 75",
      "4 37",
      "A RT",
      "b ff",
      "f cf",
      "n ame",
      "t rip",
      "en dm",
      "Ġs endm",
      "ĠA TA",
      "Ġport map",
      "Ġ-<*> ).'",
      "Ġu id",
      "ac ity",
      "Ġc ont",
      "84 54",
      "22 69",
      "it or",
      "it oring",
      "91 73",
      "69 8454",
      "port map",
      "Ġne ar",
      "Ġr host",
      "Ġr user",
      "ĠSM ART",
      "ĠMon itoring",
      "Ġlog name",
      "LO GIN",
      "ĠPA M",
      "ĠRem ote",
      "Ġcap able",
      "Ġcap acity",
      "mon itor",
      "err no",
      "394 10",
      "375 38",
      "437 39410",
      "Ġsendm sg",
      "Ġcont act",
      "& <*>)'",
      "4 35",
      "4 17",
      "= {",
      "P T",
      "T arget",
      "V OT",
      "e ec",
      "f m",
      "g ro",
      "w Re",
      "} '",
      "Ġd on",
      "Ġ( /",
      "Ġ( #<*>#",
      "ed cf",
      "il iti",
      "ĠC apab",
      "us ion",
      "ĠF wRe",
      "ĠF usion",
      "ĠIn iti",
      "Ġfor k",
      "ec da",
      "Ġin to",
      "ĠP orts",
      "ĠM ax",
      "ĠM PT",
      "ĠN ew",
      "35 76",
      "=<*> .'",
      "09 2",
      "cd b",
      "Ġr ate",
      "88 75",
      "sc ript",
      "512 5",
      "esc ing",
      "Ġback gro",
      "Ġqui escing",
      "In iti",
      "Ġmpt base",
      "Ġ<*>> &<*>)'",
      "ĠRPC s",
      "435 17",
      "417 1",
      "VOT D",
      "Ġdon e",
      "Ġ(#<*># )",
      "edcf ea",
      "iliti es",
      "ĠCapab ilities",
      "ĠFwRe v",
      "ĠIniti ating",
      "ĠMax Q",
      "Ġbackgro und",
      "Initi ator",
      ") \"",
      "4 386",
      "6 35",
      "9 83",
      "a ctive",
      "c ap",
      "r ub",
      "s act",
      "Ġ custom",
      "an ed",
      "ce ll",
      "77 635",
      "Ġg id",
      "rc h",
      "Ġin active",
      "52 56",
      "ĠR E",
      "69 47",
      "Ġor ph",
      "Ġsc rub",
      "45 35",
      "Ġ#<*># .'",
      "ĠCle aring",
      "Ġcan cell",
      "ran sact",
      "Ġcap s",
      "983 8",
      "Ġorph aned",
      "Ġcancell ed",
      "ransact ion",
      "T Y",
      "ĠT TY",
      "'\" ]",
      "6 05",
      "6 71",
      "S H",
      "a on",
      "d ia",
      "i ent",
      "m ote",
      "s uff",
      "Ġs aon",
      "<*>/ <*>'",
      "ĠS SH",
      "Ġre set",
      "Ġre mote",
      "ic ient",
      "om dia",
      "35 7",
      "Ġc ritical",
      "Ġc onnec",
      "Ġ<*>.' ]",
      "88 89",
      "Ġlat er",
      "In suff",
      "Ġag ain",
      "605 58",
      "omdia g",
      "Ġconnec ting",
      "Insuff icient",
      "7 092",
      "[ ]:",
      "a im",
      "t ec",
      "re cl",
      "fb a",
      "Ġm in",
      "un recl",
      "Ġpro tec",
      "33 7092",
      "74 337092",
      "ann ed",
      "sc anned",
      "44 3",
      "aim able",
      "unrecl aimable",
      "Ġprotec tions",
      "/ <*>/<*>'",
      "0 12",
      "7 49",
      "7 17",
      "9 40",
      "= '",
      "C E",
      "K ey",
      "L I",
      "P LA",
      "a rch",
      "c n",
      "i pe",
      "l in",
      "p ack",
      "s ul",
      "s arp",
      "re write",
      "an cy",
      "Ġt ransaction",
      "ĠC LI",
      "Ġp ipe",
      "Ġre sul",
      "<*>) {<*>}",
      "13 65",
      "34 1",
      "custom ize",
      "ĠB roken",
      "ee bdd",
      "Ġse arch",
      ":<*> \"",
      "56 77",
      ":<*>:<*> :<*>\"",
      "03 717",
      "Ġ<*>:<*>:<*> :<*>:<*>:<*>\"",
      "Ġi octl",
      "ul p",
      "73 13",
      "60 2",
      ".'\" ]",
      "bf ca",
      "RO R",
      "563 8",
      "ĠY ou",
      "Ġlon ger",
      "und ancy",
      "ĠRE PLA",
      "012 03717",
      "940 7313",
      "cn f",
      "lin pack",
      "Ġresul ted",
      "ĠREPLA CE",
      "/ #<*>#",
      "4 345",
      "5 83",
      "7 409",
      "9 68",
      "9 33",
      "M em",
      "N D",
      "f rom",
      "f cd",
      "Ġ ]'",
      "Ġf atal",
      "Ġd ump",
      "Ġt s",
      "ĠF ree",
      "ĠIn val",
      "Ġre ce",
      "Ġa uth",
      "fb fcd",
      "ER ROR",
      "64 8",
      "75 1",
      "75 48",
      "52 4",
      "up ply",
      "69 4085",
      "fc ad",
      "Ġdelay ing",
      "igh Mem",
      "Ġ<*>) .'",
      "Ġinitial ization",
      "73 648",
      "94 80",
      "Ġsub process",
      "ĠH ighMem",
      "419 933",
      "Ġlog ging",
      "67 9",
      "ĠRed undancy",
      "PA M",
      "Ġunex pected",
      "7409 79",
      "ĠInval id",
      "Ġauth s",
      "[ \"",
      "a red",
      "c ritical",
      "0 23",
      "0 78",
      "0 237",
      "1 12",
      "5 53",
      "7 47",
      "8 83",
      "8 394",
      "A dministrator",
      "A uthentic",
      "C R",
      "H O",
      "M MA",
      "O MMA",
      "P ON",
      "S E",
      "S PON",
      "W D",
      "_ _",
      "_ #<*>#",
      "a k",
      "a fd",
      "a ee",
      "b re",
      "c be",
      "f or",
      "k bd",
      "m up",
      "p assword",
      "s u",
      "t est",
      "t ransaction",
      "u ter",
      "v ing",
      "w ar",
      "Ġ .",
      "Ġ .'",
      "Ġ __",
      "Ġ' #<*>#",
      "er en",
      "at kbd",
      "st ress",
      "Ġf ull",
      "en ch",
      "ce s",
      "is ation",
      "ĠC OMMA",
      "ent ification",
      "ĠS ea",
      "ĠS upply",
      "Ġto o",
      "ĠD id",
      "ort ed",
      "Ġst op",
      "Ġre ports",
      "ĠP WD",
      "ĠN O",
      "35 81",
      "Ġsynchron isation",
      "Ġstr ing",
      "39 37",
      "49 21",
      "Ġuser s",
      "52 3581",
      "Ġop tion",
      "=<*> :'",
      "ow s",
      "Ġc d",
      "22 7",
      "87 02",
      "03 18",
      "03 32",
      "81 749",
      "Ġref eren",
      "eb de",
      "70 0332",
      "Ġro uter",
      "Ġpre ssed",
      "connec t",
      "ĠH CR",
      "ĠO SC",
      "Ġkey s",
      "Ġid entification",
      "Ġclean up",
      "08 54",
      "78 523581",
      "Ġbu sy",
      "ind ows",
      ":/ /#<*>#",
      "95 10",
      "ĠW indows",
      "ĠJ ournal",
      "Ġrequest ed",
      "ĠDa emon",
      "EC HO",
      "Ġab orted",
      "mysql admin",
      "ĠSkip ping",
      "Ġarg ument",
      "ĠKey board",
      "Ġcustom ization",
      "rch ing",
      "ĠRE SPON",
      "Ġrece ive",
      "078 81749",
      "747 0318",
      "8394 48",
      "Authentic ation",
      "_#<*># _",
      "ak fix",
      "aee f",
      "bre akfix",
      "for ce",
      "test ing",
      "war mup",
      "Ġ'#<*># [<*>]:",
      "ĠCOMMA ND",
      "ĠSea rching",
      "Ġreferen ces",
      "700332 4",
      "Ġrouter s",
      "://#<*># '",
      "ĠRESPON SE",
      "+ <*>'",
      "3 39",
      ": ']",
      "a get",
      "c p",
      "r ty",
      "w ap",
      "Ġ empt",
      "Ġ<*> +<*>'",
      "ce c",
      "Ġp aget",
      "ĠS wap",
      "77 13",
      "be b",
      "Ġdi rty",
      "Ġun stable",
      "84 6",
      "62 7713",
      "Ġsh ared",
      "ff e",
      "Ġsl ab",
      "Ġr ace",
      "eb ack",
      "24 339",
      "Ġ<*>:<*> ,",
      "Ġ<*>/ <*>,",
      "Ġmap ped",
      "Ġdel ete",
      "Ġwrit eback",
      "Ġ#<*>#:<*> \"",
      "cp u",
      "Ġempt y",
      "Ġpaget ables",
      "24339 87",
      "\" ]",
      "+ <*>/<*>'",
      "1 83",
      "2 038",
      "3 0",
      "3 16",
      "3 636",
      "3 69",
      "4 84",
      "4 27",
      "4 33",
      "5 80",
      "5 13",
      "5 56",
      "7 42",
      "7 649",
      "8 13",
      "8 39",
      "8 51",
      "9 84",
      ": \"",
      "= <<*>>",
      "A T",
      "B S",
      "C O",
      "C MD",
      "D is",
      "D CO",
      "E AS",
      "E MB",
      "F ailure",
      "G UID",
      "H E",
      "H W",
      "I F",
      "I m",
      "I LB",
      "L osing",
      "L EAS",
      "N et",
      "O X",
      "O RD",
      "R ROR",
      "S SW",
      "U T",
      "V OR",
      "X HH",
      "Y our",
      "a cc",
      "a ve",
      "b ench",
      "c v",
      "d o",
      "d dc",
      "d cdbas",
      "d undancy",
      "f ter",
      "f ca",
      "i ving",
      "k s",
      "l ace",
      "l eted",
      "m ar",
      "m and",
      "o de",
      "o ll",
      "p m",
      "p lic",
      "p ared",
      "q pm",
      "r int",
      "r ply",
      "s erver",
      "t ting",
      "u al",
      "w arning",
      "w all",
      "y ing",
      "Ġ `",
      "Ġ hel",
      "Ġ ob",
      "Ġ right",
      "in es",
      "in ode",
      "ad ca",
      "re sen",
      "re mov",
      "Ġf oll",
      "ro uting",
      "ro adca",
      "em s",
      "Ġ( <*>,",
      "el em",
      "Ġdata base",
      "Ġn am",
      "Ġt bird",
      "Ġs pin",
      "Ġs up",
      "Ġs upply",
      "ĠT O",
      "ĠT ermin",
      "ĠT HE",
      "ss ue",
      "ĠC an",
      "cf b",
      "80 632",
      "Ġp lace",
      "Ġp rint",
      "ĠS ET",
      "li tting",
      "Ġto ken",
      "Ġg iving",
      "ĠF ailure",
      "ĠF ill",
      "ĠE ND",
      "ĠE RROR",
      "ĠA RM",
      "ate st",
      "Ġre cv",
      "Ġre dundancy",
      "Ġa fter",
      "Ġl ink",
      "Ġl ines",
      "Ġl atest",
      "Ġco py",
      "19 3",
      "ec ified",
      "Ġin struct",
      "Ġ(<*>) ,",
      "13 2",
      "op t",
      "ar s",
      "fil es",
      "TA VOR",
      "ĠP lease",
      "ĠP LEAS",
      "ĠP resen",
      "Ġw all",
      "Ġw eb",
      "ca c",
      "35 5",
      "ĠSystem Im",
      "40 5",
      "Ġh ome",
      "Ġh ave",
      "49 3",
      "Ġb oot",
      "Ġb ench",
      "Ġb roadca",
      "cea a",
      "ac de",
      "ac df",
      "ba a",
      "53 839",
      "18 91",
      "18 53839",
      "Ġun it",
      "56 8",
      "57 6",
      "57 68",
      "ĠK ill",
      "Ġ[<*>] ']",
      "ĠR EM",
      "it ted",
      "58 568",
      "dc b",
      "Ġch assis",
      "Ġch di",
      "Ġch ars",
      "ĠInstall ing",
      "Ġfree ing",
      "51 51",
      "384 4",
      "ft irq",
      "Ġmy sql",
      "un sp",
      "ex it",
      "Ġset sock",
      "Ġi ssue",
      "Ġdriver s",
      "Ġsc ript",
      "59 85",
      "42 32",
      "Ġpro bl",
      "Ġ<*>.<*>.<*> ']",
      "Ġcom mit",
      "33 23",
      "Ġtftp boot",
      "MP T",
      "MP AT",
      "Ġpre pared",
      "age GUID",
      "82 03",
      "82 30",
      "94 4",
      "ĠO ut",
      "ĠO UT",
      "so lete",
      "so ftirq",
      "26 742",
      "ĠSt atus",
      "comm itted",
      "ĠCom mand",
      "Ġcomp leted",
      "Ġap plic",
      "Ġinstall ing",
      "ĠDis connect",
      "Ġbu ying",
      "Ġth en",
      "65 355",
      "Ġman ual",
      "Ġhtt ps",
      "ĠMA ILB",
      "ĠTh e",
      "ĠPA SSW",
      "264 1",
      "ĠRemo ving",
      "licens es",
      "55 5151",
      "077 7",
      "609 2641",
      "Ġab out",
      "881 5",
      "Ġsp litting",
      "ĠRece ive",
      "mysql bug",
      "adce b",
      "537 64",
      "ffcc c",
      "Ġcall back",
      "749 11",
      "/#<*># :",
      "Ġrece ived",
      "316 8",
      "3636 04",
      "484 8",
      "427 3323",
      "513 5",
      "813 11",
      "851 180",
      "BS DCO",
      "Dis connect",
      "EMB ER",
      "fca f",
      "mar ks",
      "Ġhel p",
      "Ġob solete",
      "remov e",
      "Ġfoll owing",
      "Ġ(<*>, <*>),",
      "Ġspin e",
      "Ġsup pressed",
      "ĠTermin ated",
      "Ġprint k",
      "ĠARM ED",
      "Ġinstruct ions",
      "ĠPLEAS E",
      "ĠPresen ce",
      "ĠSystemIm ageGUID",
      "Ġbench marks",
      "Ġbroadca sted",
      "5768 87",
      "ĠKill ed",
      "ĠREM EMBER",
      "Ġchdi r",
      "Ġmysql d",
      "unsp ecified",
      "Ġsetsock opt",
      "5985 09",
      "Ġprobl ems",
      "26742 04",
      "Ġapplic ation",
      "ĠMAILB OX",
      "ĠPASSW ORD",
      "BSDCO MPAT",
      "- -",
      "2 34",
      "o si",
      "Ġ<*> .",
      "ĠT im",
      "Ġh otplug",
      ":<*> ,",
      "[' --",
      "ĠRe bas",
      "=<*>' ]",
      "hal d",
      "...' ]",
      "Ġalloc ation",
      "Ġalloc ate",
      "Ġwa iting",
      "\")' ]",
      "Ġbi osi",
      "234 68",
      "ĠTim ed",
      "ĠRebas ing",
      "Ġbiosi e"
    ]
  }
}